{
  "version": "1.0",
  "truncation": null,
  "padding": null,
  "added_tokens": [
    {
      "id": 0,
      "content": "[PAD]",
      "single_word": false,
      "lstrip": false,
      "rstrip": false,
      "normalized": false,
      "special": true
    },
    {
      "id": 1,
      "content": "[UNK]",
      "single_word": false,
      "lstrip": false,
      "rstrip": false,
      "normalized": false,
      "special": true
    },
    {
      "id": 2,
      "content": "[SOS]",
      "single_word": false,
      "lstrip": false,
      "rstrip": false,
      "normalized": false,
      "special": true
    },
    {
      "id": 3,
      "content": "[EOS]",
      "single_word": false,
      "lstrip": false,
      "rstrip": false,
      "normalized": false,
      "special": true
    }
  ],
  "normalizer": null,
  "pre_tokenizer": {
    "type": "Whitespace"
  },
  "post_processor": null,
  "decoder": null,
  "model": {
    "type": "BPE",
    "dropout": null,
    "unk_token": "[UNK]",
    "continuing_subword_prefix": null,
    "end_of_word_suffix": null,
    "fuse_unk": false,
    "byte_fallback": false,
    "ignore_merges": false,
    "vocab": {
      "[PAD]": 0,
      "[UNK]": 1,
      "[SOS]": 2,
      "[EOS]": 3,
      "!": 4,
      "\"": 5,
      "#": 6,
      "$": 7,
      "%": 8,
      "&": 9,
      "'": 10,
      "(": 11,
      ")": 12,
      "*": 13,
      "+": 14,
      ",": 15,
      "-": 16,
      ".": 17,
      "/": 18,
      "0": 19,
      "1": 20,
      "2": 21,
      "3": 22,
      "4": 23,
      "5": 24,
      "6": 25,
      "7": 26,
      "8": 27,
      "9": 28,
      ":": 29,
      ";": 30,
      "<": 31,
      "=": 32,
      ">": 33,
      "?": 34,
      "@": 35,
      "A": 36,
      "B": 37,
      "C": 38,
      "D": 39,
      "E": 40,
      "F": 41,
      "G": 42,
      "H": 43,
      "I": 44,
      "J": 45,
      "K": 46,
      "L": 47,
      "M": 48,
      "N": 49,
      "O": 50,
      "P": 51,
      "Q": 52,
      "R": 53,
      "S": 54,
      "T": 55,
      "U": 56,
      "V": 57,
      "W": 58,
      "X": 59,
      "Y": 60,
      "Z": 61,
      "[": 62,
      "\\": 63,
      "]": 64,
      "^": 65,
      "_": 66,
      "`": 67,
      "a": 68,
      "b": 69,
      "c": 70,
      "d": 71,
      "e": 72,
      "f": 73,
      "g": 74,
      "h": 75,
      "i": 76,
      "j": 77,
      "k": 78,
      "l": 79,
      "m": 80,
      "n": 81,
      "o": 82,
      "p": 83,
      "q": 84,
      "r": 85,
      "s": 86,
      "t": 87,
      "u": 88,
      "v": 89,
      "w": 90,
      "x": 91,
      "y": 92,
      "z": 93,
      "{": 94,
      "|": 95,
      "}": 96,
      "~": 97,
      "£": 98,
      "§": 99,
      "©": 100,
      "ª": 101,
      "«": 102,
      "­": 103,
      "®": 104,
      "°": 105,
      "±": 106,
      "²": 107,
      "³": 108,
      "´": 109,
      "µ": 110,
      "·": 111,
      "¹": 112,
      "º": 113,
      "¼": 114,
      "½": 115,
      "¾": 116,
      "À": 117,
      "Á": 118,
      "Â": 119,
      "Ã": 120,
      "Å": 121,
      "È": 122,
      "É": 123,
      "Ê": 124,
      "Ì": 125,
      "Í": 126,
      "Ð": 127,
      "Ò": 128,
      "Ó": 129,
      "Ô": 130,
      "Õ": 131,
      "×": 132,
      "Ù": 133,
      "Ú": 134,
      "Ý": 135,
      "ß": 136,
      "à": 137,
      "á": 138,
      "â": 139,
      "ã": 140,
      "ä": 141,
      "æ": 142,
      "ç": 143,
      "è": 144,
      "é": 145,
      "ê": 146,
      "ë": 147,
      "ì": 148,
      "í": 149,
      "ï": 150,
      "ð": 151,
      "ò": 152,
      "ó": 153,
      "ô": 154,
      "õ": 155,
      "ö": 156,
      "÷": 157,
      "ø": 158,
      "ù": 159,
      "ú": 160,
      "û": 161,
      "ü": 162,
      "ý": 163,
      "Ă": 164,
      "ă": 165,
      "Đ": 166,
      "đ": 167,
      "ė": 168,
      "Ĩ": 169,
      "ĩ": 170,
      "ł": 171,
      "ŋ": 172,
      "œ": 173,
      "Ũ": 174,
      "ũ": 175,
      "ŷ": 176,
      "Ơ": 177,
      "ơ": 178,
      "ƣ": 179,
      "Ư": 180,
      "ư": 181,
      "ɣ": 182,
      "˂": 183,
      "˃": 184,
      "˚": 185,
      "̀": 186,
      "́": 187,
      "̃": 188,
      "̈": 189,
      "̉": 190,
      "̣": 191,
      "Α": 192,
      "Β": 193,
      "Δ": 194,
      "Ω": 195,
      "α": 196,
      "β": 197,
      "γ": 198,
      "δ": 199,
      "ε": 200,
      "ζ": 201,
      "θ": 202,
      "κ": 203,
      "λ": 204,
      "μ": 205,
      "ο": 206,
      "π": 207,
      "ρ": 208,
      "υ": 209,
      "χ": 210,
      "І": 211,
      "б": 212,
      "і": 213,
      "қ": 214,
      "ᵡ": 215,
      "ᵧ": 216,
      "Ẋ": 217,
      "Ạ": 218,
      "ạ": 219,
      "Ả": 220,
      "ả": 221,
      "Ấ": 222,
      "ấ": 223,
      "Ầ": 224,
      "ầ": 225,
      "Ẩ": 226,
      "ẩ": 227,
      "Ẫ": 228,
      "ẫ": 229,
      "Ậ": 230,
      "ậ": 231,
      "Ắ": 232,
      "ắ": 233,
      "Ằ": 234,
      "ằ": 235,
      "Ẳ": 236,
      "ẳ": 237,
      "Ẵ": 238,
      "ẵ": 239,
      "Ặ": 240,
      "ặ": 241,
      "Ẹ": 242,
      "ẹ": 243,
      "Ẻ": 244,
      "ẻ": 245,
      "Ẽ": 246,
      "ẽ": 247,
      "Ế": 248,
      "ế": 249,
      "Ề": 250,
      "ề": 251,
      "Ể": 252,
      "ể": 253,
      "Ễ": 254,
      "ễ": 255,
      "Ệ": 256,
      "ệ": 257,
      "Ỉ": 258,
      "ỉ": 259,
      "Ị": 260,
      "ị": 261,
      "Ọ": 262,
      "ọ": 263,
      "Ỏ": 264,
      "ỏ": 265,
      "Ố": 266,
      "ố": 267,
      "Ồ": 268,
      "ồ": 269,
      "Ổ": 270,
      "ổ": 271,
      "Ỗ": 272,
      "ỗ": 273,
      "Ộ": 274,
      "ộ": 275,
      "Ớ": 276,
      "ớ": 277,
      "Ờ": 278,
      "ờ": 279,
      "Ở": 280,
      "ở": 281,
      "Ỡ": 282,
      "ỡ": 283,
      "Ợ": 284,
      "ợ": 285,
      "Ụ": 286,
      "ụ": 287,
      "Ủ": 288,
      "ủ": 289,
      "Ứ": 290,
      "ứ": 291,
      "Ừ": 292,
      "ừ": 293,
      "Ử": 294,
      "ử": 295,
      "Ữ": 296,
      "ữ": 297,
      "Ự": 298,
      "ự": 299,
      "Ỳ": 300,
      "ỳ": 301,
      "Ỵ": 302,
      "ỵ": 303,
      "Ỷ": 304,
      "ỷ": 305,
      "Ỹ": 306,
      "ỹ": 307,
      "​": 308,
      "‎": 309,
      "‐": 310,
      "‑": 311,
      "‒": 312,
      "–": 313,
      "—": 314,
      "‘": 315,
      "’": 316,
      "‚": 317,
      "‛": 318,
      "“": 319,
      "”": 320,
      "‟": 321,
      "†": 322,
      "‡": 323,
      "•": 324,
      "…": 325,
      "‬": 326,
      "‭": 327,
      "‰": 328,
      "′": 329,
      "⁄": 330,
      "⁰": 331,
      "⁺": 332,
      "₡": 333,
      "℃": 334,
      "™": 335,
      "⅓": 336,
      "←": 337,
      "↑": 338,
      "→": 339,
      "↓": 340,
      "↔": 341,
      "∆": 342,
      "−": 343,
      "≈": 344,
      "≤": 345,
      "≥": 346,
      "─": 347,
      "◦": 348,
      "♦": 349,
      "✓": 350,
      "": 351,
      "": 352,
      "": 353,
      "": 354,
      "": 355,
      "": 356,
      "": 357,
      "": 358,
      "": 359,
      "": 360,
      "": 361,
      "": 362,
      "": 363,
      "": 364,
      "": 365,
      "": 366,
      "": 367,
      "": 368,
      "": 369,
      "": 370,
      "ﬁ": 371,
      "ﬂ": 372,
      "﻿": 373,
      "：": 374,
      "ng": 375,
      "nh": 376,
      "th": 377,
      "ch": 378,
      "tr": 379,
      "ph": 380,
      "kh": 381,
      "và": 382,
      "iệ": 383,
      "ên": 384,
      "ác": 385,
      "gi": 386,
      "ệnh": 387,
      "có": 388,
      "qu": 389,
      "ân": 390,
      "ượ": 391,
      "bệnh": 392,
      "uy": 393,
      "ti": 394,
      "ườ": 395,
      "ết": 396,
      "là": 397,
      "an": 398,
      "ến": 399,
      "ong": 400,
      "ới": 401,
      "ều": 402,
      "ược": 403,
      "các": 404,
      "ươ": 405,
      "ho": 406,
      "ương": 407,
      "ường": 408,
      "ông": 409,
      "iên": 410,
      "iều": 411,
      "củ": 412,
      "của": 413,
      "nhân": 414,
      "ất": 415,
      "được": 416,
      "độ": 417,
      "ại": 418,
      "iện": 419,
      "thu": 420,
      "trong": 421,
      "ần": 422,
      "ình": 423,
      "ặc": 424,
      "ngh": 425,
      "ối": 426,
      "với": 427,
      "thể": 428,
      "iể": 429,
      "inh": 430,
      "ứng": 431,
      "ung": 432,
      "au": 433,
      "trị": 434,
      "ột": 435,
      "quả": 436,
      "iệu": 437,
      "ăng": 438,
      "phá": 439,
      "ận": 440,
      "số": 441,
      "ức": 442,
      "ật": 443,
      "in": 444,
      "ổi": 445,
      "không": 446,
      "cứ": 447,
      "cứu": 448,
      "ao": 449,
      "điều": 450,
      "dụ": 451,
      "mạ": 452,
      "lo": 453,
      "ực": 454,
      "àng": 455,
      "âm": 456,
      "ai": 457,
      "tu": 458,
      "vi": 459,
      "áng": 460,
      "hoặc": 461,
      "một": 462,
      "đến": 463,
      "ếu": 464,
      "ày": 465,
      "ướ": 466,
      "chứng": 467,
      "ầu": 468,
      "20": 469,
      "êm": 470,
      "oá": 471,
      "tí": 472,
      "má": 473,
      "ang": 474,
      "ẩn": 475,
      "cho": 476,
      "hợ": 477,
      "ây": 478,
      "cơ": 479,
      "thường": 480,
      "ẫu": 481,
      "hợp": 482,
      "ốc": 483,
      "ống": 484,
      "giả": 485,
      "sinh": 486,
      "iểm": 487,
      "tại": 488,
      "giá": 489,
      "ạn": 490,
      "lệ": 491,
      "sau": 492,
      "ấp": 493,
      ").": 494,
      "khi": 495,
      "trên": 496,
      "máu": 497,
      "ánh": 498,
      "thuật": 499,
      "dụng": 500,
      "ượng": 501,
      "iễ": 502,
      "từ": 503,
      "ội": 504,
      "iến": 505,
      "ra": 506,
      "Kết": 507,
      "ằng": 508,
      "do": 509,
      "hiện": 510,
      "ơn": 511,
      "ắt": 512,
      "ước": 513,
      "ùng": 514,
      "êu": 515,
      "pháp": 516,
      "Th": 517,
      "mạch": 518,
      "quan": 519,
      "ững": 520,
      "ay": 521,
      "ành": 522,
      "đị": 523,
      "eo": 524,
      "ười": 525,
      "nghiên": 526,
      "am": 527,
      "cao": 528,
      "cả": 529,
      "en": 530,
      "àn": 531,
      "ọc": 532,
      "nguy": 533,
      "định": 534,
      "động": 535,
      "như": 536,
      "huy": 537,
      "to": 538,
      "người": 539,
      "bằng": 540,
      "tính": 541,
      "iệt": 542,
      "so": 543,
      "tăng": 544,
      "viện": 545,
      "phẫu": 546,
      "er": 547,
      "óm": 548,
      "thuốc": 549,
      "Ng": 550,
      "ục": 551,
      "ồng": 552,
      "về": 553,
      "điểm": 554,
      "tố": 555,
      "ái": 556,
      "mô": 557,
      "ời": 558,
      "iễm": 559,
      "tuổi": 560,
      "kho": 561,
      "sử": 562,
      "huyết": 563,
      "giảm": 564,
      "Tr": 565,
      "),": 566,
      "để": 567,
      "hơn": 568,
      "những": 569,
      "ài": 570,
      "phát": 571,
      "oán": 572,
      "ăm": 573,
      "ạng": 574,
      "đường": 575,
      "kết": 576,
      "nhóm": 577,
      "biến": 578,
      "co": 579,
      "trung": 580,
      "lu": 581,
      "nhiễm": 582,
      "Ch": 583,
      "sự": 584,
      "đoán": 585,
      "thực": 586,
      "ào": 587,
      "ền": 588,
      "trường": 589,
      "hiệu": 590,
      "tiêu": 591,
      "ắc": 592,
      "Các": 593,
      "Ph": 594,
      "10": 595,
      "liên": 596,
      "thương": 597,
      "dị": 598,
      "theo": 599,
      "sàng": 600,
      "gây": 601,
      "chi": 602,
      "viêm": 603,
      "ấy": 604,
      "bị": 605,
      "bình": 606,
      "tế": 607,
      "đầu": 608,
      "lượng": 609,
      "tháng": 610,
      "trẻ": 611,
      "dư": 612,
      "yếu": 613,
      "Bệnh": 614,
      "ạt": 615,
      "chỉ": 616,
      "áp": 617,
      "này": 618,
      "Nh": 619,
      "lâm": 620,
      "đặc": 621,
      "ặt": 622,
      "phương": 623,
      "thời": 624,
      "học": 625,
      "khác": 626,
      "anh": 627,
      "ích": 628,
      "ấn": 629,
      "thi": 630,
      "ải": 631,
      "òng": 632,
      "em": 633,
      "hoá": 634,
      "tổ": 635,
      "tim": 636,
      "hình": 637,
      "năng": 638,
      "nội": 639,
      "đó": 640,
      "nhất": 641,
      "ăn": 642,
      "ữa": 643,
      "phân": 644,
      "nghiệ": 645,
      "dịch": 646,
      "ôi": 647,
      "ập": 648,
      "on": 649,
      "kháng": 650,
      "ản": 651,
      "iểu": 652,
      "tử": 653,
      "ét": 654,
      "gian": 655,
      "làm": 656,
      "ếm": 657,
      "thành": 658,
      "%.": 659,
      "năm": 660,
      "uẩn": 661,
      "đo": 662,
      "cắt": 663,
      "tỷ": 664,
      "chất": 665,
      "ro": 666,
      "%,": 667,
      "cấp": 668,
      "id": 669,
      "vào": 670,
      "áo": 671,
      "nhiều": 672,
      "nghiệm": 673,
      "iệc": 674,
      "cần": 675,
      "chẩn": 676,
      "thư": 677,
      "cầu": 678,
      "kinh": 679,
      "ngày": 680,
      "Ngh": 681,
      "loạn": 682,
      "bào": 683,
      "al": 684,
      "thận": 685,
      "ồi": 686,
      "ách": 687,
      "ẫn": 688,
      "luận": 689,
      "đã": 690,
      "ồm": 691,
      "lý": 692,
      "xu": 693,
      "phổi": 694,
      "gồm": 695,
      "201": 696,
      "ảo": 697,
      "ảy": 698,
      "loại": 699,
      "toàn": 700,
      "trước": 701,
      "Nghiên": 702,
      "triệu": 703,
      "Kh": 704,
      "nguyên": 705,
      "biệt": 706,
      "ạo": 707,
      "di": 708,
      "mức": 709,
      "đau": 710,
      "ảnh": 711,
      "trạng": 712,
      "ấu": 713,
      "qua": 714,
      "đối": 715,
      "việc": 716,
      "thấy": 717,
      "út": 718,
      "bao": 719,
      "ặp": 720,
      "ảng": 721,
      "đánh": 722,
      "tổn": 723,
      "ol": 724,
      "phải": 725,
      "thần": 726,
      "xương": 727,
      "iển": 728,
      "lớ": 729,
      "da": 730,
      "lần": 731,
      "chủ": 732,
      "ão": 733,
      "ính": 734,
      "tình": 735,
      "ạch": 736,
      "mổ": 737,
      "xác": 738,
      "ar": 739,
      "thông": 740,
      "gan": 741,
      "ngo": 742,
      "tương": 743,
      "úng": 744,
      "ọng": 745,
      "giữa": 746,
      "chế": 747,
      "sống": 748,
      "te": 749,
      "rối": 750,
      "00": 751,
      "tác": 752,
      "thai": 753,
      "uyến": 754,
      "tỉ": 755,
      "suy": 756,
      "tiế": 757,
      "si": 758,
      "ặng": 759,
      "dưới": 760,
      "khoa": 761,
      "ưở": 762,
      "ưởng": 763,
      "nặng": 764,
      "chiếm": 765,
      "gặp": 766,
      "đoạn": 767,
      "xuất": 768,
      "át": 769,
      "12": 770,
      "tự": 771,
      "não": 772,
      "tâm": 773,
      "ac": 774,
      "tượng": 775,
      "phần": 776,
      "úc": 777,
      "ũng": 778,
      "thức": 779,
      "ine": 780,
      "quản": 781,
      "ru": 782,
      "tích": 783,
      "dự": 784,
      "phụ": 785,
      "hành": 786,
      "Mục": 787,
      "xét": 788,
      "Đánh": 789,
      "đề": 790,
      "chuy": 791,
      "ví": 792,
      "khuẩn": 793,
      "ẩm": 794,
      "cũng": 795,
      "uyền": 796,
      "trùng": 797,
      "trình": 798,
      "nhưng": 799,
      "nữ": 800,
      "tả": 801,
      "li": 802,
      "ỏi": 803,
      "vị": 804,
      "âu": 805,
      "tiến": 806,
      "as": 807,
      "Từ": 808,
      "ter": 809,
      "nước": 810,
      "%)": 811,
      "nên": 812,
      "thấp": 813,
      "Đối": 814,
      "tiếp": 815,
      "can": 816,
      "công": 817,
      "dẫn": 818,
      "soi": 819,
      "ỡng": 820,
      "lớn": 821,
      "truyền": 822,
      "lại": 823,
      "tin": 824,
      "sát": 825,
      "tiể": 826,
      "tiểu": 827,
      "nhận": 828,
      "mặt": 829,
      "óc": 830,
      "ám": 831,
      "òn": 832,
      "%),": 833,
      "chức": 834,
      "triển": 835,
      "tuyến": 836,
      "liệu": 837,
      "thống": 838,
      "vấn": 839,
      "thay": 840,
      "es": 841,
      "khối": 842,
      "ít": 843,
      "ưa": 844,
      "biểu": 845,
      "đa": 846,
      "hồi": 847,
      "ép": 848,
      "đổi": 849,
      "khoá": 850,
      "đồng": 851,
      "hai": 852,
      "mạc": 853,
      "ộc": 854,
      "ằm": 855,
      "ớp": 856,
      "ĩnh": 857,
      "hội": 858,
      "ừa": 859,
      "trọng": 860,
      "ển": 861,
      "gia": 862,
      "iêm": 863,
      "nhiên": 864,
      "ồn": 865,
      "thiếu": 866,
      "tốt": 867,
      "cu": 868,
      "khớp": 869,
      "dùng": 870,
      "cảm": 871,
      "thiết": 872,
      "Điều": 873,
      "ởi": 874,
      "gh": 875,
      "éo": 876,
      "hệ": 877,
      "bộ": 878,
      "lực": 879,
      "lư": 880,
      "sức": 881,
      "thanh": 882,
      "dạng": 883,
      "giới": 884,
      "ộng": 885,
      "Tỷ": 886,
      "giai": 887,
      "bất": 888,
      "hoạt": 889,
      "tạo": 890,
      "Trong": 891,
      "dưỡng": 892,
      "chuyển": 893,
      "vong": 894,
      "Phương": 895,
      "hưởng": 896,
      "chính": 897,
      "trí": 898,
      "cách": 899,
      "dài": 900,
      "ca": 901,
      "vùng": 902,
      "CT": 903,
      "iệp": 904,
      "ta": 905,
      "gen": 906,
      "%).": 907,
      "phòng": 908,
      "màng": 909,
      "im": 910,
      "còn": 911,
      "khí": 912,
      "án": 913,
      "15": 914,
      "su": 915,
      "05": 916,
      "óng": 917,
      "ĩa": 918,
      "Có": 919,
      "tiên": 920,
      "mắc": 921,
      "sản": 922,
      "tĩnh": 923,
      "ãn": 924,
      "lên": 925,
      "ầm": 926,
      "iễn": 927,
      "tái": 928,
      "ắn": 929,
      "ợi": 930,
      "cung": 931,
      "uyên": 932,
      "viên": 933,
      "nam": 934,
      "quá": 935,
      "II": 936,
      "bu": 937,
      "khả": 938,
      "kiểm": 939,
      "quang": 940,
      "xảy": 941,
      "19": 942,
      "tiền": 943,
      "ướng": 944,
      "giải": 945,
      "tay": 946,
      "or": 947,
      "rất": 948,
      "thế": 949,
      "thiệp": 950,
      "21": 951,
      "tuần": 952,
      "Gi": 953,
      "nghĩa": 954,
      "nồng": 955,
      "nếu": 956,
      "ngoài": 957,
      "chúng": 958,
      "mạn": 959,
      "thất": 960,
      "30": 961,
      "mg": 962,
      "ụng": 963,
      "úp": 964,
      "BN": 965,
      "độc": 966,
      "ic": 967,
      "khám": 968,
      "tràng": 969,
      "pro": 970,
      "11": 971,
      "đại": 972,
      "thở": 973,
      "ốt": 974,
      "uống": 975,
      "giúp": 976,
      "dấu": 977,
      "giờ": 978,
      "cổ": 979,
      "50": 980,
      "phổ": 981,
      "liều": 982,
      "đơn": 983,
      "el": 984,
      "tôi": 985,
      "ậu": 986,
      "ngang": 987,
      "200": 988,
      "oát": 989,
      "chống": 990,
      "hướng": 991,
      "kỹ": 992,
      "kích": 993,
      "kỳ": 994,
      "bi": 995,
      "khoảng": 996,
      "hấp": 997,
      "Những": 998,
      "õi": 999,
      "thích": 1000,
      "phẩm": 1001,
      "mu": 1002,
      "hoàn": 1003,
      "ôn": 1004,
      "ớm": 1005,
      "niệu": 1006,
      "sớm": 1007,
      "sóc": 1008,
      "Một": 1009,
      "tiết": 1010,
      "dõi": 1011,
      "vì": 1012,
      "bụng": 1013,
      "bên": 1014,
      "mất": 1015,
      "răng": 1016,
      "đều": 1017,
      "kê": 1018,
      "tiêm": 1019,
      "cân": 1020,
      "tắc": 1021,
      "tuỷ": 1022,
      "ụp": 1023,
      "ọn": 1024,
      "đột": 1025,
      "Chẩn": 1026,
      "ngoại": 1027,
      "vật": 1028,
      "quy": 1029,
      "mật": 1030,
      "thân": 1031,
      "sơ": 1032,
      "ma": 1033,
      "miễn": 1034,
      "trực": 1035,
      "mà": 1036,
      "dày": 1037,
      "cải": 1038,
      "ty": 1039,
      "thủ": 1040,
      "đi": 1041,
      "mối": 1042,
      "Việt": 1043,
      "18": 1044,
      "re": 1045,
      "14": 1046,
      "ũi": 1047,
      "nhau": 1048,
      "hạn": 1049,
      "nhỏ": 1050,
      "22": 1051,
      "lin": 1052,
      "ri": 1053,
      "mắt": 1054,
      "chảy": 1055,
      "ox": 1056,
      "ỗi": 1057,
      "khó": 1058,
      "13": 1059,
      "ruột": 1060,
      "nó": 1061,
      "chuẩn": 1062,
      "Nam": 1063,
      "24": 1064,
      "đạt": 1065,
      "khoẻ": 1066,
      "nhập": 1067,
      "cận": 1068,
      "thứ": 1069,
      "bởi": 1070,
      "tháo": 1071,
      "mm": 1072,
      "chăm": 1073,
      "mẫu": 1074,
      "siêu": 1075,
      "ban": 1076,
      "dạ": 1077,
      "hay": 1078,
      "chưa": 1079,
      "ẹp": 1080,
      "bỏ": 1081,
      "thiện": 1082,
      "100": 1083,
      "mũi": 1084,
      "60": 1085,
      "chọn": 1086,
      "giác": 1087,
      "25": 1088,
      "ngực": 1089,
      "chu": 1090,
      "àm": 1091,
      "tam": 1092,
      "me": 1093,
      "hi": 1094,
      "thì": 1095,
      "tinh": 1096,
      "dương": 1097,
      "đồ": 1098,
      "bảo": 1099,
      "tra": 1100,
      "bạch": 1101,
      "dinh": 1102,
      "thêm": 1103,
      "chân": 1104,
      "ly": 1105,
      "Trung": 1106,
      "đặt": 1107,
      "Tuy": 1108,
      "rõ": 1109,
      "xem": 1110,
      "nào": 1111,
      "le": 1112,
      "giáp": 1113,
      "soát": 1114,
      "%;": 1115,
      "TT": 1116,
      "đái": 1117,
      "ni": 1118,
      "kéo": 1119,
      "ềm": 1120,
      "trợ": 1121,
      "mẹ": 1122,
      "16": 1123,
      "kiến": 1124,
      "se": 1125,
      "ẳng": 1126,
      "ấm": 1127,
      "tai": 1128,
      "dục": 1129,
      "hết": 1130,
      "xạ": 1131,
      "chấn": 1132,
      "nhanh": 1133,
      "phản": 1134,
      "sẽ": 1135,
      "hỗ": 1136,
      "01": 1137,
      "dựa": 1138,
      "phù": 1139,
      "ơi": 1140,
      "thị": 1141,
      "phục": 1142,
      "mang": 1143,
      "ạy": 1144,
      "ịp": 1145,
      "đáp": 1146,
      "ậy": 1147,
      "ghép": 1148,
      "nhẹ": 1149,
      "chụp": 1150,
      "Qu": 1151,
      "tỉnh": 1152,
      "hô": 1153,
      "lọc": 1154,
      "ửa": 1155,
      "thái": 1156,
      "phút": 1157,
      "TH": 1158,
      "40": 1159,
      "vận": 1160,
      "nhằm": 1161,
      "95": 1162,
      "xơ": 1163,
      "ưng": 1164,
      "ượt": 1165,
      "Nếu": 1166,
      "con": 1167,
      "lưu": 1168,
      "pho": 1169,
      "căn": 1170,
      "cụ": 1171,
      "tập": 1172,
      "il": 1173,
      "khu": 1174,
      "..": 1175,
      "báo": 1176,
      "cáo": 1177,
      "trở": 1178,
      "17": 1179,
      "điện": 1180,
      "ắng": 1181,
      "ứa": 1182,
      "IV": 1183,
      "thuộc": 1184,
      "ìm": 1185,
      "xo": 1186,
      "ãy": 1187,
      "la": 1188,
      "cùng": 1189,
      "sốt": 1190,
      "máy": 1191,
      "ne": 1192,
      "đủ": 1193,
      "nhi": 1194,
      "nhạy": 1195,
      "dây": 1196,
      "đang": 1197,
      "sỏi": 1198,
      "nằm": 1199,
      "Khảo": 1200,
      "nu": 1201,
      "tổng": 1202,
      "xi": 1203,
      "trái": 1204,
      "chung": 1205,
      "Không": 1206,
      "cộng": 1207,
      "sĩ": 1208,
      "tri": 1209,
      "of": 1210,
      "hàng": 1211,
      "hàm": 1212,
      "lá": 1213,
      "đạo": 1214,
      "lấy": 1215,
      "lập": 1216,
      "ngừa": 1217,
      "tư": 1218,
      "ốn": 1219,
      "Theo": 1220,
      "hạ": 1221,
      "Ho": 1222,
      "oid": 1223,
      "vết": 1224,
      "Tổ": 1225,
      "Đặt": 1226,
      "iệng": 1227,
      "miệng": 1228,
      "CO": 1229,
      "Thời": 1230,
      "mới": 1231,
      "Viêm": 1232,
      "23": 1233,
      "vòng": 1234,
      "nang": 1235,
      "nhịp": 1236,
      "đây": 1237,
      "bắt": 1238,
      "uồn": 1239,
      "tein": 1240,
      "vẫn": 1241,
      "lợi": 1242,
      "ện": 1243,
      "dân": 1244,
      "ựa": 1245,
      "Sự": 1246,
      "pi": 1247,
      "ệt": 1248,
      "rộng": 1249,
      "van": 1250,
      "úi": 1251,
      "Tỉ": 1252,
      "tục": 1253,
      "èm": 1254,
      "rút": 1255,
      "ID": 1256,
      "mở": 1257,
      "kể": 1258,
      "um": 1259,
      "đáng": 1260,
      "bàn": 1261,
      "ia": 1262,
      "hạch": 1263,
      "ster": 1264,
      "Xác": 1265,
      "bác": 1266,
      "gần": 1267,
      "lan": 1268,
      "khảo": 1269,
      "đôi": 1270,
      "kèm": 1271,
      "tìm": 1272,
      "ậm": 1273,
      "tất": 1274,
      "Thu": 1275,
      "phí": 1276,
      "lượt": 1277,
      "trú": 1278,
      "2021": 1279,
      "MD": 1280,
      "tới": 1281,
      "TC": 1282,
      "ep": 1283,
      "yc": 1284,
      "tối": 1285,
      "mi": 1286,
      "kg": 1287,
      "ầy": 1288,
      "họ": 1289,
      "ạm": 1290,
      "dù": 1291,
      "trừ": 1292,
      "vệ": 1293,
      "liệt": 1294,
      "lao": 1295,
      "đình": 1296,
      "nghi": 1297,
      "mỗi": 1298,
      "Mô": 1299,
      "dung": 1300,
      "vai": 1301,
      "xuyên": 1302,
      "nhu": 1303,
      "Ti": 1304,
      "ba": 1305,
      "biết": 1306,
      "hẹp": 1307,
      "90": 1308,
      "xã": 1309,
      "phế": 1310,
      "Phẫu": 1311,
      "ghi": 1312,
      "sở": 1313,
      "sắc": 1314,
      "xâm": 1315,
      "CR": 1316,
      "80": 1317,
      "hậu": 1318,
      "thước": 1319,
      "lớp": 1320,
      "chỉnh": 1321,
      "Sau": 1322,
      "33": 1323,
      "vành": 1324,
      "cm": 1325,
      "trầm": 1326,
      "hỏi": 1327,
      "cấy": 1328,
      "rằng": 1329,
      "phố": 1330,
      "pha": 1331,
      "càng": 1332,
      "uyết": 1333,
      "ml": 1334,
      "Tu": 1335,
      "ưu": 1336,
      "35": 1337,
      "chỗ": 1338,
      "de": 1339,
      "sâu": 1340,
      "HC": 1341,
      "oxy": 1342,
      "hiếm": 1343,
      "Nội": 1344,
      "ase": 1345,
      "28": 1346,
      "ạp": 1347,
      "diện": 1348,
      "mục": 1349,
      "ngủ": 1350,
      "SA": 1351,
      "túi": 1352,
      "Đặc": 1353,
      "thừa": 1354,
      "us": 1355,
      "thang": 1356,
      "nhà": 1357,
      "bổ": 1358,
      "cứng": 1359,
      "protein": 1360,
      "ci": 1361,
      "70": 1362,
      "hầu": 1363,
      "suất": 1364,
      "bản": 1365,
      "Me": 1366,
      "thụ": 1367,
      "yl": 1368,
      "phối": 1369,
      "cực": 1370,
      "TP": 1371,
      "sánh": 1372,
      "36": 1373,
      "45": 1374,
      "thắt": 1375,
      "one": 1376,
      "75": 1377,
      "óp": 1378,
      "vú": 1379,
      "viru": 1380,
      "ỏng": 1381,
      "pe": 1382,
      "tật": 1383,
      "BV": 1384,
      "ngay": 1385,
      "phì": 1386,
      "dòng": 1387,
      "đưa": 1388,
      "tham": 1389,
      "kế": 1390,
      "sọ": 1391,
      "nhĩ": 1392,
      "hút": 1393,
      "ón": 1394,
      "lúc": 1395,
      "48": 1396,
      "31": 1397,
      "NA": 1398,
      "béo": 1399,
      "xúc": 1400,
      "ạnh": 1401,
      "đông": 1402,
      "trưởng": 1403,
      "chủng": 1404,
      "Triệu": 1405,
      "tồn": 1406,
      "môi": 1407,
      "cố": 1408,
      "27": 1409,
      "NG": 1410,
      "dược": 1411,
      "đúng": 1412,
      "car": 1413,
      "lựa": 1414,
      "thử": 1415,
      "mạnh": 1416,
      "vậy": 1417,
      "trứng": 1418,
      "cor": 1419,
      "duy": 1420,
      "ké": 1421,
      "tamin": 1422,
      "tránh": 1423,
      "tan": 1424,
      "001": 1425,
      "tuỵ": 1426,
      "giãn": 1427,
      ");": 1428,
      "ST": 1429,
      "hu": 1430,
      "lòng": 1431,
      "khuyến": 1432,
      "26": 1433,
      "gãy": 1434,
      "mềm": 1435,
      "nghiêm": 1436,
      "Chúng": 1437,
      "non": 1438,
      "ừng": 1439,
      "Kho": 1440,
      "Do": 1441,
      "tho": 1442,
      "kim": 1443,
      "ảm": 1444,
      "xin": 1445,
      "nuôi": 1446,
      "cuộc": 1447,
      "nấm": 1448,
      "ĐT": 1449,
      "ngờ": 1450,
      "sa": 1451,
      "virus": 1452,
      "lành": 1453,
      "kém": 1454,
      "ẽn": 1455,
      "chí": 1456,
      "nghẽn": 1457,
      "tro": 1458,
      "cột": 1459,
      "tê": 1460,
      "2020": 1461,
      "cá": 1462,
      "vô": 1463,
      "Thuốc": 1464,
      "ce": 1465,
      "sung": 1466,
      "Tuổi": 1467,
      "trò": 1468,
      "Đại": 1469,
      "gốc": 1470,
      "trì": 1471,
      "nôn": 1472,
      "az": 1473,
      "nối": 1474,
      "OR": 1475,
      "Thg": 1476,
      "chiều": 1477,
      "65": 1478,
      "Phân": 1479,
      "tuy": 1480,
      "chuyên": 1481,
      "ngắn": 1482,
      "glu": 1483,
      "nhiệt": 1484,
      "ĐM": 1485,
      "cường": 1486,
      "ngăn": 1487,
      "32": 1488,
      "Cần": 1489,
      "MR": 1490,
      "ướu": 1491,
      "Nguyên": 1492,
      "ọi": 1493,
      "29": 1494,
      "bàng": 1495,
      "môn": 1496,
      "bước": 1497,
      "ữu": 1498,
      "nhồi": 1499,
      "corti": 1500,
      "nghị": 1501,
      "cục": 1502,
      "kính": 1503,
      "TN": 1504,
      "is": 1505,
      "bẩm": 1506,
      "Nhóm": 1507,
      "biện": 1508,
      "mê": 1509,
      "lip": 1510,
      "điển": 1511,
      "34": 1512,
      "cơn": 1513,
      "xa": 1514,
      "Hội": 1515,
      "cấu": 1516,
      "ùi": 1517,
      "Khi": 1518,
      "ẫy": 1519,
      "khởi": 1520,
      "steroid": 1521,
      "hồng": 1522,
      "Việc": 1523,
      "and": 1524,
      "cảnh": 1525,
      "ẩy": 1526,
      "Đa": 1527,
      "HIV": 1528,
      "37": 1529,
      "na": 1530,
      "sp": 1531,
      "ụt": 1532,
      "nguồn": 1533,
      "loét": 1534,
      "lym": 1535,
      "Thi": 1536,
      "CH": 1537,
      "38": 1538,
      "xoang": 1539,
      "ide": 1540,
      "kiện": 1541,
      "đích": 1542,
      "xử": 1543,
      "vực": 1544,
      "xe": 1545,
      "chậm": 1546,
      "CD": 1547,
      "III": 1548,
      "TM": 1549,
      "bảng": 1550,
      "st": 1551,
      "phác": 1552,
      "ver": 1553,
      "Nhiễm": 1554,
      "kiểu": 1555,
      "2019": 1556,
      "vụ": 1557,
      "67": 1558,
      "min": 1559,
      "hy": 1560,
      "lây": 1561,
      "quanh": 1562,
      "dễ": 1563,
      "las": 1564,
      "cuối": 1565,
      "bin": 1566,
      "chứa": 1567,
      "nay": 1568,
      "Nhi": 1569,
      "vài": 1570,
      "ngón": 1571,
      "Hà": 1572,
      "đầy": 1573,
      "be": 1574,
      "bài": 1575,
      "tuân": 1576,
      "chậu": 1577,
      "lưng": 1578,
      "hiểu": 1579,
      "ngược": 1580,
      "Chỉ": 1581,
      "khá": 1582,
      "vitamin": 1583,
      "gợi": 1584,
      "42": 1585,
      "trúc": 1586,
      "CL": 1587,
      "ur": 1588,
      "lấn": 1589,
      "2022": 1590,
      "sốc": 1591,
      "Nồng": 1592,
      "Ngo": 1593,
      "39": 1594,
      "ộn": 1595,
      "đốt": 1596,
      "minh": 1597,
      "son": 1598,
      "55": 1599,
      "oly": 1600,
      "BM": 1601,
      "72": 1602,
      "cal": 1603,
      "CI": 1604,
      "tiếng": 1605,
      "Co": 1606,
      "đỏ": 1607,
      "màu": 1608,
      "AS": 1609,
      "âng": 1610,
      "ễn": 1611,
      "nói": 1612,
      "thiểu": 1613,
      "phóng": 1614,
      "thuận": 1615,
      "òi": 1616,
      "gấp": 1617,
      "53": 1618,
      "46": 1619,
      "dần": 1620,
      "Tổng": 1621,
      "cortico": 1622,
      "43": 1623,
      "...": 1624,
      "ụn": 1625,
      "ổn": 1626,
      "44": 1627,
      "từng": 1628,
      "CS": 1629,
      "huyện": 1630,
      "cy": 1631,
      "ki": 1632,
      "đóng": 1633,
      "Medi": 1634,
      "enz": 1635,
      "Số": 1636,
      "Ung": 1637,
      "ẹn": 1638,
      "85": 1639,
      "giật": 1640,
      "hữu": 1641,
      "lỗ": 1642,
      "vạt": 1643,
      "hoà": 1644,
      "Minh": 1645,
      "gluco": 1646,
      "Tất": 1647,
      "phía": 1648,
      "họng": 1649,
      "un": 1650,
      "kin": 1651,
      "vỡ": 1652,
      "AP": 1653,
      "ượu": 1654,
      "bán": 1655,
      "nâng": 1656,
      "47": 1657,
      "Bình": 1658,
      "VID": 1659,
      "mL": 1660,
      "êng": 1661,
      "ylo": 1662,
      "hạt": 1663,
      "ợt": 1664,
      "niêm": 1665,
      "Tăng": 1666,
      "hoại": 1667,
      "tài": 1668,
      "41": 1669,
      "tần": 1670,
      "bố": 1671,
      "cản": 1672,
      "bướu": 1673,
      "56": 1674,
      "96": 1675,
      "rượu": 1676,
      "vắc": 1677,
      "58": 1678,
      "2018": 1679,
      "men": 1680,
      "Thông": 1681,
      "câu": 1682,
      "niên": 1683,
      "SS": 1684,
      "Hồ": 1685,
      "lympho": 1686,
      "Tình": 1687,
      "Rối": 1688,
      "quỵ": 1689,
      "ót": 1690,
      "khỏi": 1691,
      "dựng": 1692,
      "ạc": 1693,
      "góp": 1694,
      "bạn": 1695,
      "Bảng": 1696,
      "66": 1697,
      "57": 1698,
      "thập": 1699,
      "mặc": 1700,
      "chia": 1701,
      "ãng": 1702,
      "PE": 1703,
      "xuống": 1704,
      "ắp": 1705,
      "buồng": 1706,
      "Chí": 1707,
      "type": 1708,
      "ràng": 1709,
      "ịch": 1710,
      "Khoa": 1711,
      "64": 1712,
      "Thực": 1713,
      "phos": 1714,
      "sang": 1715,
      "2017": 1716,
      "muốn": 1717,
      "nhãn": 1718,
      "lâu": 1719,
      "ton": 1720,
      "nghiệp": 1721,
      "khuyết": 1722,
      "52": 1723,
      "poly": 1724,
      "ếp": 1725,
      "62": 1726,
      "COVID": 1727,
      "tion": 1728,
      "hyd": 1729,
      "sulin": 1730,
      "xit": 1731,
      "000": 1732,
      "phức": 1733,
      "ìn": 1734,
      "73": 1735,
      "54": 1736,
      "sis": 1737,
      "AR": 1738,
      "76": 1739,
      "for": 1740,
      "phúc": 1741,
      "71": 1742,
      "hài": 1743,
      "pen": 1744,
      "giống": 1745,
      "SD": 1746,
      "Uni": 1747,
      "trưng": 1748,
      "đợt": 1749,
      "ký": 1750,
      "lipid": 1751,
      "Xét": 1752,
      "ali": 1753,
      "Sử": 1754,
      "tiện": 1755,
      "So": 1756,
      "86": 1757,
      "HP": 1758,
      "gối": 1759,
      "địa": 1760,
      "nhánh": 1761,
      "bo": 1762,
      "ino": 1763,
      "sity": 1764,
      "cine": 1765,
      "bac": 1766,
      "sáng": 1767,
      "tràn": 1768,
      "chiết": 1769,
      "2010": 1770,
      "Hầu": 1771,
      "2015": 1772,
      "49": 1773,
      "61": 1774,
      "giao": 1775,
      "Độ": 1776,
      "ram": 1777,
      "chữa": 1778,
      "Univer": 1779,
      "88": 1780,
      "Dấu": 1781,
      "51": 1782,
      "Trẻ": 1783,
      "An": 1784,
      "University": 1785,
      "68": 1786,
      "2012": 1787,
      "diễn": 1788,
      "ẵn": 1789,
      "hộ": 1790,
      "glo": 1791,
      "ói": 1792,
      "mỡ": 1793,
      "tụ": 1794,
      "phép": 1795,
      "canxi": 1796,
      "hụt": 1797,
      "NT": 1798,
      "vừa": 1799,
      "97": 1800,
      "Dược": 1801,
      "glucose": 1802,
      "Đồng": 1803,
      "AD": 1804,
      "quyết": 1805,
      "ặn": 1806,
      "ĐTĐ": 1807,
      "92": 1808,
      "at": 1809,
      "MRI": 1810,
      "63": 1811,
      "axit": 1812,
      "insulin": 1813,
      "83": 1814,
      "ãi": 1815,
      "Tác": 1816,
      "Sinh": 1817,
      "dữ": 1818,
      "thượng": 1819,
      "59": 1820,
      "áy": 1821,
      "NH": 1822,
      "bà": 1823,
      "mãn": 1824,
      "sữa": 1825,
      "muộn": 1826,
      "Lo": 1827,
      "khăn": 1828,
      "po": 1829,
      "no": 1830,
      "Vi": 1831,
      "ycin": 1832,
      "87": 1833,
      "loài": 1834,
      "đùi": 1835,
      "tá": 1836,
      "2013": 1837,
      "sẵn": 1838,
      "èn": 1839,
      "AC": 1840,
      "dò": 1841,
      "chị": 1842,
      "2011": 1843,
      "Mở": 1844,
      "yêu": 1845,
      "Chợ": 1846,
      "chương": 1847,
      "82": 1848,
      "Phòng": 1849,
      "06": 1850,
      "93": 1851,
      "IL": 1852,
      "gọi": 1853,
      "Hiệu": 1854,
      "PCR": 1855,
      "Ig": 1856,
      "2016": 1857,
      "NK": 1858,
      "78": 1859,
      "Ngoài": 1860,
      "Hoa": 1861,
      "91": 1862,
      "nền": 1863,
      "ole": 1864,
      "hen": 1865,
      "ẹo": 1866,
      "giáo": 1867,
      "corticosteroid": 1868,
      "98": 1869,
      "tạng": 1870,
      "thẩm": 1871,
      "ester": 1872,
      "chuột": 1873,
      "nơi": 1874,
      "Tổn": 1875,
      "tức": 1876,
      "69": 1877,
      "Rẫy": 1878,
      "hồ": 1879,
      "vac": 1880,
      "gly": 1881,
      "cây": 1882,
      "94": 1883,
      "PD": 1884,
      "sắt": 1885,
      "81": 1886,
      "vàng": 1887,
      "ôm": 1888,
      "Nguy": 1889,
      "hở": 1890,
      "tạp": 1891,
      "Đị": 1892,
      "gân": 1893,
      "thoát": 1894,
      "84": 1895,
      "biên": 1896,
      "%);": 1897,
      "cạnh": 1898,
      "căng": 1899,
      "chóng": 1900,
      "bề": 1901,
      "góc": 1902,
      "mon": 1903,
      "chịu": 1904,
      "bì": 1905,
      "Thái": 1906,
      "Vì": 1907,
      "man": 1908,
      "loạt": 1909,
      "74": 1910,
      "Kỳ": 1911,
      "lệch": 1912,
      "AL": 1913,
      "Đau": 1914,
      "thuỷ": 1915,
      "Si": 1916,
      "trương": 1917,
      "oái": 1918,
      "natri": 1919,
      "):": 1920,
      "rom": 1921,
      "Mặc": 1922,
      "rung": 1923,
      "ess": 1924,
      "TB": 1925,
      "2014": 1926,
      "77": 1927,
      "Mức": 1928,
      "beta": 1929,
      "Với": 1930,
      "pa": 1931,
      "kẽ": 1932,
      "phình": 1933,
      "rửa": 1934,
      "DL": 1935,
      "lac": 1936,
      "the": 1937,
      "xung": 1938,
      "nhìn": 1939,
      "tán": 1940,
      "thoái": 1941,
      "hor": 1942,
      "ent": 1943,
      "cánh": 1944,
      "ơm": 1945,
      "99": 1946,
      "bóng": 1947,
      "ngừng": 1948,
      "acid": 1949,
      "dọc": 1950,
      "HA": 1951,
      "Hồi": 1952,
      "ệm": 1953,
      "tic": 1954,
      "89": 1955,
      "Nguồn": 1956,
      "Định": 1957,
      "rò": 1958,
      "thải": 1959,
      "thuần": 1960,
      "03": 1961,
      "Tiền": 1962,
      "sợi": 1963,
      "khoang": 1964,
      "TK": 1965,
      "IC": 1966,
      "du": 1967,
      "RS": 1968,
      "str": 1969,
      "thẳng": 1970,
      "Người": 1971,
      "tốc": 1972,
      "phen": 1973,
      "chọc": 1974,
      "tiềm": 1975,
      "nghề": 1976,
      "toan": 1977,
      "mong": 1978,
      "đào": 1979,
      "hydro": 1980,
      "ọt": 1981,
      "Để": 1982,
      "ve": 1983,
      "ẩu": 1984,
      "phi": 1985,
      "Nhận": 1986,
      "đệm": 1987,
      "sửa": 1988,
      "chết": 1989,
      "bại": 1990,
      "sót": 1991,
      "Biến": 1992,
      "chol": 1993,
      "Hu": 1994,
      "Giá": 1995,
      "ate": 1996,
      "cửa": 1997,
      "lạnh": 1998,
      "NC": 1999,
      "2009": 2000,
      "BMI": 2001,
      "đảm": 2002,
      "rea": 2003,
      "79": 2004,
      "xây": 2005,
      "ấc": 2006,
      "illin": 2007,
      "vảy": 2008,
      "lắng": 2009,
      "VT": 2010,
      "rin": 2011,
      "tách": 2012,
      "õng": 2013,
      "lồng": 2014,
      "flu": 2015,
      "Hình": 2016,
      "ace": 2017,
      "võng": 2018,
      "Điểm": 2019,
      "02": 2020,
      "mủ": 2021,
      "lặp": 2022,
      "buồn": 2023,
      "coc": 2024,
      "trắng": 2025,
      "ỉnh": 2026,
      "bacter": 2027,
      "io": 2028,
      ".)": 2029,
      "giữ": 2030,
      "mone": 2031,
      "NM": 2032,
      "Hb": 2033,
      "trang": 2034,
      "UT": 2035,
      "cin": 2036,
      "nạp": 2037,
      "ắm": 2038,
      "HCM": 2039,
      "phỏng": 2040,
      "eth": 2041,
      "ella": 2042,
      "TS": 2043,
      "bơm": 2044,
      "chặt": 2045,
      "THA": 2046,
      "lách": 2047,
      "Đôi": 2048,
      "ib": 2049,
      "emo": 2050,
      "04": 2051,
      "Thiết": 2052,
      "khô": 2053,
      "Nhân": 2054,
      "AB": 2055,
      "ngẫu": 2056,
      "chiếu": 2057,
      "sạch": 2058,
      "ưỡng": 2059,
      "PT": 2060,
      "ênh": 2061,
      "khâu": 2062,
      "hít": 2063,
      "hơi": 2064,
      "coli": 2065,
      "Đây": 2066,
      "mmol": 2067,
      "ỡi": 2068,
      "thuỳ": 2069,
      "tễ": 2070,
      "tuỳ": 2071,
      "Siêu": 2072,
      "Nhiều": 2073,
      "PH": 2074,
      "nông": 2075,
      "ge": 2076,
      "quốc": 2077,
      "ap": 2078,
      "xấu": 2079,
      "đương": 2080,
      "Xem": 2081,
      "ck": 2082,
      "DNA": 2083,
      "cắn": 2084,
      "enzy": 2085,
      "bumin": 2086,
      "gắng": 2087,
      "phim": 2088,
      "hormone": 2089,
      "nhắc": 2090,
      "ler": 2091,
      "Bạch": 2092,
      "Hg": 2093,
      "loãng": 2094,
      "sóng": 2095,
      "cer": 2096,
      "yên": 2097,
      "giấc": 2098,
      "nửa": 2099,
      "Huế": 2100,
      "nến": 2101,
      "ứt": 2102,
      "Giảm": 2103,
      "Thiếu": 2104,
      "Nó": 2105,
      "In": 2106,
      "va": 2107,
      "MT": 2108,
      "KTC": 2109,
      "móng": 2110,
      "Chụp": 2111,
      "cus": 2112,
      "meth": 2113,
      "Suy": 2114,
      "pp": 2115,
      "CP": 2116,
      "cong": 2117,
      "kali": 2118,
      "hiểm": 2119,
      "Mỹ": 2120,
      "fe": 2121,
      "mảnh": 2122,
      "thủng": 2123,
      "đòi": 2124,
      "sin": 2125,
      "quay": 2126,
      "vỏ": 2127,
      "sụn": 2128,
      "Quân": 2129,
      "nha": 2130,
      "đẩy": 2131,
      "dính": 2132,
      "Tại": 2133,
      "hại": 2134,
      "fer": 2135,
      "lưỡi": 2136,
      "Viện": 2137,
      "riêng": 2138,
      "ex": 2139,
      "tuệ": 2140,
      "Tiêu": 2141,
      "cái": 2142,
      "ran": 2143,
      "sai": 2144,
      "đội": 2145,
      "chèn": 2146,
      "mù": 2147,
      "nốt": 2148,
      "ngộ": 2149,
      "Thành": 2150,
      "Kiến": 2151,
      "rệt": 2152,
      "toả": 2153,
      "Trường": 2154,
      "reatin": 2155,
      "kí": 2156,
      "phơi": 2157,
      "CA": 2158,
      "ngành": 2159,
      "giun": 2160,
      "chú": 2161,
      "108": 2162,
      "khẩu": 2163,
      "huỷ": 2164,
      "YT": 2165,
      "mc": 2166,
      "Căn": 2167,
      "Khám": 2168,
      "Cơ": 2169,
      "Về": 2170,
      "test": 2171,
      "2008": 2172,
      "mỏi": 2173,
      "TR": 2174,
      "ầng": 2175,
      "ER": 2176,
      "thăm": 2177,
      "Phụ": 2178,
      "teo": 2179,
      "esterol": 2180,
      "thuyên": 2181,
      "cha": 2182,
      "Pro": 2183,
      "chấp": 2184,
      "rốn": 2185,
      "muối": 2186,
      "chằng": 2187,
      "băng": 2188,
      "nghe": 2189,
      "hoạch": 2190,
      "Medicine": 2191,
      "07": 2192,
      "Kiểm": 2193,
      "mo": 2194,
      "nề": 2195,
      "coi": 2196,
      "albumin": 2197,
      "line": 2198,
      "ren": 2199,
      "08": 2200,
      "ylori": 2201,
      "XH": 2202,
      "bỏng": 2203,
      "MS": 2204,
      "Di": 2205,
      "sto": 2206,
      "àu": 2207,
      "giản": 2208,
      "polyp": 2209,
      "cậy": 2210,
      "sút": 2211,
      "ngưng": 2212,
      "orph": 2213,
      "tầm": 2214,
      "sưng": 2215,
      "Đức": 2216,
      "HB": 2217,
      "Al": 2218,
      "mệt": 2219,
      "ad": 2220,
      "ếng": 2221,
      "iệm": 2222,
      "lỏng": 2223,
      "khai": 2224,
      "nạn": 2225,
      "úm": 2226,
      "gắn": 2227,
      "CG": 2228,
      "Dân": 2229,
      "ae": 2230,
      "Cắt": 2231,
      "ộm": 2232,
      "hôi": 2233,
      "sẹo": 2234,
      "đời": 2235,
      "cuống": 2236,
      "(+": 2237,
      "CRP": 2238,
      "Hải": 2239,
      "gai": 2240,
      "CM": 2241,
      "chênh": 2242,
      "09": 2243,
      "tưới": 2244,
      "mảng": 2245,
      "đẻ": 2246,
      "tộc": 2247,
      "Huyết": 2248,
      "uyện": 2249,
      "HO": 2250,
      "mer": 2251,
      "dao": 2252,
      "cầm": 2253,
      "Li": 2254,
      "pylori": 2255,
      "Kỹ": 2256,
      "NS": 2257,
      "RL": 2258,
      "chẳng": 2259,
      "xy": 2260,
      "nuốt": 2261,
      "penem": 2262,
      "ber": 2263,
      "cyto": 2264,
      "He": 2265,
      "bú": 2266,
      "Trên": 2267,
      "kín": 2268,
      "ngưỡng": 2269,
      "típ": 2270,
      "GF": 2271,
      "per": 2272,
      "go": 2273,
      "dL": 2274,
      "tal": 2275,
      "Mai": 2276,
      "ke": 2277,
      "Tim": 2278,
      "dầu": 2279,
      "my": 2280,
      "mọi": 2281,
      "rau": 2282,
      "HS": 2283,
      "ga": 2284,
      "ue": 2285,
      "thúc": 2286,
      "neum": 2287,
      "com": 2288,
      "bulin": 2289,
      "creatin": 2290,
      "throm": 2291,
      "phủ": 2292,
      "Khoảng": 2293,
      "đứng": 2294,
      "thảo": 2295,
      "coccus": 2296,
      "BP": 2297,
      "DD": 2298,
      "òm": 2299,
      "icillin": 2300,
      "mỹ": 2301,
      "bột": 2302,
      "Pa": 2303,
      "ẮT": 2304,
      "clo": 2305,
      "lược": 2306,
      "che": 2307,
      "trục": 2308,
      "fen": 2309,
      "Biểu": 2310,
      "luyện": 2311,
      "tầng": 2312,
      "tắt": 2313,
      "Can": 2314,
      "lô": 2315,
      "nổi": 2316,
      "rãi": 2317,
      "hiến": 2318,
      "nhớ": 2319,
      "cholesterol": 2320,
      "Scho": 2321,
      "ES": 2322,
      "LA": 2323,
      "sao": 2324,
      "amin": 2325,
      "Công": 2326,
      "mầm": 2327,
      "toán": 2328,
      "chiến": 2329,
      "PR": 2330,
      "Tiên": 2331,
      "trật": 2332,
      "bờ": 2333,
      "lf": 2334,
      "pr": 2335,
      "spor": 2336,
      "2007": 2337,
      "acin": 2338,
      "văn": 2339,
      "vữa": 2340,
      "ngã": 2341,
      "Giang": 2342,
      "lông": 2343,
      "Da": 2344,
      "vo": 2345,
      "Bộ": 2346,
      "Liệu": 2347,
      "chẽ": 2348,
      "ans": 2349,
      "Na": 2350,
      "IDS": 2351,
      "nghiện": 2352,
      "azole": 2353,
      "Ro": 2354,
      "ÓM": 2355,
      "HBV": 2356,
      "bù": 2357,
      "mmHg": 2358,
      "TẮT": 2359,
      "đỉnh": 2360,
      "TÓM": 2361,
      "ry": 2362,
      "nghỉ": 2363,
      "theter": 2364,
      "qui": 2365,
      "phospha": 2366,
      "mụn": 2367,
      "School": 2368,
      "nắn": 2369,
      "hỗn": 2370,
      "vaca": 2371,
      "Le": 2372,
      "rách": 2373,
      "đáy": 2374,
      "emia": 2375,
      "sta": 2376,
      "ýp": 2377,
      "tải": 2378,
      "vid": 2379,
      "ron": 2380,
      "O2": 2381,
      "ass": 2382,
      "globulin": 2383,
      "Liều": 2384,
      "rễ": 2385,
      "ida": 2386,
      "luôn": 2387,
      "triệt": 2388,
      "lus": 2389,
      "lứa": 2390,
      "vách": 2391,
      "pivaca": 2392,
      "yclo": 2393,
      "nữa": 2394,
      "Nguyễn": 2395,
      "xanh": 2396,
      "Chất": 2397,
      "Ag": 2398,
      "MA": 2399,
      "đêm": 2400,
      "CLVT": 2401,
      "pneum": 2402,
      "globin": 2403,
      "catheter": 2404,
      "chuỗi": 2405,
      "laser": 2406,
      "glycer": 2407,
      "cai": 2408,
      "AIDS": 2409,
      "onia": 2410,
      "ngữ": 2411,
      "phong": 2412,
      "liru": 2413,
      "nạo": 2414,
      "tưởng": 2415,
      "vir": 2416,
      "lirubin": 2417,
      "suốt": 2418,
      "Kích": 2419,
      "bọt": 2420,
      "én": 2421,
      "nhuộm": 2422,
      "A1": 2423,
      "mạng": 2424,
      "DS": 2425,
      "treo": 2426,
      "nẹp": 2427,
      "HPV": 2428,
      "quen": 2429,
      "enter": 2430,
      "nguyệt": 2431,
      "Chống": 2432,
      "Phần": 2433,
      "giường": 2434,
      "ngột": 2435,
      "mcg": 2436,
      "gram": 2437,
      "ten": 2438,
      "chẹn": 2439,
      "Vị": 2440,
      "ỏm": 2441,
      "mình": 2442,
      "De": 2443,
      "Hiện": 2444,
      "VP": 2445,
      "stress": 2446,
      "ngue": 2447,
      "nút": 2448,
      "hư": 2449,
      "500": 2450,
      "GI": 2451,
      "os": 2452,
      "Đường": 2453,
      "mab": 2454,
      "ếch": 2455,
      "ami": 2456,
      "mã": 2457,
      "mồ": 2458,
      "HI": 2459,
      "Giải": 2460,
      "pneumonia": 2461,
      "quận": 2462,
      "MC": 2463,
      "đĩa": 2464,
      "nghĩ": 2465,
      "reus": 2466,
      "Re": 2467,
      "Qua": 2468,
      "BL": 2469,
      "Gia": 2470,
      "phạm": 2471,
      "2005": 2472,
      "hiển": 2473,
      "Medical": 2474,
      "he": 2475,
      "đảo": 2476,
      "lẫn": 2477,
      "tre": 2478,
      "rase": 2479,
      "tím": 2480,
      "vượt": 2481,
      "arin": 2482,
      "rắn": 2483,
      "nhược": 2484,
      "PET": 2485,
      "rét": 2486,
      "châm": 2487,
      "háng": 2488,
      "Cho": 2489,
      "vòm": 2490,
      "Bắc": 2491,
      "xoắn": 2492,
      "ium": 2493,
      "lồi": 2494,
      "giám": 2495,
      "gián": 2496,
      "NB": 2497,
      "lox": 2498,
      "dex": 2499,
      "lạc": 2500,
      "sone": 2501,
      "Col": 2502,
      "ngứa": 2503,
      "aureus": 2504,
      "ườn": 2505,
      "Chăm": 2506,
      "RNA": 2507,
      "Thay": 2508,
      "(+)": 2509,
      "cập": 2510,
      "phôi": 2511,
      "pus": 2512,
      "IS": 2513,
      "lai": 2514,
      "pioid": 2515,
      "VM": 2516,
      "thâm": 2517,
      "Cor": 2518,
      "sterone": 2519,
      "ppler": 2520,
      "AF": 2521,
      "Chấn": 2522,
      "2006": 2523,
      "SDD": 2524,
      "hốc": 2525,
      "tia": 2526,
      "LT": 2527,
      "trai": 2528,
      "VA": 2529,
      "sar": 2530,
      "xoay": 2531,
      "kịp": 2532,
      "(>": 2533,
      "vẩy": 2534,
      "PP": 2535,
      "py": 2536,
      "stent": 2537,
      "LI": 2538,
      "mic": 2539,
      "tóc": 2540,
      "thậm": 2541,
      "cẳng": 2542,
      "týp": 2543,
      "thấu": 2544,
      "epto": 2545,
      "Tiến": 2546,
      "thính": 2547,
      "cán": 2548,
      "alpha": 2549,
      "phosph": 2550,
      "As": 2551,
      "Quốc": 2552,
      "BC": 2553,
      "cúm": 2554,
      "trữ": 2555,
      "Yếu": 2556,
      "dậy": 2557,
      "COPD": 2558,
      "sợ": 2559,
      "tạm": 2560,
      "thịt": 2561,
      "pneumoniae": 2562,
      "hôn": 2563,
      "Áp": 2564,
      "khử": 2565,
      "Hi": 2566,
      "TG": 2567,
      "Tóm": 2568,
      "quần": 2569,
      "sán": 2570,
      "ĐMV": 2571,
      "plas": 2572,
      "thí": 2573,
      "Báo": 2574,
      "MP": 2575,
      "nong": 2576,
      "Sta": 2577,
      "song": 2578,
      "Chi": 2579,
      "SL": 2580,
      "chắc": 2581,
      "Cách": 2582,
      "120": 2583,
      "bẹn": 2584,
      "danh": 2585,
      "nhũ": 2586,
      "viễn": 2587,
      "bon": 2588,
      "Thị": 2589,
      "Trước": 2590,
      "Sp": 2591,
      "Ví": 2592,
      "bilirubin": 2593,
      "OS": 2594,
      "trào": 2595,
      "Mối": 2596,
      "dai": 2597,
      "pg": 2598,
      "m2": 2599,
      "Tìm": 2600,
      "bó": 2601,
      "mas": 2602,
      "LDL": 2603,
      "chéo": 2604,
      "sườn": 2605,
      "Ngoại": 2606,
      "raz": 2607,
      "pH": 2608,
      "Thơ": 2609,
      "ergi": 2610,
      "gam": 2611,
      "lời": 2612,
      "ple": 2613,
      "alass": 2614,
      "liền": 2615,
      "%:": 2616,
      "Par": 2617,
      "anti": 2618,
      "BNP": 2619,
      "opioid": 2620,
      "lộ": 2621,
      "(<": 2622,
      "Ce": 2623,
      "nóng": 2624,
      "pre": 2625,
      "lam": 2626,
      "Truyền": 2627,
      "sách": 2628,
      "lor": 2629,
      "Dịch": 2630,
      "ul": 2631,
      "khuếch": 2632,
      "cư": 2633,
      "giây": 2634,
      "còi": 2635,
      "alassemia": 2636,
      "Mi": 2637,
      "her": 2638,
      "nghiêng": 2639,
      "xứng": 2640,
      "Đo": 2641,
      "hoãn": 2642,
      "khiếm": 2643,
      "ACE": 2644,
      "calci": 2645,
      "ổng": 2646,
      "bôi": 2647,
      "bão": 2648,
      "ime": 2649,
      "dẳng": 2650,
      "ion": 2651,
      "VAS": 2652,
      "WHO": 2653,
      "bong": 2654,
      "lịch": 2655,
      "vững": 2656,
      "Car": 2657,
      "doạ": 2658,
      "Thanh": 2659,
      "Loại": 2660,
      "bám": 2661,
      "epine": 2662,
      "miền": 2663,
      "Jo": 2664,
      "pin": 2665,
      "NMCT": 2666,
      "LC": 2667,
      "et": 2668,
      "đòn": 2669,
      "tate": 2670,
      "SG": 2671,
      "gì": 2672,
      "TI": 2673,
      "ỷu": 2674,
      "Tri": 2675,
      "hs": 2676,
      "ari": 2677,
      "Giai": 2678,
      "CC": 2679,
      "đậu": 2680,
      "trả": 2681,
      "Kháng": 2682,
      "150": 2683,
      "sulf": 2684,
      "umab": 2685,
      "xếp": 2686,
      "Châu": 2687,
      "HCV": 2688,
      "khuỷu": 2689,
      "HT": 2690,
      "ab": 2691,
      "od": 2692,
      "tận": 2693,
      "FA": 2694,
      "khách": 2695,
      "giang": 2696,
      "đục": 2697,
      "bể": 2698,
      "ươi": 2699,
      "AU": 2700,
      "enzyme": 2701,
      "Sa": 2702,
      "Xu": 2703,
      "lis": 2704,
      "2004": 2705,
      "gánh": 2706,
      "hãy": 2707,
      "thoáng": 2708,
      "Sốt": 2709,
      "EP": 2710,
      "Center": 2711,
      "kỷ": 2712,
      "SP": 2713,
      "VI": 2714,
      "tide": 2715,
      "ÊN": 2716,
      "ậc": 2717,
      "tín": 2718,
      "OT": 2719,
      "QU": 2720,
      "đen": 2721,
      "Thường": 2722,
      "hang": 2723,
      "èo": 2724,
      "nhú": 2725,
      "Ne": 2726,
      "Str": 2727,
      "chặn": 2728,
      "nghịch": 2729,
      "kinson": 2730,
      "glyco": 2731,
      "HbA1": 2732,
      "mai": 2733,
      "benz": 2734,
      "ỳnh": 2735,
      "enzym": 2736,
      "En": 2737,
      "bậc": 2738,
      "lĩnh": 2739,
      "chợ": 2740,
      "GFR": 2741,
      "khẳng": 2742,
      "ff": 2743,
      "pes": 2744,
      "dia": 2745,
      "ell": 2746,
      "Tây": 2747,
      "vu": 2748,
      "cặp": 2749,
      "hemo": 2750,
      "bánh": 2751,
      "uôi": 2752,
      "dành": 2753,
      "khiến": 2754,
      "Gãy": 2755,
      "],": 2756,
      "táo": 2757,
      "bày": 2758,
      "Doppler": 2759,
      "Ca": 2760,
      "RI": 2761,
      "đe": 2762,
      "FS": 2763,
      "Ngọc": 2764,
      "dường": 2765,
      "ẹt": 2766,
      "thói": 2767,
      "trải": 2768,
      "mùa": 2769,
      "sanh": 2770,
      "iễu": 2771,
      "tamine": 2772,
      "carcin": 2773,
      "gra": 2774,
      "tên": 2775,
      "phận": 2776,
      "methyl": 2777,
      "trụ": 2778,
      "khích": 2779,
      "Dương": 2780,
      "tống": 2781,
      "1000": 2782,
      "(%)": 2783,
      "ax": 2784,
      "lão": 2785,
      "Phát": 2786,
      "vĩnh": 2787,
      "chày": 2788,
      "kiếm": 2789,
      "Sản": 2790,
      "2000": 2791,
      "cô": 2792,
      "ụi": 2793,
      "đói": 2794,
      "uric": 2795,
      "HDL": 2796,
      "Bất": 2797,
      "sờ": 2798,
      "cobacter": 2799,
      "khung": 2800,
      "cef": 2801,
      "Ly": 2802,
      "nhức": 2803,
      "phylo": 2804,
      "huấn": 2805,
      "PS": 2806,
      "Xây": 2807,
      "AT": 2808,
      "rine": 2809,
      "Hai": 2810,
      "phẳng": 2811,
      "Lu": 2812,
      "NV": 2813,
      "nhầy": 2814,
      "Bar": 2815,
      "cỡ": 2816,
      "tt": 2817,
      "tonin": 2818,
      "kẽm": 2819,
      "Be": 2820,
      "].": 2821,
      "OC": 2822,
      "bắp": 2823,
      "PTN": 2824,
      "trans": 2825,
      "300": 2826,
      "ser": 2827,
      "SXH": 2828,
      "mao": 2829,
      "FD": 2830,
      "bụi": 2831,
      "bupivaca": 2832,
      "hn": 2833,
      "tân": 2834,
      "chồng": 2835,
      "bón": 2836,
      "khúc": 2837,
      "thromycin": 2838,
      "Vai": 2839,
      "dàng": 2840,
      "tranh": 2841,
      "Thống": 2842,
      "Giới": 2843,
      "trogen": 2844,
      "ano": 2845,
      "spi": 2846,
      "ona": 2847,
      "ycline": 2848,
      "Học": 2849,
      "bóp": 2850,
      "thiệu": 2851,
      "mờ": 2852,
      "chạy": 2853,
      "chóp": 2854,
      "Ba": 2855,
      "Hoá": 2856,
      "To": 2857,
      "Tai": 2858,
      "cl": 2859,
      "nách": 2860,
      "rẫy": 2861,
      "amino": 2862,
      "PA": 2863,
      "triglycer": 2864,
      "Hệ": 2865,
      "Wil": 2866,
      "eno": 2867,
      "CB": 2868,
      "CK": 2869,
      "mỏng": 2870,
      "NI": 2871,
      "µg": 2872,
      "oli": 2873,
      "Nên": 2874,
      "corticoid": 2875,
      "Cả": 2876,
      "Hiệp": 2877,
      "])": 2878,
      "EM": 2879,
      "lupus": 2880,
      "chắn": 2881,
      "kịch": 2882,
      "khe": 2883,
      "Bước": 2884,
      "103": 2885,
      "LD": 2886,
      "ủng": 2887,
      "RT": 2888,
      "nén": 2889,
      "2003": 2890,
      "loxacin": 2891,
      "HCT": 2892,
      "cyclo": 2893,
      "Đái": 2894,
      "hoàng": 2895,
      "Tương": 2896,
      "dạy": 2897,
      "ene": 2898,
      "kiềm": 2899,
      "nhờ": 2900,
      "trán": 2901,
      "cien": 2902,
      "Tư": 2903,
      "kine": 2904,
      "typ": 2905,
      "Ninh": 2906,
      "tor": 2907,
      "lưỡng": 2908,
      "Cân": 2909,
      "Lượng": 2910,
      "mol": 2911,
      "anol": 2912,
      "diệt": 2913,
      "thách": 2914,
      "trống": 2915,
      "NSA": 2916,
      "huỳnh": 2917,
      "lối": 2918,
      "lạm": 2919,
      "LS": 2920,
      "đọng": 2921,
      "Hữu": 2922,
      "Thang": 2923,
      "CHT": 2924,
      "Scien": 2925,
      "hố": 2926,
      "đàn": 2927,
      "BH": 2928,
      "bức": 2929,
      "kẹp": 2930,
      "thao": 2931,
      "leb": 2932,
      "zo": 2933,
      "Đông": 2934,
      "giàu": 2935,
      "done": 2936,
      "Cand": 2937,
      "lưới": 2938,
      "Bài": 2939,
      "EF": 2940,
      "chì": 2941,
      "châu": 2942,
      "áu": 2943,
      "hoành": 2944,
      "NSAID": 2945,
      "ed": 2946,
      "SARS": 2947,
      "Staphylo": 2948,
      "HK": 2949,
      "Đề": 2950,
      "Candida": 2951,
      "tis": 2952,
      "gene": 2953,
      "Thể": 2954,
      "CoV": 2955,
      "trắc": 2956,
      "ag": 2957,
      "Parkinson": 2958,
      "mòn": 2959,
      "nhầm": 2960,
      "mỏm": 2961,
      "zumab": 2962,
      "hoa": 2963,
      "kênh": 2964,
      "TD": 2965,
      "lon": 2966,
      "spp": 2967,
      "Colle": 2968,
      "Chuy": 2969,
      "trao": 2970,
      "icin": 2971,
      "NP": 2972,
      "hông": 2973,
      "PTNS": 2974,
      "dni": 2975,
      "nắng": 2976,
      "eru": 2977,
      "par": 2978,
      "Gây": 2979,
      "lẻ": 2980,
      "gamma": 2981,
      "400": 2982,
      "ngồi": 2983,
      "prop": 2984,
      "ergic": 2985,
      "CE": 2986,
      "EV": 2987,
      "tươi": 2988,
      "ngôn": 2989,
      "nghệ": 2990,
      "2023": 2991,
      "tuý": 2992,
      "sol": 2993,
      "College": 2994,
      "cương": 2995,
      "ss": 2996,
      "IgG": 2997,
      "sporin": 2998,
      "mùi": 2999,
      "đè": 3000,
      "CO2": 3001,
      "Tần": 3002,
      "bia": 3003,
      "Gram": 3004,
      "bapenem": 3005,
      "Mất": 3006,
      "sch": 3007,
      "sàn": 3008,
      "scan": 3009,
      "2002": 3010,
      "Ri": 3011,
      "phalo": 3012,
      "CN": 3013,
      "Hàm": 3014,
      "trội": 3015,
      "plex": 3016,
      "KI": 3017,
      "VN": 3018,
      "ct": 3019,
      "tine": 3020,
      "monas": 3021,
      "BS": 3022,
      "amine": 3023,
      "run": 3024,
      "Chảy": 3025,
      "thổi": 3026,
      "comycin": 3027,
      "tp": 3028,
      "carcinôm": 3029,
      "Dị": 3030,
      "KH": 3031,
      "sừng": 3032,
      "rạch": 3033,
      "Liên": 3034,
      "Long": 3035,
      "Tho": 3036,
      "para": 3037,
      "Anh": 3038,
      "iso": 3039,
      "gino": 3040,
      "T3": 3041,
      "fi": 3042,
      "thôn": 3043,
      "estrogen": 3044,
      "đám": 3045,
      "KT": 3046,
      "bé": 3047,
      "Hạ": 3048,
      "ato": 3049,
      "bữa": 3050,
      "KS": 3051,
      "Phản": 3052,
      "250": 3053,
      "gái": 3054,
      "gel": 3055,
      "est": 3056,
      "đất": 3057,
      "Quảng": 3058,
      "SV": 3059,
      "buổi": 3060,
      "erugino": 3061,
      "Bằng": 3062,
      "Gh": 3063,
      "biển": 3064,
      "Am": 3065,
      "mẫn": 3066,
      "ameth": 3067,
      "ker": 3068,
      "lock": 3069,
      "proBNP": 3070,
      "việt": 3071,
      "inter": 3072,
      "Tiêm": 3073,
      "TPHCM": 3074,
      "eruginosa": 3075,
      "alth": 3076,
      "tuyệt": 3077,
      "phrine": 3078,
      "testo": 3079,
      "Dengue": 3080,
      "đeo": 3081,
      "tròn": 3082,
      "Covid": 3083,
      "ML": 3084,
      "pep": 3085,
      "ớt": 3086,
      "duỗi": 3087,
      "Răng": 3088,
      "tax": 3089,
      "huống": 3090,
      "đờ": 3091,
      "tron": 3092,
      "bọng": 3093,
      "ner": 3094,
      "uro": 3095,
      "thiên": 3096,
      "rac": 3097,
      "azol": 3098,
      "ME": 3099,
      "đứt": 3100,
      "orphy": 3101,
      "AUC": 3102,
      "khoáng": 3103,
      "già": 3104,
      "ard": 3105,
      "cys": 3106,
      "dãn": 3107,
      "ẾT": 3108,
      "nhiệm": 3109,
      "khẩn": 3110,
      "Nhất": 3111,
      "bắc": 3112,
      "Đột": 3113,
      "thuyết": 3114,
      "idine": 3115,
      "Corti": 3116,
      "Mặt": 3117,
      "Tính": 3118,
      "bùng": 3119,
      "hàn": 3120,
      "ven": 3121,
      "nguyện": 3122,
      "cytokine": 3123,
      "Mar": 3124,
      "tỏ": 3125,
      "thy": 3126,
      "Chương": 3127,
      "morph": 3128,
      "ALT": 3129,
      "Ki": 3130,
      "bóc": 3131,
      "Thử": 3132,
      "HbA1c": 3133,
      "Cao": 3134,
      "aeruginosa": 3135,
      "trăm": 3136,
      "trĩ": 3137,
      "Như": 3138,
      "Hơn": 3139,
      "kem": 3140,
      "côm": 3141,
      "creatinin": 3142,
      "creatinine": 3143,
      "viết": 3144,
      "phosphate": 3145,
      "Hướng": 3146,
      "vôi": 3147,
      "nhật": 3148,
      "buộc": 3149,
      "nhắt": 3150,
      "lic": 3151,
      "miếng": 3152,
      "lactam": 3153,
      "pon": 3154,
      "tàn": 3155,
      "vọng": 3156,
      "ngại": 3157,
      "Staphylococcus": 3158,
      "khuy": 3159,
      "siella": 3160,
      "Năm": 3161,
      "NCT": 3162,
      "rụng": 3163,
      "Thận": 3164,
      "thoả": 3165,
      "CDC": 3166,
      "HBs": 3167,
      "predni": 3168,
      "bế": 3169,
      "TSH": 3170,
      "vitro": 3171,
      "Ứng": 3172,
      "rate": 3173,
      "tanyl": 3174,
      "Ghép": 3175,
      "Tâm": 3176,
      "phiên": 3177,
      "Phú": 3178,
      "statin": 3179,
      "Xuất": 3180,
      "ĐI": 3181,
      "NGHI": 3182,
      "bật": 3183,
      "dg": 3184,
      "vét": 3185,
      "Hiếm": 3186,
      "BR": 3187,
      "trơn": 3188,
      "sid": 3189,
      "ốm": 3190,
      "Ni": 3191,
      "ure": 3192,
      "tric": 3193,
      "Ban": 3194,
      "T4": 3195,
      "thấm": 3196,
      "Mẫu": 3197,
      "US": 3198,
      "PhD": 3199,
      "ECG": 3200,
      "sen": 3201,
      "pirin": 3202,
      "cam": 3203,
      "sỹ": 3204,
      "SO": 3205,
      "cồn": 3206,
      "đỡ": 3207,
      "phy": 3208,
      "manni": 3209,
      "testosterone": 3210,
      "dừng": 3211,
      "(-": 3212,
      "Ảnh": 3213,
      "tinib": 3214,
      "noãn": 3215,
      "phalosporin": 3216,
      "oro": 3217,
      "Ngày": 3218,
      "Tiếp": 3219,
      "Lâm": 3220,
      "ces": 3221,
      "fol": 3222,
      "tyl": 3223,
      "Bởi": 3224,
      "TV": 3225,
      "lia": 3226,
      "đờm": 3227,
      "IG": 3228,
      "hep": 3229,
      "tấn": 3230,
      "seu": 3231,
      "mal": 3232,
      "đổ": 3233,
      "củng": 3234,
      "col": 3235,
      "nia": 3236,
      "ponin": 3237,
      "kì": 3238,
      "IP": 3239,
      "bướ": 3240,
      "sắp": 3241,
      "ỨU": 3242,
      "TTP": 3243,
      "lebsiella": 3244,
      "Bên": 3245,
      "Tắc": 3246,
      "cẩn": 3247,
      "eri": 3248,
      "Hoạt": 3249,
      "UTBM": 3250,
      "bướm": 3251,
      "ild": 3252,
      "Cy": 3253,
      "bau": 3254,
      "fib": 3255,
      "amid": 3256,
      "lặn": 3257,
      "CV": 3258,
      "Âu": 3259,
      "khuyên": 3260,
      "amide": 3261,
      "dgkin": 3262,
      "HLA": 3263,
      "bông": 3264,
      "hắc": 3265,
      "mác": 3266,
      "tụt": 3267,
      "ngơi": 3268,
      "thơ": 3269,
      "licobacter": 3270,
      "latin": 3271,
      "hầm": 3272,
      "ESBL": 3273,
      "hemoglobin": 3274,
      "IN": 3275,
      "ha": 3276,
      "nt": 3277,
      "tứ": 3278,
      "NGHIÊN": 3279,
      "ben": 3280,
      "ãnh": 3281,
      "fluor": 3282,
      "seudo": 3283,
      "Ar": 3284,
      "nếp": 3285,
      "ơng": 3286,
      "gin": 3287,
      "lone": 3288,
      "AN": 3289,
      "DM": 3290,
      "TTT": 3291,
      "IU": 3292,
      "lymph": 3293,
      "spital": 3294,
      "lí": 3295,
      "tơ": 3296,
      "125": 3297,
      "Cấp": 3298,
      "ii": 3299,
      "Health": 3300,
      "phosphat": 3301,
      "DT": 3302,
      "ếc": 3303,
      "Chứng": 3304,
      "AST": 3305,
      "õm": 3306,
      "Động": 3307,
      "micro": 3308,
      "CỨU": 3309,
      "Khối": 3310,
      "hydroxy": 3311,
      "Bi": 3312,
      "Cu": 3313,
      "chè": 3314,
      "chán": 3315,
      "Bướu": 3316,
      "Họ": 3317,
      "lỗi": 3318,
      "plan": 3319,
      "đới": 3320,
      "Con": 3321,
      "herpes": 3322,
      "Cortico": 3323,
      "Klebsiella": 3324,
      "đứa": 3325,
      "all": 3326,
      "Phù": 3327,
      "TNF": 3328,
      "ka": 3329,
      "tero": 3330,
      "Quá": 3331,
      "sy": 3332,
      "cử": 3333,
      "dán": 3334,
      "yp": 3335,
      "Chiều": 3336,
      "Hospital": 3337,
      "HBsAg": 3338,
      "trễ": 3339,
      "que": 3340,
      "VÀ": 3341,
      "din": 3342,
      "nger": 3343,
      "cụt": 3344,
      "Ac": 3345,
      "La": 3346,
      "đay": 3347,
      "Chức": 3348,
      "Điện": 3349,
      "von": 3350,
      "xẹp": 3351,
      "bẫy": 3352,
      "Child": 3353,
      "dine": 3354,
      "đồi": 3355,
      "Khả": 3356,
      "2001": 3357,
      "115": 3358,
      "dội": 3359,
      "chấm": 3360,
      "bộc": 3361,
      "vít": 3362,
      "oxi": 3363,
      "sarco": 3364,
      "LP": 3365,
      "Tế": 3366,
      "dl": 3367,
      "thoảng": 3368,
      "PSA": 3369,
      "ROC": 3370,
      "cũ": 3371,
      "Thủ": 3372,
      "caine": 3373,
      "Pe": 3374,
      "Quy": 3375,
      "lường": 3376,
      "vof": 3377,
      "penicillin": 3378,
      "ớn": 3379,
      "than": 3380,
      "IgA": 3381,
      "CĐ": 3382,
      "bốn": 3383,
      "del": 3384,
      "quai": 3385,
      "dio": 3386,
      "Du": 3387,
      "EGFR": 3388,
      "liễu": 3389,
      "vẹo": 3390,
      "ĐD": 3391,
      "levo": 3392,
      "conazole": 3393,
      "CLCS": 3394,
      "Làm": 3395,
      "Sức": 3396,
      "T2": 3397,
      "đẳng": 3398,
      "der": 3399,
      "bìu": 3400,
      "HM": 3401,
      "No": 3402,
      "sal": 3403,
      "Thg4": 3404,
      "TNMT": 3405,
      "Bu": 3406,
      "gạc": 3407,
      "sco": 3408,
      "thật": 3409,
      "khè": 3410,
      "log": 3411,
      "ritin": 3412,
      "OP": 3413,
      "TQ": 3414,
      "block": 3415,
      "GS": 3416,
      "HR": 3417,
      "Kinh": 3418,
      "giảng": 3419,
      "tobacter": 3420,
      "Phi": 3421,
      "bớt": 3422,
      "ĐH": 3423,
      "art": 3424,
      "bền": 3425,
      "xim": 3426,
      "Nghệ": 3427,
      "ary": 3428,
      "huế": 3429,
      "phenol": 3430,
      "Dùng": 3431,
      "cối": 3432,
      "ms": 3433,
      "chích": 3434,
      "180": 3435,
      "Chế": 3436,
      "Tập": 3437,
      "bạo": 3438,
      "gon": 3439,
      "ARV": 3440,
      "Ad": 3441,
      "Bác": 3442,
      "fo": 3443,
      "tiệt": 3444,
      "sia": 3445,
      "QUẢ": 3446,
      "Su": 3447,
      "Thần": 3448,
      "angio": 3449,
      "T1": 3450,
      "dro": 3451,
      "doanh": 3452,
      "BPTNMT": 3453,
      "MI": 3454,
      "nạ": 3455,
      "khuynh": 3456,
      "gà": 3457,
      "trạm": 3458,
      "0001": 3459,
      "Hoà": 3460,
      "KẾT": 3461,
      "nhện": 3462,
      "Hodgkin": 3463,
      "hunt": 3464,
      "SI": 3465,
      "Tử": 3466,
      "sảng": 3467,
      "khò": 3468,
      "Strepto": 3469,
      "bè": 3470,
      "ùm": 3471,
      "nhẫn": 3472,
      "BI": 3473,
      "time": 3474,
      "trexa": 3475,
      "chạm": 3476,
      "Cl": 3477,
      "fla": 3478,
      "mông": 3479,
      "rào": 3480,
      "Đã": 3481,
      "chờ": 3482,
      "dãy": 3483,
      "mốc": 3484,
      "mọc": 3485,
      "pto": 3486,
      "magi": 3487,
      "carbapenem": 3488,
      "thotrexa": 3489,
      "CY": 3490,
      "cãi": 3491,
      "leu": 3492,
      "ĐMC": 3493,
      "andro": 3494,
      "ethyl": 3495,
      "gow": 3496,
      "AFP": 3497,
      "SGA": 3498,
      "Mo": 3499,
      "floxacin": 3500,
      "kĩ": 3501,
      "tàu": 3502,
      "thalassemia": 3503,
      "benzo": 3504,
      "tensin": 3505,
      "SPSS": 3506,
      "mannii": 3507,
      "Clin": 3508,
      "lõm": 3509,
      "phospho": 3510,
      "epinephrine": 3511,
      "HD": 3512,
      "Pi": 3513,
      "pri": 3514,
      "Nhu": 3515,
      "LV": 3516,
      "m3": 3517,
      "nhổ": 3518,
      "nhai": 3519,
      "diaz": 3520,
      "vòi": 3521,
      "ery": 3522,
      "UV": 3523,
      "lái": 3524,
      "val": 3525,
      "Tràn": 3526,
      "prog": 3527,
      "Quản": 3528,
      "Hồng": 3529,
      "cino": 3530,
      "uốn": 3531,
      "virut": 3532,
      "tes": 3533,
      "lamy": 3534,
      "Corticosteroid": 3535,
      "Her": 3536,
      "ẬN": 3537,
      "phường": 3538,
      "vancomycin": 3539,
      "press": 3540,
      "bupivacain": 3541,
      "phó": 3542,
      "exon": 3543,
      "baumannii": 3544,
      "đọc": 3545,
      "Acine": 3546,
      "cạm": 3547,
      "lú": 3548,
      "Nhiệt": 3549,
      "lôcôm": 3550,
      "LM": 3551,
      "sion": 3552,
      "lasgow": 3553,
      "RE": 3554,
      "rời": 3555,
      "his": 3556,
      "thotrexate": 3557,
      "nhàng": 3558,
      "imer": 3559,
      "sởi": 3560,
      "lồ": 3561,
      "rác": 3562,
      "110": 3563,
      "dải": 3564,
      "ut": 3565,
      "khổng": 3566,
      "shunt": 3567,
      "thác": 3568,
      "amp": 3569,
      "oxide": 3570,
      "kinase": 3571,
      "res": 3572,
      "quát": 3573,
      "aspirin": 3574,
      "dengue": 3575,
      "trocar": 3576,
      "rid": 3577,
      "Tạo": 3578,
      "quyền": 3579,
      "Acinetobacter": 3580,
      "mar": 3581,
      "đem": 3582,
      "ngửa": 3583,
      "tat": 3584,
      "CSF": 3585,
      "nano": 3586,
      "vẻ": 3587,
      "nghẹt": 3588,
      "tol": 3589,
      "Phác": 3590,
      "Tái": 3591,
      "cortisol": 3592,
      "Se": 3593,
      "Vương": 3594,
      "mid": 3595,
      "luật": 3596,
      "NVYT": 3597,
      "OH": 3598,
      "pid": 3599,
      "phồng": 3600,
      "max": 3601,
      "late": 3602,
      "Glu": 3603,
      "Vắc": 3604,
      "mào": 3605,
      "John": 3606,
      "Entero": 3607,
      "chlor": 3608,
      "sig": 3609,
      "Bản": 3610,
      "Pseudo": 3611,
      "ko": 3612,
      "Độc": 3613,
      "soạn": 3614,
      "(≥": 3615,
      "RA": 3616,
      "ido": 3617,
      "stein": 3618,
      "đèn": 3619,
      "quino": 3620,
      "Thg1": 3621,
      "IgM": 3622,
      "CF": 3623,
      "Sàng": 3624,
      "bếp": 3625,
      "porphy": 3626,
      "106": 3627,
      "suyễn": 3628,
      "posi": 3629,
      "quân": 3630,
      "Thalassemia": 3631,
      "ASI": 3632,
      "gót": 3633,
      "tấm": 3634,
      "cholin": 3635,
      "Dựa": 3636,
      "HF": 3637,
      "nở": 3638,
      "LISA": 3639,
      "Hẹp": 3640,
      "TA": 3641,
      "zole": 3642,
      "Nhìn": 3643,
      "allo": 3644,
      "Thg9": 3645,
      "hộp": 3646,
      "ethanol": 3647,
      "fentanyl": 3648,
      "PTH": 3649,
      "Xơ": 3650,
      "za": 3651,
      "ẵng": 3652,
      "logi": 3653,
      "Chưa": 3654,
      "sero": 3655,
      "les": 3656,
      "nghèo": 3657,
      "GT": 3658,
      "Hemo": 3659,
      "VG": 3660,
      "cri": 3661,
      "lẽ": 3662,
      "angiotensin": 3663,
      "Kim": 3664,
      "Đà": 3665,
      "LR": 3666,
      "giọng": 3667,
      "rub": 3668,
      "pressin": 3669,
      "Xử": 3670,
      "nắm": 3671,
      "vân": 3672,
      "khói": 3673,
      "HCCH": 3674,
      "plasma": 3675,
      "CX": 3676,
      "đuôi": 3677,
      "ịt": 3678,
      "ỗng": 3679,
      "BT": 3680,
      "Ghi": 3681,
      "Glasgow": 3682,
      "QT": 3683,
      "nhạt": 3684,
      "NST": 3685,
      "Yên": 3686,
      "mel": 3687,
      "sổ": 3688,
      "ắk": 3689,
      "hoang": 3690,
      "carbon": 3691,
      "cleo": 3692,
      "Fo": 3693,
      "bí": 3694,
      "khuôn": 3695,
      "NKH": 3696,
      "SXHD": 3697,
      "Pseudomonas": 3698,
      "Ha": 3699,
      "IF": 3700,
      "gút": 3701,
      "stic": 3702,
      "mái": 3703,
      "ELISA": 3704,
      "HER": 3705,
      "carbo": 3706,
      "Helicobacter": 3707,
      "Khuy": 3708,
      "Dữ": 3709,
      "Mắt": 3710,
      "dy": 3711,
      "mac": 3712,
      "nhị": 3713,
      "BHYT": 3714,
      "MN": 3715,
      "Ru": 3716,
      "Sơn": 3717,
      "ds": 3718,
      "New": 3719,
      "hem": 3720,
      "hCG": 3721,
      "hổng": 3722,
      "móc": 3723,
      "Ương": 3724,
      "trời": 3725,
      "trac": 3726,
      "ED": 3727,
      "mato": 3728,
      "CỦ": 3729,
      "Văn": 3730,
      "bò": 3731,
      "đạm": 3732,
      "dox": 3733,
      "elin": 3734,
      "LH": 3735,
      "Mỗi": 3736,
      "lar": 3737,
      "tốn": 3738,
      "met": 3739,
      "CỦA": 3740,
      "ACT": 3741,
      "gập": 3742,
      "nhắm": 3743,
      "Thế": 3744,
      "Nhưng": 3745,
      "mua": 3746,
      "lipo": 3747,
      "HPLC": 3748,
      "fac": 3749,
      "muỗi": 3750,
      "triglycerid": 3751,
      "Pre": 3752,
      "trà": 3753,
      "trượt": 3754,
      "viền": 3755,
      "Phục": 3756,
      "cuốn": 3757,
      "FDG": 3758,
      "600": 3759,
      "NY": 3760,
      "đài": 3761,
      "bot": 3762,
      "ximab": 3763,
      "DC": 3764,
      "Sal": 3765,
      "bv": 3766,
      "vin": 3767,
      "ƠNG": 3768,
      "130": 3769,
      "lido": 3770,
      "NIH": 3771,
      "NĐ": 3772,
      "ỆNH": 3773,
      "khía": 3774,
      "cholinergic": 3775,
      "BỆNH": 3776,
      "Mũi": 3777,
      "ĐẶ": 3778,
      "Protein": 3779,
      "nm": 3780,
      "quãng": 3781,
      "ctin": 3782,
      "gu": 3783,
      "pine": 3784,
      "lamydia": 3785,
      "NYHA": 3786,
      "Bus": 3787,
      "Gu": 3788,
      "Gần": 3789,
      "mycin": 3790,
      "rus": 3791,
      "phig": 3792,
      "Chuyển": 3793,
      "Gy": 3794,
      "Poly": 3795,
      "Te": 3796,
      "đàm": 3797,
      "chữ": 3798,
      "Ngược": 3799,
      "fluoro": 3800,
      "dập": 3801,
      "mày": 3802,
      "mát": 3803,
      "some": 3804,
      "emphig": 3805,
      "Fi": 3806,
      "cel": 3807,
      "hex": 3808,
      "sẩn": 3809,
      "Đáp": 3810,
      "heparin": 3811,
      "Clo": 3812,
      "FEV": 3813,
      "N1": 3814,
      "Nuôi": 3815,
      "UTP": 3816,
      "bã": 3817,
      "nỗ": 3818,
      "trích": 3819,
      "hing": 3820,
      "NO": 3821,
      "aldo": 3822,
      "131": 3823,
      "tamol": 3824,
      "Xạ": 3825,
      "màn": 3826,
      "san": 3827,
      "thầy": 3828,
      "chlo": 3829,
      "Phạm": 3830,
      "mono": 3831,
      "gói": 3832,
      "linh": 3833,
      "ủi": 3834,
      "Nhịp": 3835,
      "thyro": 3836,
      "Bo": 3837,
      "Eq": 3838,
      "Lý": 3839,
      "vẹn": 3840,
      "đợi": 3841,
      "chướng": 3842,
      "TMC": 3843,
      "ford": 3844,
      "ICU": 3845,
      "Sciences": 3846,
      "Hy": 3847,
      "ie": 3848,
      "sti": 3849,
      "xịt": 3850,
      "đá": 3851,
      "sili": 3852,
      "Tiếng": 3853,
      "IgE": 3854,
      "Nu": 3855,
      "TW": 3856,
      "bít": 3857,
      "mEq": 3858,
      "núi": 3859,
      "thoải": 3860,
      "asone": 3861,
      "Thừa": 3862,
      "ferritin": 3863,
      "H2": 3864,
      "TE": 3865,
      "bang": 3866,
      "bic": 3867,
      "p53": 3868,
      "amycin": 3869,
      "Chọc": 3870,
      "diol": 3871,
      "tino": 3872,
      "140": 3873,
      "cephalosporin": 3874,
      "PECT": 3875,
      "CMV": 3876,
      "Dự": 3877,
      "Nói": 3878,
      "lậu": 3879,
      "nọc": 3880,
      "otype": 3881,
      "zol": 3882,
      "chỏm": 3883,
      "phê": 3884,
      "PCT": 3885,
      "Vết": 3886,
      "cr": 3887,
      "lui": 3888,
      "ines": 3889,
      "NKQ": 3890,
      "Lão": 3891,
      "Nữ": 3892,
      "kỵ": 3893,
      "HE": 3894,
      "VK": 3895,
      "den": 3896,
      "ing": 3897,
      "mí": 3898,
      "Ống": 3899,
      "ofol": 3900,
      "rải": 3901,
      "vợ": 3902,
      "xoá": 3903,
      "trách": 3904,
      "huyệt": 3905,
      "đoàn": 3906,
      "ABP": 3907,
      "AI": 3908,
      "chùm": 3909,
      "Clinic": 3910,
      "ASA": 3911,
      "ting": 3912,
      "triax": 3913,
      "bọ": 3914,
      "hằng": 3915,
      "kép": 3916,
      "nứt": 3917,
      "TBG": 3918,
      "transfe": 3919,
      "Pu": 3920,
      "Tp": 3921,
      "lol": 3922,
      "105": 3923,
      "androgen": 3924,
      "lợ": 3925,
      "Loạn": 3926,
      "Ma": 3927,
      "bar": 3928,
      "platin": 3929,
      "ork": 3930,
      "VC": 3931,
      "tẩy": 3932,
      "ral": 3933,
      "dop": 3934,
      "mcL": 3935,
      "HBe": 3936,
      "HKTM": 3937,
      "BA": 3938,
      "Kiểu": 3939,
      "”.": 3940,
      "ngả": 3941,
      "alin": 3942,
      "mus": 3943,
      "mega": 3944,
      "bọc": 3945,
      "mũ": 3946,
      "mại": 3947,
      "praz": 3948,
      "side": 3949,
      "thuyền": 3950,
      "khắc": 3951,
      "Ngay": 3952,
      "Vitamin": 3953,
      "thrombin": 3954,
      "CEA": 3955,
      "adone": 3956,
      "trồng": 3957,
      "102": 3958,
      "lactate": 3959,
      "PAP": 3960,
      "Tiểu": 3961,
      "ƯƠNG": 3962,
      "formin": 3963,
      "nal": 3964,
      "ướt": 3965,
      "Trà": 3966,
      "luỹ": 3967,
      "Thg10": 3968,
      "magiê": 3969,
      "transferase": 3970,
      "Sỏi": 3971,
      "nướu": 3972,
      "đập": 3973,
      "Nghi": 3974,
      "Dũ": 3975,
      "Ka": 3976,
      "Ta": 3977,
      "Van": 3978,
      "dứt": 3979,
      "sac": 3980,
      "iốt": 3981,
      "đậm": 3982,
      "ngất": 3983,
      "bur": 3984,
      "oxin": 3985,
      "lơ": 3986,
      "tắm": 3987,
      "erichia": 3988,
      "AKI": 3989,
      "kiệt": 3990,
      "stin": 3991,
      "merase": 3992,
      "carb": 3993,
      "Thg3": 3994,
      "tive": 3995,
      "inogen": 3996,
      "FR": 3997,
      "alen": 3998,
      "Khó": 3999,
      "nucleo": 4000,
      "triglyceride": 4001,
      "FI": 4002,
      "UTT": 4003,
      "thỉnh": 4004,
      "chải": 4005,
      "sopressin": 4006,
      "liềm": 4007,
      "B12": 4008,
      "DI": 4009,
      "trướng": 4010,
      "rs": 4011,
      "wn": 4012,
      "giọt": 4013,
      "quý": 4014,
      "idazole": 4015,
      "taxel": 4016,
      "Gra": 4017,
      "Liệt": 4018,
      "My": 4019,
      "Vật": 4020,
      "VIII": 4021,
      "bay": 4022,
      "fam": 4023,
      "methi": 4024,
      "feron": 4025,
      "Mạch": 4026,
      "Nẵng": 4027,
      "glôcôm": 4028,
      "ìa": 4029,
      "thạch": 4030,
      "Thai": 4031,
      "phiếu": 4032,
      "CYP": 4033,
      "Khuyến": 4034,
      "3D": 4035,
      "Esch": 4036,
      "Po": 4037,
      "ĐK": 4038,
      "tum": 4039,
      "profloxacin": 4040,
      "tant": 4041,
      "hydrate": 4042,
      "Ci": 4043,
      "Ke": 4044,
      "ĐTT": 4045,
      "Bàn": 4046,
      "GH": 4047,
      "ft": 4048,
      "tì": 4049,
      "ngắt": 4050,
      "khứ": 4051,
      "ment": 4052,
      "lợn": 4053,
      "Ra": 4054,
      "đự": 4055,
      "Lê": 4056,
      "Tạp": 4057,
      "cà": 4058,
      "cillin": 4059,
      "hải": 4060,
      "hẹn": 4061,
      "nâu": 4062,
      "ngũ": 4063,
      "ngấm": 4064,
      "Thomas": 4065,
      "IR": 4066,
      "LU": 4067,
      "MIC": 4068,
      "bồ": 4069,
      "ngân": 4070,
      "chen": 4071,
      "giấy": 4072,
      "lat": 4073,
      "triaxone": 4074,
      "Cường": 4075,
      "cle": 4076,
      "vas": 4077,
      "ill": 4078,
      "adren": 4079,
      "morphin": 4080,
      "SOFA": 4081,
      "serotonin": 4082,
      "Hậu": 4083,
      "Tân": 4084,
      "rỗng": 4085,
      "tây": 4086,
      "Chu": 4087,
      "ylase": 4088,
      "ICD": 4089,
      "NN": 4090,
      "Per": 4091,
      "ycycline": 4092,
      "amethasone": 4093,
      "Pen": 4094,
      "ophen": 4095,
      "chứ": 4096,
      "Tiết": 4097,
      "DR": 4098,
      "Ex": 4099,
      "Sy": 4100,
      "niệm": 4101,
      "sụt": 4102,
      "vaccine": 4103,
      "Cef": 4104,
      "flavon": 4105,
      "Lấy": 4106,
      "VII": 4107,
      "mép": 4108,
      "đu": 4109,
      "huynh": 4110,
      "DE": 4111,
      "Thoá": 4112,
      "may": 4113,
      "đinh": 4114,
      "Nhồi": 4115,
      "rane": 4116,
      "Luận": 4117,
      "Thoát": 4118,
      "Lựa": 4119,
      "hổ": 4120,
      "lân": 4121,
      "nổ": 4122,
      "ici": 4123,
      "NKBV": 4124,
      "Gan": 4125,
      "Máu": 4126,
      "khiển": 4127,
      "tid": 4128,
      "Nhật": 4129,
      "Escherichia": 4130,
      "160": 4131,
      "DP": 4132,
      "neo": 4133,
      "taminophen": 4134,
      "APA": 4135,
      "philia": 4136,
      "fluenz": 4137,
      "HBeAg": 4138,
      "đựng": 4139,
      "sine": 4140,
      "cóc": 4141,
      "Ngộ": 4142,
      "bis": 4143,
      "Hút": 4144,
      "Sch": 4145,
      "]).": 4146,
      "dáng": 4147,
      "μg": 4148,
      "109": 4149,
      "ruồi": 4150,
      "HPQ": 4151,
      "bactam": 4152,
      "plant": 4153,
      "lắp": 4154,
      "rỉ": 4155,
      "Phar": 4156,
      "101": 4157,
      "hỗng": 4158,
      "acetyl": 4159,
      "Bảo": 4160,
      "măng": 4161,
      "cocci": 4162,
      "RR": 4163,
      "Vinh": 4164,
      "bội": 4165,
      "Thg12": 4166,
      "delta": 4167,
      "ván": 4168,
      "đâm": 4169,
      "real": 4170,
      "calcitonin": 4171,
      "Bio": 4172,
      "rãnh": 4173,
      "chó": 4174,
      "phun": 4175,
      "tel": 4176,
      "sim": 4177,
      "Science": 4178,
      "San": 4179,
      "gầy": 4180,
      "mấu": 4181,
      "anth": 4182,
      "Quận": 4183,
      "Thuận": 4184,
      "TRỊ": 4185,
      "FSH": 4186,
      "Fe": 4187,
      "SR": 4188,
      "cờ": 4189,
      "sấp": 4190,
      "tyro": 4191,
      "ria": 4192,
      "tradiol": 4193,
      "Gluco": 4194,
      "logistic": 4195,
      "Asp": 4196,
      "PI": 4197,
      "ửi": 4198,
      "thọ": 4199,
      "cans": 4200,
      "cain": 4201,
      "ney": 4202,
      "ARDS": 4203,
      "(-)": 4204,
      "Im": 4205,
      "Whi": 4206,
      "chơi": 4207,
      "methotrexate": 4208,
      "illus": 4209,
      "bupivacaine": 4210,
      "damycin": 4211,
      "ngựa": 4212,
      "phenyl": 4213,
      "prednisone": 4214,
      "TAP": 4215,
      "đan": 4216,
      "luồng": 4217,
      "For": 4218,
      "cằm": 4219,
      "tuyên": 4220,
      "ộp": 4221,
      "chêm": 4222,
      "ranh": 4223,
      "thoại": 4224,
      "vasopressin": 4225,
      "Cũng": 4226,
      "FABP": 4227,
      "Test": 4228,
      "Thiên": 4229,
      "tose": 4230,
      "idase": 4231,
      "BD": 4232,
      "GĐ": 4233,
      "Xquang": 4234,
      "ngạt": 4235,
      "chép": 4236,
      "trin": 4237,
      "trộn": 4238,
      "influenz": 4239,
      "cụm": 4240,
      "Inter": 4241,
      "peptide": 4242,
      "AA": 4243,
      "Bac": 4244,
      "rinogen": 4245,
      "ÂN": 4246,
      "ỂM": 4247,
      "Phổi": 4248,
      "ley": 4249,
      "myco": 4250,
      "ECM": 4251,
      "cốt": 4252,
      "thro": 4253,
      "carcino": 4254,
      "sonde": 4255,
      "Ab": 4256,
      "Họng": 4257,
      "bạc": 4258,
      "hiếu": 4259,
      "nico": 4260,
      "Quang": 4261,
      "HCC": 4262,
      "Thg7": 4263,
      "AM": 4264,
      "Bổ": 4265,
      "Flu": 4266,
      "rìa": 4267,
      "bio": 4268,
      "myelin": 4269,
      "Máy": 4270,
      "QRS": 4271,
      "bối": 4272,
      "rủi": 4273,
      "nhấn": 4274,
      "tus": 4275,
      "alci": 4276,
      "Thg5": 4277,
      "strepto": 4278,
      "SpO2": 4279,
      "Streptococcus": 4280,
      "ECMO": 4281,
      "Cảnh": 4282,
      "lấp": 4283,
      "sâm": 4284,
      "súc": 4285,
      "Đầu": 4286,
      "đức": 4287,
      "Trầm": 4288,
      "asa": 4289,
      "TTL": 4290,
      "MRSA": 4291,
      "carbohydrate": 4292,
      "NIHSS": 4293,
      "Gồm": 4294,
      "robot": 4295,
      "oxicillin": 4296,
      "mống": 4297,
      "pur": 4298,
      "chai": 4299,
      "tica": 4300,
      "Tre": 4301,
      "alis": 4302,
      "005": 4303,
      "lium": 4304,
      "GIÁ": 4305,
      "EO": 4306,
      "Gen": 4307,
      "UN": 4308,
      "núm": 4309,
      "pol": 4310,
      "tuximab": 4311,
      "thio": 4312,
      "Quan": 4313,
      "heimer": 4314,
      "histamine": 4315,
      "SM": 4316,
      "lát": 4317,
      "khổ": 4318,
      "propofol": 4319,
      "af": 4320,
      "ũm": 4321,
      "chũm": 4322,
      "cur": 4323,
      "cetamol": 4324,
      "GM": 4325,
      "LN": 4326,
      "flo": 4327,
      "mơ": 4328,
      "linum": 4329,
      "ringer": 4330,
      "ceton": 4331,
      "Chuyên": 4332,
      "OMC": 4333,
      "bẩn": 4334,
      "lót": 4335,
      "Tháng": 4336,
      "strid": 4337,
      "sigma": 4338,
      "800": 4339,
      "Va": 4340,
      "lti": 4341,
      "zheimer": 4342,
      "nhựa": 4343,
      "thỏ": 4344,
      "Phình": 4345,
      "urê": 4346,
      "ĐIỂM": 4347,
      "HER2": 4348,
      "Cro": 4349,
      "rel": 4350,
      "ÂM": 4351,
      "sor": 4352,
      "Vũ": 4353,
      "keo": 4354,
      "tủ": 4355,
      "thú": 4356,
      "rat": 4357,
      "nitơ": 4358,
      "flavonoid": 4359,
      "Sar": 4360,
      "Xương": 4361,
      "Tro": 4362,
      "Trình": 4363,
      "Phim": 4364,
      "idin": 4365,
      "Alzheimer": 4366,
      "FDA": 4367,
      "HL": 4368,
      "sẻ": 4369,
      "khắp": 4370,
      "ast": 4371,
      "Hoàng": 4372,
      "botu": 4373,
      "Dinh": 4374,
      "KD": 4375,
      "Tes": 4376,
      "bn": 4377,
      "nắp": 4378,
      "phe": 4379,
      "albi": 4380,
      "acli": 4381,
      "estradiol": 4382,
      "sporine": 4383,
      "PB": 4384,
      "tz": 4385,
      "đớn": 4386,
      "ỀU": 4387,
      "Tránh": 4388,
      "iness": 4389,
      "TCD": 4390,
      "meri": 4391,
      "lactamase": 4392,
      "amidan": 4393,
      "ACTH": 4394,
      "AG": 4395,
      "Tên": 4396,
      "ÌNH": 4397,
      "ngà": 4398,
      "folate": 4399,
      "benzodiaz": 4400,
      "aclitaxel": 4401,
      "Cải": 4402,
      "Hen": 4403,
      "Ty": 4404,
      "long": 4405,
      "manh": 4406,
      "ves": 4407,
      "xám": 4408,
      "ốp": 4409,
      "CTC": 4410,
      "ish": 4411,
      "cyclophosph": 4412,
      "Ameri": 4413,
      "VD": 4414,
      "XQ": 4415,
      "cia": 4416,
      "mẽ": 4417,
      "The": 4418,
      "Media": 4419,
      "Den": 4420,
      "Lao": 4421,
      "clin": 4422,
      "rồi": 4423,
      "Nhằm": 4424,
      "ement": 4425,
      "hormon": 4426,
      "PPV": 4427,
      "Springer": 4428,
      "Business": 4429,
      "Dung": 4430,
      "GN": 4431,
      "Lac": 4432,
      "We": 4433,
      "ef": 4434,
      "lau": 4435,
      "quên": 4436,
      "amylo": 4437,
      "ero": 4438,
      "CHE": 4439,
      "pres": 4440,
      "ĐR": 4441,
      "genotype": 4442,
      "icke": 4443,
      "HSV": 4444,
      "Vạt": 4445,
      "YHCT": 4446,
      "cài": 4447,
      "chối": 4448,
      "ane": 4449,
      "Trần": 4450,
      "Lew": 4451,
      "simplex": 4452,
      "QĐ": 4453,
      "bầu": 4454,
      "găng": 4455,
      "nấu": 4456,
      "war": 4457,
      "ale": 4458,
      "sur": 4459,
      "TNT": 4460,
      "mast": 4461,
      "Cơn": 4462,
      "Hep": 4463,
      "Và": 4464,
      "Vĩnh": 4465,
      "fa": 4466,
      "nêu": 4467,
      "chút": 4468,
      "ensis": 4469,
      "Trật": 4470,
      "cand": 4471,
      "sub": 4472,
      "Nutri": 4473,
      "Cấy": 4474,
      "we": 4475,
      "ngâm": 4476,
      "Biên": 4477,
      "Dây": 4478,
      "Fran": 4479,
      "HH": 4480,
      "apo": 4481,
      "pic": 4482,
      "ÁNH": 4483,
      "thô": 4484,
      "ườm": 4485,
      "khiết": 4486,
      "colistin": 4487,
      "atocri": 4488,
      "lymphô": 4489,
      "albicans": 4490,
      "Hol": 4491,
      "York": 4492,
      "lục": 4493,
      "nhô": 4494,
      "quái": 4495,
      "quán": 4496,
      "nghén": 4497,
      "dopa": 4498,
      "Chọn": 4499,
      "terase": 4500,
      "lymphôm": 4501,
      "Rh": 4502,
      "Ít": 4503,
      "Chính": 4504,
      "mocys": 4505,
      "ĐIỀU": 4506,
      "UY": 4507,
      "implant": 4508,
      "Natri": 4509,
      "SLE": 4510,
      "predniso": 4511,
      "ĐẶC": 4512,
      "influenzae": 4513,
      "VTC": 4514,
      "farin": 4515,
      "gửi": 4516,
      "pemphig": 4517,
      "vel": 4518,
      "vắng": 4519,
      "ẳn": 4520,
      "dium": 4521,
      "ted": 4522,
      "PC": 4523,
      "bine": 4524,
      "mồi": 4525,
      "don": 4526,
      "Trị": 4527,
      "Khí": 4528,
      "urnal": 4529,
      "king": 4530,
      "polymerase": 4531,
      "tional": 4532,
      "aceae": 4533,
      "Barr": 4534,
      "interferon": 4535,
      "sarcoma": 4536,
      "chloro": 4537,
      "Scan": 4538,
      "ithromycin": 4539,
      "chửa": 4540,
      "quin": 4541,
      "Khớp": 4542,
      "lactin": 4543,
      "bert": 4544,
      "phospholi": 4545,
      "progester": 4546,
      "American": 4547,
      "Cali": 4548,
      "cắm": 4549,
      "ÀNG": 4550,
      "Meth": 4551,
      "logy": 4552,
      "Food": 4553,
      "IFN": 4554,
      "LUẬN": 4555,
      "des": 4556,
      "ani": 4557,
      "điền": 4558,
      "ris": 4559,
      "HCTH": 4560,
      "voflu": 4561,
      "Hor": 4562,
      "cro": 4563,
      "ana": 4564,
      "CD4": 4565,
      "SSRI": 4566,
      "imetho": 4567,
      "aldosterone": 4568,
      "Ep": 4569,
      "oC": 4570,
      "sư": 4571,
      "ẾN": 4572,
      "Thạch": 4573,
      "Giáo": 4574,
      "tropin": 4575,
      "Dise": 4576,
      "Journal": 4577,
      "metformin": 4578,
      "candida": 4579,
      "Viên": 4580,
      "MM": 4581,
      "OL": 4582,
      "Res": 4583,
      "bra": 4584,
      "dazole": 4585,
      "ERCP": 4586,
      "atocrit": 4587,
      "SK": 4588,
      "Tn": 4589,
      "lase": 4590,
      "”,": 4591,
      "chẩm": 4592,
      "hoảng": 4593,
      "lovirus": 4594,
      "lum": 4595,
      "idel": 4596,
      "Thg11": 4597,
      "ĐMP": 4598,
      "acetaminophen": 4599,
      "KTBN": 4600,
      "score": 4601,
      "Nutrition": 4602,
      "112": 4603,
      "Sốc": 4604,
      "oxo": 4605,
      "kiêng": 4606,
      "Califor": 4607,
      "Diện": 4608,
      "Kap": 4609,
      "Rất": 4610,
      "STC": 4611,
      "TO": 4612,
      "Vào": 4613,
      "hạng": 4614,
      "toạ": 4615,
      "cumin": 4616,
      "monella": 4617,
      "leukin": 4618,
      "idosis": 4619,
      "tracycline": 4620,
      "APACHE": 4621,
      "California": 4622,
      "Mal": 4623,
      "SỐ": 4624,
      "TĐ": 4625,
      "mèo": 4626,
      "Ấn": 4627,
      "ngáy": 4628,
      "phú": 4629,
      "phấn": 4630,
      "giày": 4631,
      "rol": 4632,
      "INR": 4633,
      "Go": 4634,
      "Hô": 4635,
      "Lan": 4636,
      "RF": 4637,
      "llus": 4638,
      "net": 4639,
      "epsin": 4640,
      "aminotransferase": 4641,
      "tronidazole": 4642,
      "doxycycline": 4643,
      "factant": 4644,
      "Cộng": 4645,
      "Creatin": 4646,
      "Hùng": 4647,
      "SE": 4648,
      "Xo": 4649,
      "mửa": 4650,
      "iclo": 4651,
      "côn": 4652,
      "proton": 4653,
      "chín": 4654,
      "arithromycin": 4655,
      "CKD": 4656,
      "Aspergi": 4657,
      "Cai": 4658,
      "Las": 4659,
      "Mã": 4660,
      "Nước": 4661,
      "RN": 4662,
      "SC": 4663,
      "hẳn": 4664,
      "kacin": 4665,
      "uỷ": 4666,
      "đăng": 4667,
      "methadone": 4668,
      "Hỗ": 4669,
      "TƯ": 4670,
      "vá": 4671,
      "trám": 4672,
      "dexamethasone": 4673,
      "EBV": 4674,
      "Mon": 4675,
      "chua": 4676,
      "mino": 4677,
      "glycosid": 4678,
      "bendazole": 4679,
      "UTPKTBN": 4680,
      "trol": 4681,
      "ore": 4682,
      "multi": 4683,
      "ATP": 4684,
      "IA": 4685,
      "Lưu": 4686,
      "Sc": 4687,
      "UR": 4688,
      "hưng": 4689,
      "chốt": 4690,
      "khàn": 4691,
      "002": 4692,
      "neu": 4693,
      "ADH": 4694,
      "poie": 4695,
      "adeno": 4696,
      "asaki": 4697,
      "SF": 4698,
      "đếm": 4699,
      "tryp": 4700,
      "khóc": 4701,
      "dimer": 4702,
      "thụt": 4703,
      "tuyển": 4704,
      "paracetamol": 4705,
      "quinolon": 4706,
      "H2O": 4707,
      "megalovirus": 4708,
      "Mật": 4709,
      "Vol": 4710,
      "ger": 4711,
      "té": 4712,
      "onal": 4713,
      "cuộn": 4714,
      "taz": 4715,
      "Para": 4716,
      "amiđan": 4717,
      "hexidine": 4718,
      "warfarin": 4719,
      "AML": 4720,
      "G6": 4721,
      "GC": 4722,
      "hcm": 4723,
      "rand": 4724,
      "ÁP": 4725,
      "đốm": 4726,
      "UTBMTBG": 4727,
      "fibrinogen": 4728,
      "Crohn": 4729,
      "progesterone": 4730,
      "450": 4731,
      "FAC": 4732,
      "Har": 4733,
      "nhọn": 4734,
      "char": 4735,
      "trâm": 4736,
      "arbon": 4737,
      "oxazole": 4738,
      "135": 4739,
      "Children": 4740,
      "porphyrin": 4741,
      "D2": 4742,
      "RD": 4743,
      "cid": 4744,
      "dại": 4745,
      "goxin": 4746,
      "wi": 4747,
      "ngọt": 4748,
      "phyl": 4749,
      "quét": 4750,
      "trat": 4751,
      "THU": 4752,
      "xoa": 4753,
      "Tốt": 4754,
      "ÁC": 4755,
      "ặm": 4756,
      "Thọ": 4757,
      "imi": 4758,
      "TTTC": 4759,
      "Bri": 4760,
      "Cus": 4761,
      "Được": 4762,
      "ẬT": 4763,
      "ớc": 4764,
      "losis": 4765,
      "003": 4766,
      "botulinum": 4767,
      "Cổ": 4768,
      "Cảm": 4769,
      "Dạng": 4770,
      "GLS": 4771,
      "Mụn": 4772,
      "Niệu": 4773,
      "SÀNG": 4774,
      "by": 4775,
      "len": 4776,
      "rsch": 4777,
      "104": 4778,
      "ciprofloxacin": 4779,
      "acetate": 4780,
      "vofloxacin": 4781,
      "Cỡ": 4782,
      "JJ": 4783,
      "SPECT": 4784,
      "Vùng": 4785,
      "nơ": 4786,
      "khôn": 4787,
      "mann": 4788,
      "Chol": 4789,
      "Cushing": 4790,
      "ham": 4791,
      "sáu": 4792,
      "Khởi": 4793,
      "1999": 4794,
      "điếc": 4795,
      "Com": 4796,
      "morphine": 4797,
      "Herpes": 4798,
      "chlorhexidine": 4799,
      "lipoprotein": 4800,
      "Glucose": 4801,
      "DVT": 4802,
      "Mc": 4803,
      "Năng": 4804,
      "RAS": 4805,
      "Vỡ": 4806,
      "bơi": 4807,
      "ffe": 4808,
      "sùi": 4809,
      "xine": 4810,
      "toin": 4811,
      "cổng": 4812,
      "Salmonella": 4813,
      "Clostrid": 4814,
      "Fib": 4815,
      "Gn": 4816,
      "Mang": 4817,
      "ĐÁNH": 4818,
      "ỐI": 4819,
      "lose": 4820,
      "roli": 4821,
      "175": 4822,
      "nucle": 4823,
      "ADS": 4824,
      "Cung": 4825,
      "Glo": 4826,
      "cla": 4827,
      "lều": 4828,
      "trấn": 4829,
      "Thương": 4830,
      "Giãn": 4831,
      "photer": 4832,
      "Loét": 4833,
      "CPAP": 4834,
      "zoster": 4835,
      "clindamycin": 4836,
      "GR": 4837,
      "Hưng": 4838,
      "OX": 4839,
      "gas": 4840,
      "kia": 4841,
      "hol": 4842,
      "sevoflu": 4843,
      "PEEP": 4844,
      "vuông": 4845,
      "Johnson": 4846,
      "G6PD": 4847,
      "LÂM": 4848,
      "Oxy": 4849,
      "Vận": 4850,
      "var": 4851,
      "tiễn": 4852,
      "Nha": 4853,
      "alan": 4854,
      "prolactin": 4855,
      "Troponin": 4856,
      "Nai": 4857,
      "Nor": 4858,
      "UI": 4859,
      "Vấn": 4860,
      "Val": 4861,
      "bênh": 4862,
      "hr": 4863,
      "inch": 4864,
      "toxin": 4865,
      "ropivaca": 4866,
      "icy": 4867,
      "117": 4868,
      "pheny": 4869,
      "hydrogen": 4870,
      "Insulin": 4871,
      "Lym": 4872,
      "2D": 4873,
      "Bru": 4874,
      "NE": 4875,
      "ction": 4876,
      "ial": 4877,
      "đụng": 4878,
      "thyroxine": 4879,
      "mRNA": 4880,
      "sấy": 4881,
      "xốp": 4882,
      "ỰC": 4883,
      "ươn": 4884,
      "dap": 4885,
      "oides": 4886,
      "phosphatase": 4887,
      "poietin": 4888,
      "Bà": 4889,
      "Nang": 4890,
      "lương": 4891,
      "ninh": 4892,
      "sẩy": 4893,
      "thăng": 4894,
      "chàm": 4895,
      "ola": 4896,
      "124": 4897,
      "vaccin": 4898,
      "amethoxazole": 4899,
      "RH": 4900,
      "Sơ": 4901,
      "Tiệp": 4902,
      "TLT": 4903,
      "sông": 4904,
      "khát": 4905,
      "teine": 4906,
      "111": 4907,
      "Beta": 4908,
      "Cuối": 4909,
      "Graves": 4910,
      "DSA": 4911,
      "ji": 4912,
      "nor": 4913,
      "rát": 4914,
      "xê": 4915,
      "homocys": 4916,
      "AFB": 4917,
      "carcinoma": 4918,
      "photericin": 4919,
      "Diễn": 4920,
      "Is": 4921,
      "Mor": 4922,
      "Ste": 4923,
      "TL": 4924,
      "XN": 4925,
      "cỏ": 4926,
      "sụp": 4927,
      "sopro": 4928,
      "Khánh": 4929,
      "ele": 4930,
      "RLCX": 4931,
      "osine": 4932,
      "lidocaine": 4933,
      "curcumin": 4934,
      "Cholesterol": 4935,
      "BCL": 4936,
      "Góc": 4937,
      "Mổ": 4938,
      "Sh": 4939,
      "hương": 4940,
      "xà": 4941,
      "ăk": 4942,
      "khái": 4943,
      "Thăm": 4944,
      "126": 4945,
      "VIDEO": 4946,
      "Virus": 4947,
      "phiền": 4948,
      "ABG": 4949,
      "Albumin": 4950,
      "Ge": 4951,
      "kẹt": 4952,
      "yd": 4953,
      "ze": 4954,
      "tran": 4955,
      "luồn": 4956,
      "ema": 4957,
      "NAVA": 4958,
      "Down": 4959,
      "Chỉnh": 4960,
      "TKN": 4961,
      "microm": 4962,
      "benzodiazepine": 4963,
      "LQ": 4964,
      "MV": 4965,
      "ĐỘ": 4966,
      "Phong": 4967,
      "rua": 4968,
      "nitro": 4969,
      "off": 4970,
      "ART": 4971,
      "XHTH": 4972,
      "entero": 4973,
      "allot": 4974,
      "phospholipid": 4975,
      "DO": 4976,
      "Lọc": 4977,
      "PM": 4978,
      "lộn": 4979,
      "mộng": 4980,
      "rơi": 4981,
      "icro": 4982,
      "estern": 4983,
      "rypto": 4984,
      "HKTMS": 4985,
      "AV": 4986,
      "Bức": 4987,
      "Cyclo": 4988,
      "Nấm": 4989,
      "Spe": 4990,
      "Tài": 4991,
      "lươn": 4992,
      "tệ": 4993,
      "xì": 4994,
      "đai": 4995,
      "phết": 4996,
      "giấu": 4997,
      "muno": 4998,
      "24h": 4999,
      "Soi": 5000,
      "Thoái": 5001,
      "bicarbon": 5002,
      "surfactant": 5003,
      "Aspergillus": 5004,
      "Dẫn": 5005,
      "Kiên": 5006,
      "ON": 5007,
      "WI": 5008,
      "YD": 5009,
      "bốc": 5010,
      "cười": 5011,
      "mỏ": 5012,
      "quầng": 5013,
      "107": 5014,
      "CTX": 5015,
      "elle": 5016,
      "oxidase": 5017,
      "Hoại": 5018,
      "kén": 5019,
      "QUAN": 5020,
      "Hemoglobin": 5021,
      "stitu": 5022,
      "ATTP": 5023,
      "Bỏng": 5024,
      "Duy": 5025,
      "Fer": 5026,
      "VMD": 5027,
      "bầm": 5028,
      "vương": 5029,
      "prote": 5030,
      "hiv": 5031,
      "PEX": 5032,
      "Institu": 5033,
      "Lupus": 5034,
      "Bao": 5035,
      "Bắt": 5036,
      "Cấu": 5037,
      "PASI": 5038,
      "VE": 5039,
      "gal": 5040,
      "lõi": 5041,
      "ric": 5042,
      "phiện": 5043,
      "hoạ": 5044,
      "Chuẩn": 5045,
      "cular": 5046,
      "cate": 5047,
      "philus": 5048,
      "marker": 5049,
      "posite": 5050,
      "hiệp": 5051,
      "lít": 5052,
      "ưới": 5053,
      "quị": 5054,
      "acyclo": 5055,
      "retin": 5056,
      "FEV1": 5057,
      "biotic": 5058,
      "micromol": 5059,
      "Ace": 5060,
      "Là": 5061,
      "Min": 5062,
      "PHC": 5063,
      "Ser": 5064,
      "tàng": 5065,
      "vs": 5066,
      "ther": 5067,
      "phil": 5068,
      "doc": 5069,
      "Thg8": 5070,
      "Anti": 5071,
      "Vir": 5072,
      "UTV": 5073,
      "khứu": 5074,
      "dâm": 5075,
      "kề": 5076,
      "kiệm": 5077,
      "ẠI": 5078,
      "ngầm": 5079,
      "ferrin": 5080,
      "ceftriaxone": 5081,
      "OCT": 5082,
      "Tốc": 5083,
      "ir": 5084,
      "ky": 5085,
      "mine": 5086,
      "thal": 5087,
      "Nghiệm": 5088,
      "cation": 5089,
      "polyphenol": 5090,
      "RSV": 5091,
      "HbA1C": 5092,
      "methicillin": 5093,
      "presepsin": 5094,
      "GDS": 5095,
      "LE": 5096,
      "Lào": 5097,
      "MB": 5098,
      "Pap": 5099,
      "VS": 5100,
      "bồn": 5101,
      "gù": 5102,
      "say": 5103,
      "tấy": 5104,
      "tôn": 5105,
      "1500": 5106,
      "PaO2": 5107,
      "dopamine": 5108,
      "C1": 5109,
      "GA": 5110,
      "Hạn": 5111,
      "cs": 5112,
      "lãnh": 5113,
      "myc": 5114,
      "paclitaxel": 5115,
      "anger": 5116,
      "calo": 5117,
      "Thg6": 5118,
      "ARB": 5119,
      "NHÂN": 5120,
      "keto": 5121,
      "VPBV": 5122,
      "Enterobacter": 5123,
      "tủa": 5124,
      ".,": 5125,
      "Jam": 5126,
      "MPH": 5127,
      "Toxo": 5128,
      "gar": 5129,
      "hãng": 5130,
      "mRS": 5131,
      "nòng": 5132,
      "ts": 5133,
      "zer": 5134,
      "coma": 5135,
      "bịt": 5136,
      "Giữ": 5137,
      "profen": 5138,
      "THCS": 5139,
      "BVM": 5140,
      "ramine": 5141,
      "hydrox": 5142,
      "fibrin": 5143,
      "5g": 5144,
      "DIC": 5145,
      "IB": 5146,
      "Mu": 5147,
      "rít": 5148,
      "123": 5149,
      "nhuận": 5150,
      "ampicillin": 5151,
      "320": 5152,
      "Au": 5153,
      "Ang": 5154,
      "Men": 5155,
      "Rung": 5156,
      "ear": 5157,
      "gạo": 5158,
      "nàn": 5159,
      "Đắk": 5160,
      "ginia": 5161,
      "core": 5162,
      "gentam": 5163,
      "cone": 5164,
      "lagen": 5165,
      "Thuỷ": 5166,
      "berg": 5167,
      "Canxi": 5168,
      "nhịn": 5169,
      "cyclophosphamide": 5170,
      "acyclovir": 5171,
      "Virginia": 5172,
      "James": 5173,
      "At": 5174,
      "Hành": 5175,
      "Micro": 5176,
      "Tự": 5177,
      "né": 5178,
      "trimetho": 5179,
      "TMP": 5180,
      "aden": 5181,
      "video": 5182,
      "onado": 5183,
      "rubella": 5184,
      "Fen": 5185,
      "ation": 5186,
      "lầm": 5187,
      "máng": 5188,
      "vốn": 5189,
      "xước": 5190,
      "zy": 5191,
      "ỆN": 5192,
      "ỘT": 5193,
      "chườm": 5194,
      "khít": 5195,
      "Chlamydia": 5196,
      "land": 5197,
      "cale": 5198,
      "NMN": 5199,
      "phosphon": 5200,
      "oxit": 5201,
      "FACP": 5202,
      ",...": 5203,
      "Cle": 5204,
      "JA": 5205,
      "Lồng": 5206,
      "Túi": 5207,
      "pan": 5208,
      "tar": 5209,
      "ngham": 5210,
      "doppler": 5211,
      "khoan": 5212,
      "curon": 5213,
      "prothrombin": 5214,
      "118": 5215,
      "Thg2": 5216,
      "xaban": 5217,
      "onavirus": 5218,
      "erythro": 5219,
      "Polyp": 5220,
      "Disease": 5221,
      "Laser": 5222,
      "627": 5223,
      "MO": 5224,
      "Mil": 5225,
      "ctor": 5226,
      "gau": 5227,
      "hứa": 5228,
      "leo": 5229,
      "ẫm": 5230,
      "chlamydia": 5231,
      "socia": 5232,
      "Nhà": 5233,
      "ides": 5234,
      "145": 5235,
      "TMTQ": 5236,
      "PHÁP": 5237,
      "stag": 5238,
      "vulan": 5239,
      "fampin": 5240,
      "Jef": 5241,
      "MAC": 5242,
      "PCI": 5243,
      "SNK": 5244,
      "T0": 5245,
      "hãi": 5246,
      "ũa": 5247,
      "giết": 5248,
      "Phỏng": 5249,
      "niềm": 5250,
      "pido": 5251,
      "chael": 5252,
      "Cephalosporin": 5253,
      "lisson": 5254,
      "sarcoid": 5255,
      "ĐHYD": 5256,
      "prazole": 5257,
      "Cam": 5258,
      "GE": 5259,
      "VL": 5260,
      "Vòng": 5261,
      "kcal": 5262,
      "tảng": 5263,
      "xen": 5264,
      "µm": 5265,
      "phô": 5266,
      "Thất": 5267,
      "amoxicillin": 5268,
      "toa": 5269,
      "khoeo": 5270,
      "digoxin": 5271,
      "old": 5272,
      "ghế": 5273,
      "tatin": 5274,
      "amip": 5275,
      "VGB": 5276,
      "Vancomycin": 5277,
      "GDSK": 5278,
      "Jeffer": 5279,
      "BTM": 5280,
      "Bur": 5281,
      "SCI": 5282,
      "UB": 5283,
      "VR": 5284,
      "bal": 5285,
      "blas": 5286,
      "nmol": 5287,
      "đặn": 5288,
      "121": 5289,
      "ling": 5290,
      "Địa": 5291,
      "Carbapenem": 5292,
      "ffici": 5293,
      "GnRH": 5294,
      "Jefferson": 5295,
      "Nâng": 5296,
      "SUV": 5297,
      "grel": 5298,
      "đô": 5299,
      "Ước": 5300,
      "til": 5301,
      "Trưng": 5302,
      "004": 5303,
      "cap": 5304,
      "155": 5305,
      "TBS": 5306,
      "prednisolone": 5307,
      "Cố": 5308,
      "Tam": 5309,
      "bla": 5310,
      "izumab": 5311,
      "mặn": 5312,
      "thù": 5313,
      "roten": 5314,
      "157": 5315,
      "ISH": 5316,
      "Toàn": 5317,
      "AVM": 5318,
      "KAP": 5319,
      "Lợi": 5320,
      "rone": 5321,
      "zona": 5322,
      "Đơn": 5323,
      "Char": 5324,
      "lio": 5325,
      "Hoàn": 5326,
      "cita": 5327,
      "lfamethoxazole": 5328,
      "Willi": 5329,
      "Amp": 5330,
      "collagen": 5331,
      "tyrosine": 5332,
      "ĐRTK": 5333,
      "Dia": 5334,
      "rho": 5335,
      "thầm": 5336,
      "quine": 5337,
      "anin": 5338,
      "rami": 5339,
      "113": 5340,
      "illa": 5341,
      "ĐTĐT": 5342,
      "ADA": 5343,
      "stol": 5344,
      "multiplex": 5345,
      "docking": 5346,
      "119": 5347,
      "BQ": 5348,
      "Hct": 5349,
      "MLT": 5350,
      "khôi": 5351,
      "choáng": 5352,
      "Phil": 5353,
      "Giả": 5354,
      "Tuỳ": 5355,
      "lymphoma": 5356,
      "HSTC": 5357,
      "clarithromycin": 5358,
      "Pugh": 5359,
      "Ami": 5360,
      "Béo": 5361,
      "rh": 5362,
      "quặn": 5363,
      "tone": 5364,
      "landin": 5365,
      "methanol": 5366,
      "mero": 5367,
      "erythromycin": 5368,
      "BYT": 5369,
      "Còn": 5370,
      "HQ": 5371,
      "Vin": 5372,
      "gonado": 5373,
      "lay": 5374,
      "loma": 5375,
      "nguyễn": 5376,
      "Michael": 5377,
      "ickett": 5378,
      "staglandin": 5379,
      "Fallot": 5380,
      "GBS": 5381,
      "Hz": 5382,
      "bê": 5383,
      "it": 5384,
      "glucocorticoid": 5385,
      "IC50": 5386,
      "salicy": 5387,
      "hematocrit": 5388,
      "tinoin": 5389,
      "Vater": 5390,
      "Glisson": 5391,
      "Man": 5392,
      "Sur": 5393,
      "clip": 5394,
      "còm": 5395,
      "ƯỜ": 5396,
      "nhiễu": 5397,
      "tháp": 5398,
      "idazol": 5399,
      "aspar": 5400,
      "cuồng": 5401,
      "azithromycin": 5402,
      "Lyme": 5403,
      "cyclosporine": 5404,
      "Băng": 5405,
      "C2": 5406,
      "HV": 5407,
      "HCO": 5408,
      "Rò": 5409,
      "WF": 5410,
      "ian": 5411,
      "úa": 5412,
      "ngư": 5413,
      "anion": 5414,
      "Ngừng": 5415,
      "thiaz": 5416,
      "Khẩu": 5417,
      "127": 5418,
      "ima": 5419,
      "116": 5420,
      "147": 5421,
      "nón": 5422,
      "CRT": 5423,
      "romo": 5424,
      "vastatin": 5425,
      "AX": 5426,
      "EG": 5427,
      "cặn": 5428,
      "gne": 5429,
      "ỚI": 5430,
      "Phối": 5431,
      "chil": 5432,
      "138": 5433,
      "240": 5434,
      "metronidazole": 5435,
      "tans": 5436,
      "lactic": 5437,
      "composite": 5438,
      "proges": 5439,
      "đuối": 5440,
      "BCH": 5441,
      "Ery": 5442,
      "HĐ": 5443,
      "HHK": 5444,
      "KA": 5445,
      "LO": 5446,
      "RADS": 5447,
      "Tinh": 5448,
      "TBM": 5449,
      "đạc": 5450,
      "cholines": 5451,
      "nhớt": 5452,
      "sacchar": 5453,
      "ishman": 5454,
      "THUẬT": 5455,
      "imipenem": 5456,
      "ĐRTKCT": 5457,
      "C3": 5458,
      "Lai": 5459,
      "RV": 5460,
      "cọ": 5461,
      "cạn": 5462,
      "jo": 5463,
      "tetracycline": 5464,
      "troponin": 5465,
      "ADHD": 5466,
      "transferrin": 5467,
      "barbi": 5468,
      "carboxy": 5469,
      "gauge": 5470,
      "BTT": 5471,
      "GTT": 5472,
      "MỘT": 5473,
      "Or": 5474,
      "ak": 5475,
      "falci": 5476,
      "lang": 5477,
      "ndro": 5478,
      "khan": 5479,
      "Chủ": 5480,
      "1998": 5481,
      "procalcitonin": 5482,
      "146": 5483,
      "TNM": 5484,
      "ERD": 5485,
      "tretinoin": 5486,
      "cholinesterase": 5487,
      "Cal": 5488,
      "CNS": 5489,
      "Lar": 5490,
      "PL": 5491,
      "PTT": 5492,
      "Rửa": 5493,
      "nai": 5494,
      "thèm": 5495,
      "radio": 5496,
      "amylase": 5497,
      "mẹo": 5498,
      "Thuật": 5499,
      "TCM": 5500,
      "phaco": 5501,
      "ICP": 5502,
      "parum": 5503,
      "Cyto": 5504,
      "quinolone": 5505,
      "Haemo": 5506,
      "soprostol": 5507,
      "meropenem": 5508,
      "ACR": 5509,
      "Bạn": 5510,
      "EC": 5511,
      "His": 5512,
      "acbon": 5513,
      "ort": 5514,
      "biếng": 5515,
      "Tuân": 5516,
      "aza": 5517,
      "vacizumab": 5518,
      "dextro": 5519,
      "thiopr": 5520,
      "%-": 5521,
      "GO": 5522,
      "UNG": 5523,
      "gA": 5524,
      "gỗ": 5525,
      "gáy": 5526,
      "ĐN": 5527,
      "Đó": 5528,
      "cháy": 5529,
      "loid": 5530,
      "aline": 5531,
      "nife": 5532,
      "ADR": 5533,
      "Xuân": 5534,
      "DCCT": 5535,
      "Bến": 5536,
      "DNT": 5537,
      "Hạch": 5538,
      "QD": 5539,
      "ulfamethoxazole": 5540,
      "xỉ": 5541,
      "ÁN": 5542,
      "đũa": 5543,
      "ỆU": 5544,
      "Thân": 5545,
      "diffici": 5546,
      "rec": 5547,
      "170": 5548,
      "Wilson": 5549,
      "zation": 5550,
      "VMDƯ": 5551,
      "JAK": 5552,
      "difficile": 5553,
      "BUN": 5554,
      "D3": 5555,
      "Dex": 5556,
      "GERD": 5557,
      "N2": 5558,
      "Pres": 5559,
      "Shi": 5560,
      "Vô": 5561,
      "bắn": 5562,
      "dB": 5563,
      "ok": 5564,
      "Ưu": 5565,
      "thôi": 5566,
      "vidone": 5567,
      "ens": 5568,
      "Ngưỡng": 5569,
      "chiếc": 5570,
      "Khu": 5571,
      "lichen": 5572,
      "epam": 5573,
      "form": 5574,
      "sulfon": 5575,
      "NPV": 5576,
      "zolid": 5577,
      "Bacillus": 5578,
      "210": 5579,
      "BK": 5580,
      "Cận": 5581,
      "Hem": 5582,
      "Tc": 5583,
      "Western": 5584,
      "cưỡng": 5585,
      "nell": 5586,
      "pcr": 5587,
      "rừng": 5588,
      "syl": 5589,
      "tồi": 5590,
      "Đi": 5591,
      "ẪU": 5592,
      "chuyện": 5593,
      "coronavirus": 5594,
      "veland": 5595,
      "Cleveland": 5596,
      "thioprine": 5597,
      "+,": 5598,
      "ason": 5599,
      "cất": 5600,
      "cống": 5601,
      "cep": 5602,
      "gương": 5603,
      "gậy": 5604,
      "lạ": 5605,
      "mươi": 5606,
      "Đứt": 5607,
      "đáo": 5608,
      "khép": 5609,
      "indo": 5610,
      "liac": 5611,
      "cagon": 5612,
      "ela": 5613,
      "vention": 5614,
      "Bilirubin": 5615,
      "clavulan": 5616,
      "sevoflurane": 5617,
      "Institute": 5618,
      "gentamicin": 5619,
      "gonadotropin": 5620,
      "Haemophilus": 5621,
      "Mac": 5622,
      "Xa": 5623,
      "nạng": 5624,
      "wan": 5625,
      "chro": 5626,
      "phốt": 5627,
      "Thở": 5628,
      "idney": 5629,
      "dipine": 5630,
      "tavirus": 5631,
      "histo": 5632,
      "steron": 5633,
      "miRNA": 5634,
      "choline": 5635,
      "PHẪU": 5636,
      "levodopa": 5637,
      "Epstein": 5638,
      "rolimus": 5639,
      "William": 5640,
      "Ber": 5641,
      "Lắk": 5642,
      "eae": 5643,
      "hái": 5644,
      "vũ": 5645,
      "ằn": 5646,
      "ngôi": 5647,
      "trọn": 5648,
      "ash": 5649,
      "levofloxacin": 5650,
      "cisp": 5651,
      "duyệt": 5652,
      "sprung": 5653,
      "ABO": 5654,
      "Regi": 5655,
      "Hirsch": 5656,
      "Tricho": 5657,
      "hemophilia": 5658,
      "falciparum": 5659,
      "H1": 5660,
      "PGS": 5661,
      "Teo": 5662,
      "fu": 5663,
      "hà": 5664,
      "oto": 5665,
      "sảy": 5666,
      "tac": 5667,
      "ỢNG": 5668,
      "thũng": 5669,
      "Thủng": 5670,
      "amphotericin": 5671,
      "tos": 5672,
      "tocin": 5673,
      "Phải": 5674,
      "009": 5675,
      "ghẻ": 5676,
      "136": 5677,
      "THPT": 5678,
      "David": 5679,
      "interleukin": 5680,
      "DPPH": 5681,
      "bicarbonate": 5682,
      "Nông": 5683,
      "Ran": 5684,
      "SN": 5685,
      "ew": 5686,
      "chay": 5687,
      "128": 5688,
      "lizumab": 5689,
      "cystatin": 5690,
      "bacterium": 5691,
      "HbA": 5692,
      "aminase": 5693,
      "amikacin": 5694,
      "sarcom": 5695,
      "nicotin": 5696,
      "cisplatin": 5697,
      "AO": 5698,
      "KX": 5699,
      "PN": 5700,
      "PNM": 5701,
      "vẽ": 5702,
      "vivo": 5703,
      "132": 5704,
      "162": 5705,
      "IVIG": 5706,
      "saponin": 5707,
      "ADC": 5708,
      "povidone": 5709,
      "Real": 5710,
      "phosphor": 5711,
      "sulfate": 5712,
      "Scv": 5713,
      "ĐTĐTK": 5714,
      "Bor": 5715,
      "CVP": 5716,
      "KQ": 5717,
      "POS": 5718,
      "Sim": 5719,
      "cốc": 5720,
      "deo": 5721,
      "vang": 5722,
      "Pháp": 5723,
      "ruc": 5724,
      "matis": 5725,
      "139": 5726,
      "2500": 5727,
      "iss": 5728,
      "cyte": 5729,
      "ADL": 5730,
      "renin": 5731,
      "cytokin": 5732,
      "NaCl": 5733,
      "aminoglycosid": 5734,
      "folic": 5735,
      "pidogrel": 5736,
      "AZ": 5737,
      "BĐ": 5738,
      "Buồn": 5739,
      "Gam": 5740,
      "Nốt": 5741,
      "sặc": 5742,
      "thảm": 5743,
      "trần": 5744,
      "trũng": 5745,
      "giận": 5746,
      "quấn": 5747,
      "Chủng": 5748,
      "tetra": 5749,
      "122": 5750,
      "glutam": 5751,
      "cytomegalovirus": 5752,
      "gom": 5753,
      "cefo": 5754,
      "lidocain": 5755,
      "phetamine": 5756,
      "subti": 5757,
      "pemphigus": 5758,
      "GRACE": 5759,
      "Fentanyl": 5760,
      "Hở": 5761,
      "dan": 5762,
      "dát": 5763,
      "fil": 5764,
      "olol": 5765,
      "éc": 5766,
      "đạp": 5767,
      "low": 5768,
      "chomatis": 5769,
      "STM": 5770,
      "propyl": 5771,
      "tazid": 5772,
      "]),": 5773,
      "búi": 5774,
      "ier": 5775,
      "tặng": 5776,
      "Đưa": 5777,
      "rituximab": 5778,
      "CBCT": 5779,
      "purin": 5780,
      "ishmania": 5781,
      "Bro": 5782,
      "CNC": 5783,
      "Fri": 5784,
      "Hàn": 5785,
      "Os": 5786,
      "Plas": 5787,
      "TẠI": 5788,
      "Vệ": 5789,
      "fan": 5790,
      "gò": 5791,
      "pu": 5792,
      "ín": 5793,
      "ngặt": 5794,
      "tuýp": 5795,
      "caroten": 5796,
      "prostaglandin": 5797,
      "cis": 5798,
      "TNC": 5799,
      "pheni": 5800,
      "Cancer": 5801,
      "TIMI": 5802,
      "adrenergic": 5803,
      "1b": 5804,
      "BTNT": 5805,
      "ONG": 5806,
      "PCA": 5807,
      "Porphy": 5808,
      "Scale": 5809,
      "Xanh": 5810,
      "pox": 5811,
      "rẻ": 5812,
      "ya": 5813,
      "tio": 5814,
      "retro": 5815,
      "165": 5816,
      "care": 5817,
      "glucagon": 5818,
      "DSM": 5819,
      "nucleotide": 5820,
      "ropivacain": 5821,
      "hydrogenase": 5822,
      "220": 5823,
      "Cây": 5824,
      "Cục": 5825,
      "HÌNH": 5826,
      "Nôn": 5827,
      "Pho": 5828,
      "Sống": 5829,
      "wasaki": 5830,
      "Thư": 5831,
      "oni": 5832,
      "trachomatis": 5833,
      "uman": 5834,
      "baz": 5835,
      "perac": 5836,
      "thoa": 5837,
      "atz": 5838,
      "HOMA": 5839,
      "clorid": 5840,
      "LDH": 5841,
      "ginine": 5842,
      "bisphosphon": 5843,
      "Pharm": 5844,
      "Type": 5845,
      "idelines": 5846,
      "nucleic": 5847,
      "erythropoietin": 5848,
      "Regional": 5849,
      "Kali": 5850,
      "May": 5851,
      "Uỷ": 5852,
      "cas": 5853,
      "lt": 5854,
      "lò": 5855,
      "nan": 5856,
      "nét": 5857,
      "tỳ": 5858,
      "Đới": 5859,
      "Thuyên": 5860,
      "alk": 5861,
      "dis": 5862,
      "aria": 5863,
      "THỰC": 5864,
      "Tỉnh": 5865,
      "ADN": 5866,
      "PHƯƠNG": 5867,
      "protease": 5868,
      "deoxy": 5869,
      "+)": 5870,
      "Dưới": 5871,
      "GPB": 5872,
      "IX": 5873,
      "Kil": 5874,
      "dầm": 5875,
      "sem": 5876,
      "ĐC": 5877,
      "silic": 5878,
      "trip": 5879,
      "STL": 5880,
      "PDA": 5881,
      "ABI": 5882,
      "BPTT": 5883,
      "Triglycer": 5884,
      "subtilis": 5885,
      "DAS": 5886,
      "Tuyến": 5887,
      "bấm": 5888,
      "gren": 5889,
      "vã": 5890,
      "ẤN": 5891,
      "quảng": 5892,
      "eld": 5893,
      "ring": 5894,
      "RIF": 5895,
      "Ki67": 5896,
      "HMMD": 5897,
      "Nhuộm": 5898,
      "mycosis": 5899,
      "Holter": 5900,
      "627201": 5901,
      "BIS": 5902,
      "Củ": 5903,
      "Pb": 5904,
      "ps": 5905,
      "rã": 5906,
      "tóm": 5907,
      "wa": 5908,
      "dow": 5909,
      "Tháp": 5910,
      "sul": 5911,
      "rifampin": 5912,
      "trate": 5913,
      "ĐTN": 5914,
      "ppm": 5915,
      "nhờn": 5916,
      "alanine": 5917,
      "BCHTT": 5918,
      "St": 5919,
      "Tic": 5920,
      "hao": 5921,
      "spe": 5922,
      "đắp": 5923,
      "ngậm": 5924,
      "phia": 5925,
      "khoản": 5926,
      "156": 5927,
      "ckel": 5928,
      "MTX": 5929,
      "PaCO2": 5930,
      "Associa": 5931,
      "TIPS": 5932,
      "carcinoid": 5933,
      "taxime": 5934,
      "IGO": 5935,
      "Bupivaca": 5936,
      "progestin": 5937,
      "Larry": 5938,
      "dextrose": 5939,
      "Axit": 5940,
      "Es": 5941,
      "Ko": 5942,
      "Màng": 5943,
      "Mas": 5944,
      "Sóc": 5945,
      "ciclo": 5946,
      "sứ": 5947,
      "nhát": 5948,
      "dịu": 5949,
      "epin": 5950,
      "acetat": 5951,
      "iodine": 5952,
      "UTDD": 5953,
      "sporid": 5954,
      "Cornell": 5955,
      "Stress": 5956,
      "web": 5957,
      "Eb": 5958,
      "Et": 5959,
      "Imi": 5960,
      "bs": 5961,
      "sần": 5962,
      "tase": 5963,
      "ĐQ": 5964,
      "Phúc": 5965,
      "114": 5966,
      "142": 5967,
      "TCC": 5968,
      "cortisone": 5969,
      "vụn": 5970,
      "kins": 5971,
      "HATT": 5972,
      "mosis": 5973,
      "Penicillin": 5974,
      "munoglobulin": 5975,
      "TBMMN": 5976,
      "Bay": 5977,
      "Fis": 5978,
      "Pfi": 5979,
      "West": 5980,
      "cạo": 5981,
      "dẻ": 5982,
      "ec": 5983,
      "gy": 5984,
      "kẹo": 5985,
      "lê": 5986,
      "mực": 5987,
      "phàn": 5988,
      "chole": 5989,
      "Thỉnh": 5990,
      "hạnh": 5991,
      "cmH2O": 5992,
      "SDP": 5993,
      "Viet": 5994,
      "ALL": 5995,
      "pyr": 5996,
      "cellu": 5997,
      "TnT": 5998,
      "citabine": 5999,
      "Cử": 6000,
      "FISH": 6001,
      "Kéo": 6002,
      "Tem": 6003,
      "YAG": 6004,
      "alu": 6005,
      "tỏi": 6006,
      "ulo": 6007,
      "try": 6008,
      "tròng": 6009,
      "ini": 6010,
      "Phước": 6011,
      "thiamin": 6012,
      "129": 6013,
      "152": 6014,
      "pira": 6015,
      "dehydrogenase": 6016,
      "STI": 6017,
      "STAT": 6018,
      "NCE": 6019,
      "MCV": 6020,
      "pyri": 6021,
      "vudine": 6022,
      "tts": 6023,
      "sidase": 6024,
      "Kappa": 6025,
      "Lympho": 6026,
      "Atlan": 6027,
      "Imipenem": 6028,
      "(±": 6029,
      "Bis": 6030,
      "IGF": 6031,
      "NMR": 6032,
      "gọn": 6033,
      "lăng": 6034,
      "nỗi": 6035,
      "vùi": 6036,
      "ợp": 6037,
      "nhợt": 6038,
      "chồn": 6039,
      "Cha": 6040,
      "Chia": 6041,
      "1992": 6042,
      "mec": 6043,
      "forman": 6044,
      "NCA": 6045,
      "clon": 6046,
      "lúa": 6047,
      "Prevention": 6048,
      "burgh": 6049,
      "latch": 6050,
      "Lewis": 6051,
      "PHCN": 6052,
      "Gamma": 6053,
      "GAB": 6054,
      "Hiểu": 6055,
      "Pneum": 6056,
      "QI": 6057,
      "SJ": 6058,
      "Schi": 6059,
      "base": 6060,
      "fos": 6061,
      "lặng": 6062,
      "ráy": 6063,
      "tuber": 6064,
      "ers": 6065,
      "Nghị": 6066,
      "olin": 6067,
      "153": 6068,
      "134": 6069,
      "MDA": 6070,
      "Methotrexate": 6071,
      "ated": 6072,
      "helicobacter": 6073,
      "ACE2": 6074,
      "Rub": 6075,
      "Kawasaki": 6076,
      "Tak": 6077,
      "azathioprine": 6078,
      "Hirschsprung": 6079,
      "ScvO2": 6080,
      "peracillin": 6081,
      "B1": 6082,
      "Cd": 6083,
      "Cụ": 6084,
      "KN": 6085,
      "Tg": 6086,
      "YTNC": 6087,
      "bor": 6088,
      "oc": 6089,
      "tội": 6090,
      "urea": 6091,
      "vãng": 6092,
      "ÀN": 6093,
      "Đào": 6094,
      "đắng": 6095,
      "nhăn": 6096,
      "giạng": 6097,
      "amaz": 6098,
      "chim": 6099,
      "Nghe": 6100,
      "buprofen": 6101,
      "kit": 6102,
      "lactat": 6103,
      "National": 6104,
      "OTO": 6105,
      "lún": 6106,
      "Chuột": 6107,
      "ƯỜNG": 6108,
      "Pfizer": 6109,
      "Miễn": 6110,
      "PFS": 6111,
      "Rách": 6112,
      "bri": 6113,
      "dũ": 6114,
      "gli": 6115,
      "gộp": 6116,
      "rận": 6117,
      "xát": 6118,
      "đốc": 6119,
      "ỤNG": 6120,
      "ướp": 6121,
      "Ngưng": 6122,
      "traconazole": 6123,
      "trợt": 6124,
      "mium": 6125,
      "stem": 6126,
      "oley": 6127,
      "PHOTO": 6128,
      "myo": 6129,
      "Acid": 6130,
      "rubicin": 6131,
      "Apg": 6132,
      "Crypto": 6133,
      "FT": 6134,
      "FNA": 6135,
      "Gre": 6136,
      "IM": 6137,
      "KST": 6138,
      "MẠ": 6139,
      "Quyết": 6140,
      "Tối": 6141,
      "VSA": 6142,
      "mâm": 6143,
      "pal": 6144,
      "ras": 6145,
      "Phổ": 6146,
      "008": 6147,
      "buốt": 6148,
      "CLĐT": 6149,
      "NCPAP": 6150,
      "eptor": 6151,
      "BCCD": 6152,
      "trypsin": 6153,
      "ramingham": 6154,
      "Temple": 6155,
      "Apgar": 6156,
      "GGT": 6157,
      "MĐ": 6158,
      "Ox": 6159,
      "PW": 6160,
      "Pr": 6161,
      "ux": 6162,
      "giếng": 6163,
      "Chèn": 6164,
      "probiotic": 6165,
      "elphia": 6166,
      "uss": 6167,
      "celiac": 6168,
      "APRI": 6169,
      "NKVM": 6170,
      "stry": 6171,
      "acetic": 6172,
      "adelphia": 6173,
      "(+),": 6174,
      "nicotine": 6175,
      "Steven": 6176,
      "trimethopri": 6177,
      "750": 6178,
      "ANA": 6179,
      "ANCA": 6180,
      "Cập": 6181,
      "Cox": 6182,
      "CAR": 6183,
      "DV": 6184,
      "FVC": 6185,
      "TỔ": 6186,
      "cell": 6187,
      "pra": 6188,
      "somy": 6189,
      "tep": 6190,
      "cagA": 6191,
      "1990": 6192,
      "MDD": 6193,
      "TRONG": 6194,
      "MSCT": 6195,
      "CMTH": 6196,
      "fentan": 6197,
      "VIỆN": 6198,
      "(≤": 6199,
      "350": 6200,
      "Blatch": 6201,
      "Dụng": 6202,
      "ENCE": 6203,
      "IMT": 6204,
      "LASI": 6205,
      "Mul": 6206,
      "Tầm": 6207,
      "Was": 6208,
      "bây": 6209,
      "mề": 6210,
      "phin": 6211,
      "toni": 6212,
      "dioxide": 6213,
      "006": 6214,
      "este": 6215,
      "caffe": 6216,
      "med": 6217,
      "Tur": 6218,
      "bacillus": 6219,
      "CAT": 6220,
      "Roch": 6221,
      "glycoprotein": 6222,
      "BRCA": 6223,
      "hington": 6224,
      "illain": 6225,
      "tubercu": 6226,
      "Rubella": 6227,
      "LASIK": 6228,
      "Washington": 6229,
      "Dày": 6230,
      "Dani": 6231,
      "Mod": 6232,
      "Wer": 6233,
      "ges": 6234,
      "múa": 6235,
      "pmol": 6236,
      "tường": 6237,
      "ỌC": 6238,
      "trúng": 6239,
      "ượn": 6240,
      "Thứ": 6241,
      "IIB": 6242,
      "190": 6243,
      "NAAT": 6244,
      "ARY": 6245,
      "glycerin": 6246,
      "LIBR": 6247,
      "neoforman": 6248,
      "Creatinin": 6249,
      "SCIENCE": 6250,
      "LIBRARY": 6251,
      "Cùng": 6252,
      "ET": 6253,
      "El": 6254,
      "Geo": 6255,
      "Gly": 6256,
      "ada": 6257,
      "cen": 6258,
      "fae": 6259,
      "hứng": 6260,
      "mil": 6261,
      "đực": 6262,
      "ẠNG": 6263,
      "ỘI": 6264,
      "ỨC": 6265,
      "Ức": 6266,
      "nhuy": 6267,
      "gió": 6268,
      "Thẩm": 6269,
      "icam": 6270,
      "muth": 6271,
      "illoma": 6272,
      "peraz": 6273,
      "fluconazole": 6274,
      "pple": 6275,
      "Pitts": 6276,
      "dopamin": 6277,
      "Philadelphia": 6278,
      "purinol": 6279,
      "Association": 6280,
      "ciclovir": 6281,
      "fentanil": 6282,
      "neoformans": 6283,
      "nhuyễn": 6284,
      "A2": 6285,
      "Bù": 6286,
      "Cà": 6287,
      "Fre": 6288,
      "Lá": 6289,
      "Sw": 6290,
      "Tích": 6291,
      "Uống": 6292,
      "XA": 6293,
      "era": 6294,
      "gõ": 6295,
      "hung": 6296,
      "mài": 6297,
      "Ăn": 6298,
      "ịn": 6299,
      "thiệt": 6300,
      "Trọng": 6301,
      "dip": 6302,
      "dison": 6303,
      "cara": 6304,
      "PaO": 6305,
      "sulfat": 6306,
      "FiO": 6307,
      "burg": 6308,
      "amyloidosis": 6309,
      "adenosine": 6310,
      "VSATTP": 6311,
      "360": 6312,
      "Az": 6313,
      "AHA": 6314,
      "Camp": 6315,
      "Flor": 6316,
      "NF": 6317,
      "Pan": 6318,
      "Rau": 6319,
      "Tex": 6320,
      "cycline": 6321,
      "nụ": 6322,
      "om": 6323,
      "rge": 6324,
      "véc": 6325,
      "ĐỀ": 6326,
      "int": 6327,
      "Trứng": 6328,
      "terol": 6329,
      "pies": 6330,
      "CIP": 6331,
      "ranolol": 6332,
      "Aspirin": 6333,
      "graphy": 6334,
      "Barth": 6335,
      "EMI": 6336,
      "peptid": 6337,
      "Kimmel": 6338,
      "Hydro": 6339,
      "\",": 6340,
      "\".": 6341,
      "5000": 6342,
      "DỤNG": 6343,
      "Ham": 6344,
      "Iso": 6345,
      "JD": 6346,
      "NTH": 6347,
      "OSA": 6348,
      "Vac": 6349,
      "mIU": 6350,
      "ĐB": 6351,
      "ngon": 6352,
      "cơm": 6353,
      "eme": 6354,
      "đãi": 6355,
      "diclo": 6356,
      "khoái": 6357,
      "khảm": 6358,
      "144": 6359,
      "ofs": 6360,
      "Index": 6361,
      "Prop": 6362,
      "Rock": 6363,
      "Robert": 6364,
      "osid": 6365,
      "ISO": 6366,
      "calcium": 6367,
      "levobupivacain": 6368,
      "Guillain": 6369,
      "Pharmac": 6370,
      "amyloid": 6371,
      "dẻo": 6372,
      "Texas": 6373,
      "GCS": 6374,
      "Hợp": 6375,
      "RBC": 6376,
      "Sidney": 6377,
      "Wal": 6378,
      "mưa": 6379,
      "ryl": 6380,
      "vard": 6381,
      "tru": 6382,
      "tróc": 6383,
      "TT10": 6384,
      "pion": 6385,
      "nap": 6386,
      "CLS": 6387,
      "polysacchar": 6388,
      "Lipid": 6389,
      "Cefo": 6390,
      "Carcin": 6391,
      "Toan": 6392,
      "ĐẶT": 6393,
      "Fisher": 6394,
      "Pittsburgh": 6395,
      "Florida": 6396,
      "Cầu": 6397,
      "CABG": 6398,
      "FF": 6399,
      "FU": 6400,
      "Fu": 6401,
      "Pôn": 6402,
      "S1": 6403,
      "Sj": 6404,
      "Yêu": 6405,
      "mì": 6406,
      "nạt": 6407,
      "zap": 6408,
      "đấu": 6409,
      "giấm": 6410,
      "tistry": 6411,
      "dosis": 6412,
      "Tham": 6413,
      "Trans": 6414,
      "copies": 6415,
      "ones": 6416,
      "xuôi": 6417,
      "dient": 6418,
      "darone": 6419,
      "arginine": 6420,
      "1997": 6421,
      "ofo": 6422,
      "spo": 6423,
      "Alpha": 6424,
      "ronic": 6425,
      "plasmin": 6426,
      "glycoside": 6427,
      "Control": 6428,
      "NKHHC": 6429,
      "fluoroquinolon": 6430,
      "Dentistry": 6431,
      "Case": 6432,
      "D1": 6433,
      "Der": 6434,
      "Lực": 6435,
      "Tĩnh": 6436,
      "sạn": 6437,
      "ye": 6438,
      "zin": 6439,
      "điệu": 6440,
      "chồi": 6441,
      "trim": 6442,
      "rad": 6443,
      "dor": 6444,
      "Thêm": 6445,
      "149": 6446,
      "risto": 6447,
      "iasis": 6448,
      "bach": 6449,
      "glucosidase": 6450,
      "Myco": 6451,
      "Frank": 6452,
      "myces": 6453,
      "receptor": 6454,
      "Blatchford": 6455,
      "ofovir": 6456,
      ")).": 6457,
      "280": 6458,
      "DQ": 6459,
      "Euro": 6460,
      "IQ": 6461,
      "Mat": 6462,
      "SB": 6463,
      "Sâm": 6464,
      "VRT": 6465,
      "WH": 6466,
      "cry": 6467,
      "gũi": 6468,
      "lượn": 6469,
      "rộp": 6470,
      "tô": 6471,
      "thầu": 6472,
      "Trang": 6473,
      "Phố": 6474,
      "Nhàn": 6475,
      "007": 6476,
      "ases": 6477,
      "nitrat": 6478,
      "bolus": 6479,
      "DDS": 6480,
      "parkinson": 6481,
      "kaloid": 6482,
      "FiO2": 6483,
      "Ceftriaxone": 6484,
      "Lewy": 6485,
      "curonium": 6486,
      "phenicol": 6487,
      "Phos": 6488,
      "Killip": 6489,
      "Rochester": 6490,
      "BCR": 6491,
      "CBC": 6492,
      "GOS": 6493,
      "ICH": 6494,
      "Pemphig": 6495,
      "VẤN": 6496,
      "bách": 6497,
      "cre": 6498,
      "ech": 6499,
      "sel": 6500,
      "tch": 6501,
      "tôm": 6502,
      "urac": 6503,
      "ĐỐI": 6504,
      "aids": 6505,
      "dom": 6506,
      "cocaine": 6507,
      "ori": 6508,
      "COS": 6509,
      "forma": 6510,
      "ramphenicol": 6511,
      "UTI": 6512,
      "ABL": 6513,
      "fenac": 6514,
      "Michi": 6515,
      "isotretinoin": 6516,
      "atoma": 6517,
      "Hemophilia": 6518,
      "retrovirus": 6519,
      "uracil": 6520,
      "Ja": 6521,
      "Kar": 6522,
      "KSDP": 6523,
      "M1": 6524,
      "Mệt": 6525,
      "Nẹp": 6526,
      "On": 6527,
      "QC": 6528,
      "Sờ": 6529,
      "TYT": 6530,
      "XX": 6531,
      "gran": 6532,
      "són": 6533,
      "túc": 6534,
      "ăc": 6535,
      "ngây": 6536,
      "NMC": 6537,
      "Lister": 6538,
      "clopidogrel": 6539,
      "axít": 6540,
      "KIẾN": 6541,
      "porphyria": 6542,
      "Mycobacter": 6543,
      "Methyl": 6544,
      "tazidime": 6545,
      "5cm": 6546,
      "Aed": 6547,
      "Achil": 6548,
      "DH": 6549,
      "KRAS": 6550,
      "Lin": 6551,
      "SH": 6552,
      "Tum": 6553,
      "dốc": 6554,
      "lác": 6555,
      "nd": 6556,
      "aud": 6557,
      "ence": 6558,
      "Ngứa": 6559,
      "Ngãi": 6560,
      "Trực": 6561,
      "rove": 6562,
      "vịt": 6563,
      "ght": 6564,
      "CTG": 6565,
      "linium": 6566,
      "Meckel": 6567,
      "CHOP": 6568,
      "CLC": 6569,
      "und": 6570,
      "Soci": 6571,
      "pheno": 6572,
      "ferol": 6573,
      "MLCT": 6574,
      "racti": 6575,
      "IPSS": 6576,
      "Clostridium": 6577,
      "GOLD": 6578,
      "PharmD": 6579,
      "012": 6580,
      "4000": 6581,
      "C5": 6582,
      "CNT": 6583,
      "Lạc": 6584,
      "NLR": 6585,
      "Qo": 6586,
      "Rickett": 6587,
      "Stu": 6588,
      "TU": 6589,
      "cự": 6590,
      "dệt": 6591,
      "ety": 6592,
      "well": 6593,
      "ẾU": 6594,
      "nhung": 6595,
      "nhét": 6596,
      "thợ": 6597,
      "khủng": 6598,
      "tidine": 6599,
      "Chiến": 6600,
      "Phơi": 6601,
      "emi": 6602,
      "alkaloid": 6603,
      "Khâu": 6604,
      "dihydro": 6605,
      "rug": 6606,
      "genes": 6607,
      "imoto": 6608,
      "1994": 6609,
      "icella": 6610,
      "THNCT": 6611,
      "176": 6612,
      "IIIB": 6613,
      "moni": 6614,
      "pap": 6615,
      "vax": 6616,
      "vagin": 6617,
      "modium": 6618,
      "gada": 6619,
      "Canada": 6620,
      "chìa": 6621,
      "adrenalin": 6622,
      "Ferritin": 6623,
      "ashimoto": 6624,
      "Aedes": 6625,
      "Base": 6626,
      "Benz": 6627,
      "CAD": 6628,
      "Dep": 6629,
      "HU": 6630,
      "Huy": 6631,
      "Hashimoto": 6632,
      "Linh": 6633,
      "MTH": 6634,
      "cấm": 6635,
      "eto": 6636,
      "ịa": 6637,
      "ỔI": 6638,
      "nhày": 6639,
      "dolinium": 6640,
      "amio": 6641,
      "Chậm": 6642,
      "xuân": 6643,
      "sium": 6644,
      "cut": 6645,
      "154": 6646,
      "nitric": 6647,
      "SAR": 6648,
      "ARFI": 6649,
      "poprotein": 6650,
      "vacA": 6651,
      "amiăng": 6652,
      "dextrin": 6653,
      "Coli": 6654,
      "phenolate": 6655,
      "Johns": 6656,
      "macrol": 6657,
      "Charles": 6658,
      "QoL": 6659,
      "Bơm": 6660,
      "Cla": 6661,
      "Framingham": 6662,
      "Kon": 6663,
      "Kính": 6664,
      "Len": 6665,
      "MU": 6666,
      "Sv": 6667,
      "Ten": 6668,
      "epi": 6669,
      "gạn": 6670,
      "pseudo": 6671,
      "rong": 6672,
      "rậm": 6673,
      "Đảm": 6674,
      "đính": 6675,
      "ngọn": 6676,
      "pher": 6677,
      "mectin": 6678,
      "lipase": 6679,
      "ASPECT": 6680,
      "get": 6681,
      "Infe": 6682,
      "TRẠNG": 6683,
      "amivudine": 6684,
      "VNTM": 6685,
      "fluoroquinolone": 6686,
      "TOF": 6687,
      "with": 6688,
      "Fibro": 6689,
      "hydroxylase": 6690,
      "ndrome": 6691,
      "bazơ": 6692,
      "CAL": 6693,
      "Fr": 6694,
      "Hun": 6695,
      "HỌC": 6696,
      "PSD": 6697,
      "RM": 6698,
      "cacbon": 6699,
      "gỡ": 6700,
      "hp": 6701,
      "op": 6702,
      "vải": 6703,
      "ẢNH": 6704,
      "chăn": 6705,
      "Trạng": 6706,
      "luân": 6707,
      "cum": 6708,
      "151": 6709,
      "1996": 6710,
      "137": 6711,
      "mycobacter": 6712,
      "clorua": 6713,
      "Lee": 6714,
      "agement": 6715,
      "King": 6716,
      "Enterococcus": 6717,
      "TEN": 6718,
      "catechol": 6719,
      "JAK2": 6720,
      "Basedow": 6721,
      "Bàng": 6722,
      "Cứ": 6723,
      "Hill": 6724,
      "MBH": 6725,
      "OA": 6726,
      "Tôn": 6727,
      "furo": 6728,
      "hỏng": 6729,
      "mịn": 6730,
      "sên": 6731,
      "sẫm": 6732,
      "zi": 6733,
      "nhôm": 6734,
      "thơm": 6735,
      "amo": 6736,
      "covid": 6737,
      "Nhược": 6738,
      "emb": 6739,
      "tera": 6740,
      "ưởi": 6741,
      "rutin": 6742,
      "158": 6743,
      "Giữa": 6744,
      "189": 6745,
      "lex": 6746,
      "BVCR": 6747,
      "ĐTL": 6748,
      "vermectin": 6749,
      "levothyroxine": 6750,
      "chloroquine": 6751,
      "jirove": 6752,
      "homocysteine": 6753,
      "Presby": 6754,
      "))": 6755,
      "015": 6756,
      "BCT": 6757,
      "FMD": 6758,
      "GV": 6759,
      "Ima": 6760,
      "MMP": 6761,
      "PQ": 6762,
      "eGFR": 6763,
      "han": 6764,
      "lăn": 6765,
      "chấy": 6766,
      "trỏ": 6767,
      "rado": 6768,
      "CTV": 6769,
      "bitol": 6770,
      "yclin": 6771,
      "Colo": 6772,
      "APC": 6773,
      "TKDT": 6774,
      "XHN": 6775,
      "MEN": 6776,
      "T2W": 6777,
      "Kehr": 6778,
      "Harvard": 6779,
      "norepinephrine": 6780,
      "Pharmacy": 6781,
      "ractice": 6782,
      "jiroveci": 6783,
      "C7": 6784,
      "GB": 6785,
      "Glôcôm": 6786,
      "Ju": 6787,
      "KCB": 6788,
      "NTT": 6789,
      "VX": 6790,
      "Xuyên": 6791,
      "cáng": 6792,
      "ibuprofen": 6793,
      "lễ": 6794,
      "up": 6795,
      "đà": 6796,
      "nhở": 6797,
      "khạc": 6798,
      "hoả": 6799,
      "Trăng": 6800,
      "albendazole": 6801,
      "dipin": 6802,
      "tazo": 6803,
      "IIA": 6804,
      "oxal": 6805,
      "NGH": 6806,
      "TNTT": 6807,
      "lass": 6808,
      "SSTT": 6809,
      "Strand": 6810,
      "SMX": 6811,
      "Methadone": 6812,
      "Hormone": 6813,
      "aspartate": 6814,
      "Del": 6815,
      "FE": 6816,
      "FFR": 6817,
      "PCOS": 6818,
      "Run": 6819,
      "S2": 6820,
      "Sài": 6821,
      "Sán": 6822,
      "cành": 6823,
      "lệnh": 6824,
      "pkins": 6825,
      "Âm": 6826,
      "đẹp": 6827,
      "ưỡi": 6828,
      "thờ": 6829,
      "terpen": 6830,
      "lep": 6831,
      "161": 6832,
      "168": 6833,
      "cetin": 6834,
      "azo": 6835,
      "SSS": 6836,
      "TBT": 6837,
      "vera": 6838,
      "iod": 6839,
      "BRAF": 6840,
      "synap": 6841,
      "histamin": 6842,
      "HCTHTP": 6843,
      "gastrin": 6844,
      "phenyle": 6845,
      "phenytoin": 6846,
      "Ebola": 6847,
      "Căng": 6848,
      "CJD": 6849,
      "Dầu": 6850,
      "Grand": 6851,
      "Hương": 6852,
      "NỘI": 6853,
      "Vàng": 6854,
      "báng": 6855,
      "dầy": 6856,
      "heo": 6857,
      "mão": 6858,
      "nch": 6859,
      "rặn": 6860,
      "sh": 6861,
      "phẩu": 6862,
      "choàng": 6863,
      "Trừ": 6864,
      "Khác": 6865,
      "ProBNP": 6866,
      "NSM": 6867,
      "LMWH": 6868,
      "afil": 6869,
      "Malley": 6870,
      "Brugada": 6871,
      "Fried": 6872,
      "Carcinôm": 6873,
      "formation": 6874,
      "Achilles": 6875,
      "Cẩm": 6876,
      "Cis": 6877,
      "Hãy": 6878,
      "Liễu": 6879,
      "RHM": 6880,
      "SNP": 6881,
      "Tụ": 6882,
      "Wa": 6883,
      "gắp": 6884,
      "gno": 6885,
      "lẩy": 6886,
      "ögren": 6887,
      "β0": 6888,
      "thin": 6889,
      "trệ": 6890,
      "trông": 6891,
      "ant": 6892,
      "Pha": 6893,
      "%):": 6894,
      "buty": 6895,
      "Hopkins": 6896,
      "COG": 6897,
      "mib": 6898,
      "isser": 6899,
      "IIIA": 6900,
      "hypo": 6901,
      "ALK": 6902,
      "coidosis": 6903,
      "linezolid": 6904,
      "HBW": 6905,
      "thrombo": 6906,
      "PPI": 6907,
      "plasmosis": 6908,
      "lebrand": 6909,
      "Kaposi": 6910,
      "carbamaz": 6911,
      "UTTQ": 6912,
      "North": 6913,
      "PNMK": 6914,
      "teplase": 6915,
      "Sjögren": 6916,
      "%/": 6917,
      "011": 6918,
      "Bán": 6919,
      "Dù": 6920,
      "DƯ": 6921,
      "Fon": 6922,
      "Góp": 6923,
      "GAD": 6924,
      "Gene": 6925,
      "Jr": 6926,
      "Katz": 6927,
      "ND": 6928,
      "];": 6929,
      "echo": 6930,
      "kap": 6931,
      "lọ": 6932,
      "tùng": 6933,
      "vời": 6934,
      "µmol": 6935,
      "nhậy": 6936,
      "los": 6937,
      "endo": 6938,
      "toma": 6939,
      "erve": 6940,
      "thium": 6941,
      "terian": 6942,
      "196": 6943,
      "216": 6944,
      "183": 6945,
      "143": 6946,
      "225": 6947,
      "lei": 6948,
      "TTDD": 6949,
      "....": 6950,
      "nhiêu": 6951,
      "cmon": 6952,
      "bevacizumab": 6953,
      "calis": 6954,
      "atment": 6955,
      "pati": 6956,
      "MSE": 6957,
      "LIÊN": 6958,
      "antitrypsin": 6959,
      "Đoàn": 6960,
      "arie": 6961,
      "TDF": 6962,
      "Addison": 6963,
      "ethylene": 6964,
      "midt": 6965,
      "Ciprofloxacin": 6966,
      "Schmidt": 6967,
      "tyrosin": 6968,
      "pemphigoid": 6969,
      "Pneumo": 6970,
      "Presbyterian": 6971,
      "BG": 6972,
      "Ed": 6973,
      "HLH": 6974,
      "KHO": 6975,
      "M2": 6976,
      "Max": 6977,
      "bả": 6978,
      "fruc": 6979,
      "itraconazole": 6980,
      "mes": 6981,
      "nes": 6982,
      "urat": 6983,
      "xích": 6984,
      "êt": 6985,
      "nghẹn": 6986,
      "virút": 6987,
      "orrho": 6988,
      "ick": 6989,
      "141": 6990,
      "CIST": 6991,
      "UTĐTT": 6992,
      "GINA": 6993,
      "Cystatin": 6994,
      "allele": 6995,
      "earch": 6996,
      "barbital": 6997,
      "vaginalis": 6998,
      "2C": 6999,
      "BO": 7000,
      "CÁC": 7001,
      "Hấp": 7002,
      "M3": 7003,
      "MY": 7004,
      "MMR": 7005,
      "PID": 7006,
      "REM": 7007,
      "Sẹo": 7008,
      "TỐ": 7009,
      "Tật": 7010,
      "VTN": 7011,
      "Wel": 7012,
      "fin": 7013,
      "gella": 7014,
      "lở": 7015,
      "sáp": 7016,
      "ys": 7017,
      "°.": 7018,
      "ém": 7019,
      "ôxy": 7020,
      "ùn": 7021,
      "Đăk": 7022,
      "ởng": 7023,
      "nhyd": 7024,
      "thẻ": 7025,
      "tium": 7026,
      "202": 7027,
      "Ngăn": 7028,
      "quat": 7029,
      "148": 7030,
      "235": 7031,
      "glucon": 7032,
      "CSGN": 7033,
      "CPR": 7034,
      "gout": 7035,
      "glycol": 7036,
      "VNĐ": 7037,
      "pril": 7038,
      "131I": 7039,
      "realtime": 7040,
      "TKNQ": 7041,
      "Toxocara": 7042,
      "Michigan": 7043,
      "kappa": 7044,
      "900": 7045,
      "Gold": 7046,
      "Line": 7047,
      "N0": 7048,
      "Tan": 7049,
      "Tuyên": 7050,
      "Tàu": 7051,
      "WS": 7052,
      "lắc": 7053,
      "miên": 7054,
      "oe": 7055,
      "xẻ": 7056,
      "nhẵn": 7057,
      "ray": 7058,
      "emis": 7059,
      "roxaban": 7060,
      "alfa": 7061,
      "tech": 7062,
      "159": 7063,
      "Giám": 7064,
      "proto": 7065,
      "propion": 7066,
      "163": 7067,
      "ents": 7068,
      "varoxaban": 7069,
      "Prote": 7070,
      "(+).": 7071,
      "Paget": 7072,
      "prim": 7073,
      "GIST": 7074,
      "HIỆU": 7075,
      "microalbumin": 7076,
      "TWQĐ": 7077,
      "prazol": 7078,
      "Testo": 7079,
      "Barré": 7080,
      "enterovirus": 7081,
      "AVF": 7082,
      "MTHFR": 7083,
      "380": 7084,
      "BF": 7085,
      "Biện": 7086,
      "Bốn": 7087,
      "Cát": 7088,
      "Mer": 7089,
      "Morph": 7090,
      "OM": 7091,
      "RSD": 7092,
      "Stan": 7093,
      "Tôi": 7094,
      "api": 7095,
      "ble": 7096,
      "fra": 7097,
      "gyp": 7098,
      "há": 7099,
      "nành": 7100,
      "tờ": 7101,
      "đế": 7102,
      "ẨN": 7103,
      "thon": 7104,
      "quer": 7105,
      "Giống": 7106,
      "magne": 7107,
      "tricho": 7108,
      "triol": 7109,
      "trisomy": 7110,
      "ping": 7111,
      "MRT": 7112,
      "uran": 7113,
      "ketamine": 7114,
      "HCVC": 7115,
      "Centers": 7116,
      "vui": 7117,
      "Lynch": 7118,
      "matosis": 7119,
      "Whipple": 7120,
      "purine": 7121,
      "Reserve": 7122,
      "Atlantic": 7123,
      "SJS": 7124,
      "Turner": 7125,
      "amiodarone": 7126,
      "jirovecii": 7127,
      "Cr": 7128,
      "CMT": 7129,
      "EL": 7130,
      "Lương": 7131,
      "Móng": 7132,
      "NDM": 7133,
      "Rút": 7134,
      "Sen": 7135,
      "SCO": 7136,
      "Wol": 7137,
      "fli": 7138,
      "gre": 7139,
      "tẻ": 7140,
      "tẩm": 7141,
      "ât": 7142,
      "Đóng": 7143,
      "đắt": 7144,
      "cher": 7145,
      "phthal": 7146,
      "amphetamine": 7147,
      "Chung": 7148,
      "Phan": 7149,
      "1995": 7150,
      "rias": 7151,
      "177": 7152,
      "epime": 7153,
      "bapen": 7154,
      "cốm": 7155,
      "cáu": 7156,
      "pert": 7157,
      "VPTM": 7158,
      "pyrid": 7159,
      "prealbumin": 7160,
      "Willebrand": 7161,
      "prion": 7162,
      "UTTG": 7163,
      "sorbitol": 7164,
      "cefotaxime": 7165,
      "Swiss": 7166,
      "Cisplatin": 7167,
      "EEG": 7168,
      "Ga": 7169,
      "Lần": 7170,
      "PCV": 7171,
      "Ray": 7172,
      "Sanger": 7173,
      "TACE": 7174,
      "YẾU": 7175,
      "bến": 7176,
      "gặm": 7177,
      "ood": 7178,
      "rêu": 7179,
      "tang": 7180,
      "tăm": 7181,
      "uth": 7182,
      "xấp": 7183,
      "zine": 7184,
      "nhấm": 7185,
      "antho": 7186,
      "ươc": 7187,
      "Khmer": 7188,
      "suc": 7189,
      "icil": 7190,
      "TCBP": 7191,
      "mili": 7192,
      "desi": 7193,
      "bino": 7194,
      "NMTC": 7195,
      "talc": 7196,
      "Neisser": 7197,
      "Amoxicillin": 7198,
      "internet": 7199,
      "cystis": 7200,
      "Sulf": 7201,
      "SINH": 7202,
      "carbapenemase": 7203,
      "allopurinol": 7204,
      "VKDT": 7205,
      "Creatinine": 7206,
      "lington": 7207,
      "George": 7208,
      "faecalis": 7209,
      "Bái": 7210,
      "CẤ": 7211,
      "Cen": 7212,
      "Calci": 7213,
      "Lớp": 7214,
      "NRS": 7215,
      "PIV": 7216,
      "Ure": 7217,
      "Vân": 7218,
      "VSD": 7219,
      "hảo": 7220,
      "rt": 7221,
      "sắm": 7222,
      "ễu": 7223,
      "ngọc": 7224,
      "ngách": 7225,
      "chốc": 7226,
      "trel": 7227,
      "trof": 7228,
      "anide": 7229,
      "cox": 7230,
      "acillin": 7231,
      "sufentanil": 7232,
      "chuộng": 7233,
      "tropine": 7234,
      "tropic": 7235,
      "APTT": 7236,
      "hydroclorid": 7237,
      "Levo": 7238,
      "EPO": 7239,
      "paraben": 7240,
      "Bush": 7241,
      "aldosteron": 7242,
      "silicone": 7243,
      "Whit": 7244,
      "Xoắn": 7245,
      "UBTG": 7246,
      "Multi": 7247,
      "tazobactam": 7248,
      "700": 7249,
      "ATCC": 7250,
      "BCP": 7251,
      "HTKN": 7252,
      "MHC": 7253,
      "Nắn": 7254,
      "PO": 7255,
      "Sưng": 7256,
      "bảy": 7257,
      "hans": 7258,
      "nảy": 7259,
      "tù": 7260,
      "Đẩy": 7261,
      "tida": 7262,
      "độn": 7263,
      "vision": 7264,
      "dii": 7265,
      "195": 7266,
      "197": 7267,
      "rif": 7268,
      "133": 7269,
      "166": 7270,
      "Met": 7271,
      "ĐTNC": 7272,
      "TMT": 7273,
      "ASD": 7274,
      "Loãng": 7275,
      "cere": 7276,
      "CAM": 7277,
      "VPM": 7278,
      "NBB": 7279,
      "benzyl": 7280,
      "Endo": 7281,
      "gradient": 7282,
      "PSI": 7283,
      "Beh": 7284,
      "Beck": 7285,
      "quez": 7286,
      "gonorrho": 7287,
      "heme": 7288,
      "Tesla": 7289,
      "adenovirus": 7290,
      "zyme": 7291,
      "Society": 7292,
      "Wellington": 7293,
      "gonorrhoeae": 7294,
      "Bỏ": 7295,
      "Bạc": 7296,
      "CAP": 7297,
      "Hít": 7298,
      "Marie": 7299,
      "PĐ": 7300,
      "T6": 7301,
      "Vaz": 7302,
      "Zi": 7303,
      "bận": 7304,
      "blo": 7305,
      "dd": 7306,
      "múi": 7307,
      "tte": 7308,
      "tral": 7309,
      "Trái": 7310,
      "tejo": 7311,
      "rum": 7312,
      "carin": 7313,
      "hyalu": 7314,
      "gadolinium": 7315,
      "Maria": 7316,
      "iii": 7317,
      "salva": 7318,
      "HRCT": 7319,
      "Pertejo": 7320,
      "TƯỢNG": 7321,
      "TỔNG": 7322,
      "polysaccharide": 7323,
      "Mycobacterium": 7324,
      "leptin": 7325,
      "Neisseria": 7326,
      "Vazquez": 7327,
      "230": 7328,
      "BB": 7329,
      "BCG": 7330,
      "Block": 7331,
      "DN": 7332,
      "HÀ": 7333,
      "KP": 7334,
      "QSAR": 7335,
      "Rho": 7336,
      "[>": 7337,
      "kêu": 7338,
      "lóc": 7339,
      "râu": 7340,
      "sho": 7341,
      "sôi": 7342,
      "ãm": 7343,
      "truy": 7344,
      "loa": 7345,
      "vivax": 7346,
      "206": 7347,
      "Che": 7348,
      "Chân": 7349,
      "dehyd": 7350,
      "oxygen": 7351,
      "BVĐK": 7352,
      "azine": 7353,
      "kinumab": 7354,
      "NHI": 7355,
      "TBI": 7356,
      "ronbach": 7357,
      "pyraz": 7358,
      "SLED": 7359,
      "LSC": 7360,
      "zomib": 7361,
      "lẻo": 7362,
      "Pub": 7363,
      "White": 7364,
      "mycophenolate": 7365,
      "LQTM": 7366,
      "thiazide": 7367,
      "Dermato": 7368,
      "NGHỊ": 7369,
      "260": 7370,
      "617": 7371,
      "C4": 7372,
      "Cur": 7373,
      "Dox": 7374,
      "Gau": 7375,
      "Hp": 7376,
      "MAR": 7377,
      "cạp": 7378,
      "hè": 7379,
      "hắt": 7380,
      "ioides": 7381,
      "ivermectin": 7382,
      "lỵ": 7383,
      "íp": 7384,
      "Đình": 7385,
      "tivi": 7386,
      "ance": 7387,
      "lotinib": 7388,
      "ralis": 7389,
      "erna": 7390,
      "Trạm": 7391,
      "Chú": 7392,
      "tazol": 7393,
      "198": 7394,
      "IVF": 7395,
      "IVUS": 7396,
      "cisco": 7397,
      "azid": 7398,
      "Loài": 7399,
      "monoxide": 7400,
      "duct": 7401,
      "hydrocortisone": 7402,
      "choleste": 7403,
      "stoma": 7404,
      "treotide": 7405,
      "Saint": 7406,
      "PSQI": 7407,
      "Barre": 7408,
      "azolam": 7409,
      "ĐDV": 7410,
      "melanin": 7411,
      "Sarcoma": 7412,
      "Francisco": 7413,
      "CNCV": 7414,
      "Mayo": 7415,
      "semide": 7416,
      "tripty": 7417,
      "Colorado": 7418,
      "bapentin": 7419,
      "Metformin": 7420,
      "025": 7421,
      "Amino": 7422,
      "CUR": 7423,
      "CSTL": 7424,
      "Dan": 7425,
      "INH": 7426,
      "Kém": 7427,
      "Lộc": 7428,
      "Lịch": 7429,
      "Pylori": 7430,
      "She": 7431,
      "Táo": 7432,
      "USP": 7433,
      "VMA": 7434,
      "VWF": 7435,
      "bari": 7436,
      "hưu": 7437,
      "kìm": 7438,
      "ll": 7439,
      "mt": 7440,
      "ome": 7441,
      "pam": 7442,
      "xanth": 7443,
      "chít": 7444,
      "Thấp": 7445,
      "toxo": 7446,
      "tobacillus": 7447,
      "khoét": 7448,
      "Nhẹ": 7449,
      "prost": 7450,
      "187": 7451,
      "meto": 7452,
      "seal": 7453,
      "lation": 7454,
      "oxytocin": 7455,
      "Khiếm": 7456,
      "beam": 7457,
      "NKĐTN": 7458,
      "aegyp": 7459,
      "CML": 7460,
      "Liêu": 7461,
      "peroxide": 7462,
      "loxicam": 7463,
      "FAST": 7464,
      "CBYT": 7465,
      "Riêng": 7466,
      "Acc": 7467,
      "SIADH": 7468,
      "Kaplan": 7469,
      "RFLP": 7470,
      "Globulin": 7471,
      "Angio": 7472,
      "Histo": 7473,
      "VietPOS": 7474,
      "oxalat": 7475,
      "Pneumocystis": 7476,
      "aegypti": 7477,
      "3g": 7478,
      "CCP": 7479,
      "Foley": 7480,
      "Gel": 7481,
      "Human": 7482,
      "LKH": 7483,
      "NSS": 7484,
      "OB": 7485,
      "Score": 7486,
      "UNB": 7487,
      "VIS": 7488,
      "XV": 7489,
      "bừng": 7490,
      "cc": 7491,
      "gro": 7492,
      "mỉ": 7493,
      "ráp": 7494,
      "săng": 7495,
      "tạ": 7496,
      "vặn": 7497,
      "Ông": 7498,
      "Đỗ": 7499,
      "Đến": 7500,
      "Chlo": 7501,
      "lýp": 7502,
      "act": 7503,
      "1991": 7504,
      "sea": 7505,
      "THI": 7506,
      "tane": 7507,
      "TMH": 7508,
      "677": 7509,
      "kinin": 7510,
      "Colis": 7511,
      "LTL": 7512,
      "mask": 7513,
      "graft": 7514,
      "propranolol": 7515,
      "TƯQĐ": 7516,
      "Monte": 7517,
      "galac": 7518,
      "sulbactam": 7519,
      "catecholamine": 7520,
      "013": 7521,
      "ACIP": 7522,
      "BTN": 7523,
      "BÀN": 7524,
      "KL": 7525,
      "Mọi": 7526,
      "PTB": 7527,
      "Well": 7528,
      "bro": 7529,
      "brid": 7530,
      "cTn": 7531,
      "lật": 7532,
      "ĐL": 7533,
      "ngu": 7534,
      "sodium": 7535,
      "thưởng": 7536,
      "ardia": 7537,
      "sus": 7538,
      "1980": 7539,
      "medi": 7540,
      "azin": 7541,
      "tions": 7542,
      "tics": 7543,
      "Lichen": 7544,
      "malto": 7545,
      "halo": 7546,
      "magie": 7547,
      "valpro": 7548,
      "cellulose": 7549,
      "Cửu": 7550,
      "Danielle": 7551,
      "diclofenac": 7552,
      "Whitney": 7553,
      "Colistin": 7554,
      "4g": 7555,
      "5mm": 7556,
      "DHE": 7557,
      "Epi": 7558,
      "Mau": 7559,
      "Môi": 7560,
      "Mel": 7561,
      "MMSE": 7562,
      "RCC": 7563,
      "SU": 7564,
      "XI": 7565,
      "iaceae": 7566,
      "vỗ": 7567,
      "ylu": 7568,
      "ngụ": 7569,
      "chs": 7570,
      "trầy": 7571,
      "phái": 7572,
      "vis": 7573,
      "soma": 7574,
      "coag": 7575,
      "CTA": 7576,
      "ofe": 7577,
      "NGS": 7578,
      "NGT": 7579,
      "View": 7580,
      "lactose": 7581,
      "Robot": 7582,
      "methylprednisolone": 7583,
      "eneca": 7584,
      "Rituximab": 7585,
      "kert": 7586,
      "stig": 7587,
      "carotenoid": 7588,
      "cryo": 7589,
      "PIVKA": 7590,
      "cholesteatoma": 7591,
      "1200": 7592,
      "330": 7593,
      "AHI": 7594,
      "CCO": 7595,
      "Cronbach": 7596,
      "Dao": 7597,
      "Drug": 7598,
      "EU": 7599,
      "Jan": 7600,
      "Lạm": 7601,
      "MCH": 7602,
      "Plus": 7603,
      "SW": 7604,
      "Ve": 7605,
      "Vũng": 7606,
      "ath": 7607,
      "brom": 7608,
      "cú": 7609,
      "dồn": 7610,
      "kiên": 7611,
      "ken": 7612,
      "mộc": 7613,
      "pase": 7614,
      "μmol": 7615,
      "gina": 7616,
      "làn": 7617,
      "lào": 7618,
      "loà": 7619,
      "enia": 7620,
      "Nhãn": 7621,
      "arson": 7622,
      "sik": 7623,
      "actone": 7624,
      "butamol": 7625,
      "mean": 7626,
      "178": 7627,
      "MRC": 7628,
      "PTV": 7629,
      "ppb": 7630,
      "PRP": 7631,
      "mãnh": 7632,
      "Marfan": 7633,
      "diode": 7634,
      "UVB": 7635,
      "CFU": 7636,
      "angerhans": 7637,
      "MẠCH": 7638,
      "Rockall": 7639,
      "ofetil": 7640,
      "AE": 7641,
      "Dòng": 7642,
      "Găng": 7643,
      "HUY": 7644,
      "Lỗ": 7645,
      "Lau": 7646,
      "LAS": 7647,
      "Mero": 7648,
      "Nạo": 7649,
      "Nơi": 7650,
      "Rụng": 7651,
      "hùng": 7652,
      "hóc": 7653,
      "pô": 7654,
      "tti": 7655,
      "Đạt": 7656,
      "ẨM": 7657,
      "phôm": 7658,
      "phễu": 7659,
      "aul": 7660,
      "lop": 7661,
      "doxo": 7662,
      "Nga": 7663,
      "Chênh": 7664,
      "CTMV": 7665,
      "genic": 7666,
      "mate": 7667,
      "leason": 7668,
      "niazid": 7669,
      "THƯ": 7670,
      "misoprostol": 7671,
      "NANG": 7672,
      "CLGN": 7673,
      "Coch": 7674,
      "TKT": 7675,
      "HbE": 7676,
      "UTY": 7677,
      "stat": 7678,
      "staphylo": 7679,
      "cinolone": 7680,
      "tumor": 7681,
      "SUVmax": 7682,
      "Ampicillin": 7683,
      "Vinmec": 7684,
      "tacrolimus": 7685,
      "Stevens": 7686,
      "tuberculosis": 7687,
      "Moderna": 7688,
      "Benzo": 7689,
      "ASPECTS": 7690,
      "Cứu": 7691,
      "Imatinib": 7692,
      "Zika": 7693,
      "SLEDAI": 7694,
      "3000": 7695,
      "FLD": 7696,
      "Hàng": 7697,
      "Lưỡi": 7698,
      "MNT": 7699,
      "Opioid": 7700,
      "PĐM": 7701,
      "Sữa": 7702,
      "SHH": 7703,
      "T7": 7704,
      "T12": 7705,
      "USA": 7706,
      "VF": 7707,
      "naud": 7708,
      "ròng": 7709,
      "vóc": 7710,
      "ÁI": 7711,
      "Úc": 7712,
      "ĐP": 7713,
      "Điển": 7714,
      "thả": 7715,
      "chard": 7716,
      "phar": 7717,
      "ging": 7718,
      "tit": 7719,
      "thuẫn": 7720,
      "tuzumab": 7721,
      "207": 7722,
      "Thảo": 7723,
      "Châm": 7724,
      "idae": 7725,
      "dimethyl": 7726,
      "dihydroxy": 7727,
      "sing": 7728,
      "imus": 7729,
      "Giun": 7730,
      "promo": 7731,
      "lein": 7732,
      "TTR": 7733,
      "MDT": 7734,
      "CHƯƠNG": 7735,
      "berber": 7736,
      "ESR": 7737,
      "Astra": 7738,
      "Carbo": 7739,
      "Cardio": 7740,
      "BATT": 7741,
      "lumbia": 7742,
      "Servi": 7743,
      "lioidosis": 7744,
      "clavulanic": 7745,
      "bisphosphonate": 7746,
      "emisin": 7747,
      "Stanford": 7748,
      "Raynaud": 7749,
      "promoter": 7750,
      "014": 7751,
      "016": 7752,
      "Ana": 7753,
      "DA": 7754,
      "Hib": 7755,
      "ICS": 7756,
      "IMRT": 7757,
      "Kế": 7758,
      "Lục": 7759,
      "Lập": 7760,
      "Lách": 7761,
      "Od": 7762,
      "One": 7763,
      "Rượu": 7764,
      "Stein": 7765,
      "Sul": 7766,
      "VTP": 7767,
      "VNC": 7768,
      "XT": 7769,
      "bút": 7770,
      "crom": 7771,
      "mâu": 7772,
      "mTc": 7773,
      "mofetil": 7774,
      "psi": 7775,
      "ski": 7776,
      "tter": 7777,
      "đươc": 7778,
      "thùng": 7779,
      "Nhập": 7780,
      "sil": 7781,
      "esterase": 7782,
      "muni": 7783,
      "224": 7784,
      "piperacillin": 7785,
      "họp": 7786,
      "CLL": 7787,
      "Columbia": 7788,
      "ARD": 7789,
      "essment": 7790,
      "fera": 7791,
      "ronol": 7792,
      "Misoprostol": 7793,
      "Care": 7794,
      "VNTT": 7795,
      "colchi": 7796,
      "macro": 7797,
      "Clinical": 7798,
      "FeNO": 7799,
      "varicella": 7800,
      "Amikacin": 7801,
      "HĐPN": 7802,
      "Bupivacaine": 7803,
      "BCCDL": 7804,
      "selen": 7805,
      "macrolide": 7806,
      "VMAT": 7807,
      "Views": 7808,
      "DFS": 7809,
      "DXA": 7810,
      "DNBB": 7811,
      "FGF": 7812,
      "Langerhans": 7813,
      "Mười": 7814,
      "Mạng": 7815,
      "MAP": 7816,
      "Nằm": 7817,
      "Py": 7818,
      "PLA": 7819,
      "Rắn": 7820,
      "Tay": 7821,
      "YTT": 7822,
      "bb": 7823,
      "bel": 7824,
      "dã": 7825,
      "fre": 7826,
      "lùi": 7827,
      "sơn": 7828,
      "tảo": 7829,
      "xả": 7830,
      "điệp": 7831,
      "đun": 7832,
      "ỉa": 7833,
      "thám": 7834,
      "tory": 7835,
      "tosan": 7836,
      "Ngón": 7837,
      "lithium": 7838,
      "capto": 7839,
      "ical": 7840,
      "223": 7841,
      "leishmania": 7842,
      "piro": 7843,
      "ramide": 7844,
      "Lou": 7845,
      "iodo": 7846,
      "Likert": 7847,
      "HSCC": 7848,
      "calcitriol": 7849,
      "torvastatin": 7850,
      "mannitol": 7851,
      "syn": 7852,
      "deria": 7853,
      "Syn": 7854,
      "acetylcholine": 7855,
      "Research": 7856,
      "Valsalva": 7857,
      "nitroglycerin": 7858,
      "VEGF": 7859,
      "Dexamethasone": 7860,
      "illomavirus": 7861,
      "Fontan": 7862,
      "Testosterone": 7863,
      "tidase": 7864,
      "019": 7865,
      "BE": 7866,
      "Bong": 7867,
      "Des": 7868,
      "Gừng": 7869,
      "Gleason": 7870,
      "IBS": 7871,
      "LĐ": 7872,
      "Màu": 7873,
      "PAR": 7874,
      "Sai": 7875,
      "Sóng": 7876,
      "TÍ": 7877,
      "Tê": 7878,
      "TST": 7879,
      "UTTT": 7880,
      "je": 7881,
      "mắm": 7882,
      "nín": 7883,
      "oin": 7884,
      "osis": 7885,
      "rọc": 7886,
      "vướng": 7887,
      "ÉT": 7888,
      "Đục": 7889,
      "thừng": 7890,
      "gic": 7891,
      "amoni": 7892,
      "amcinolone": 7893,
      "toprotein": 7894,
      "somal": 7895,
      "Ngải": 7896,
      "thion": 7897,
      "ider": 7898,
      "asal": 7899,
      "cua": 7900,
      "oxid": 7901,
      "sep": 7902,
      "setron": 7903,
      "uron": 7904,
      "PEF": 7905,
      "alidom": 7906,
      "HAV": 7907,
      "coccal": 7908,
      "CGM": 7909,
      "RLNT": 7910,
      "gabapentin": 7911,
      "Chiari": 7912,
      "ulase": 7913,
      "SGLT": 7914,
      "fluores": 7915,
      "Pearson": 7916,
      "artment": 7917,
      "carboplatin": 7918,
      "Predni": 7919,
      "CYP2C": 7920,
      "Fluor": 7921,
      "Cytomegalovirus": 7922,
      "Rankin": 7923,
      "Plasmodium": 7924,
      "Department": 7925,
      "KHOA": 7926,
      "doxorubicin": 7927,
      "alidomide": 7928,
      "Ger": 7929,
      "Hạnh": 7930,
      "Lô": 7931,
      "Lệ": 7932,
      "MÁ": 7933,
      "NĂ": 7934,
      "QLQ": 7935,
      "[<": 7936,
      "binh": 7937,
      "cát": 7938,
      "case": 7939,
      "dâu": 7940,
      "iv": 7941,
      "kẻ": 7942,
      "lãng": 7943,
      "ug": 7944,
      "vắt": 7945,
      "xưởng": 7946,
      "ẰNG": 7947,
      "chuyến": 7948,
      "trưa": 7949,
      "nghìn": 7950,
      "204": 7951,
      "ramin": 7952,
      "toà": 7953,
      "10mm": 7954,
      "eman": 7955,
      "sure": 7956,
      "IIb": 7957,
      "Thuỵ": 7958,
      "nghiền": 7959,
      "deaminase": 7960,
      "BVNĐ": 7961,
      "NASH": 7962,
      "NAFLD": 7963,
      "thoi": 7964,
      "LAM": 7965,
      "VPLQTM": 7966,
      "oside": 7967,
      "loxone": 7968,
      "sarcôm": 7969,
      "pyro": 7970,
      "azolin": 7971,
      "MELD": 7972,
      "urease": 7973,
      "guan": 7974,
      "Interleukin": 7975,
      "Horner": 7976,
      "Diabe": 7977,
      "imatinib": 7978,
      "piramate": 7979,
      "Takasaki": 7980,
      "Azithromycin": 7981,
      "290": 7982,
      "270": 7983,
      "B6": 7984,
      "Hạt": 7985,
      "Kem": 7986,
      "KCN": 7987,
      "L1": 7988,
      "N3": 7989,
      "Tán": 7990,
      "TÌNH": 7991,
      "Vis": 7992,
      "WD": 7993,
      "Zeneca": 7994,
      "dặm": 7995,
      "hap": 7996,
      "mút": 7997,
      "sét": 7998,
      "stro": 7999,
      "vul": 8000,
      "Đợt": 8001,
      "ưỡ": 8002,
      "ỨNG": 8003,
      "trôi": 8004,
      "tril": 8005,
      "tidis": 8006,
      "tua": 8007,
      "khol": 8008,
      "codon": 8009,
      "lue": 8010,
      "ding": 8011,
      "tezomib": 8012,
      "acine": 8013,
      "199": 8014,
      "reac": 8015,
      "256": 8016,
      "259": 8017,
      "chuông": 8018,
      "017": 8019,
      "174": 8020,
      "trix": 8021,
      "hyper": 8022,
      "ASC": 8023,
      "polyme": 8024,
      "poside": 8025,
      "ACC": 8026,
      "VMĐTĐ": 8027,
      "Petri": 8028,
      "Penn": 8029,
      "AMH": 8030,
      "cyclophosphamid": 8031,
      "ellet": 8032,
      "Surg": 8033,
      "Shigella": 8034,
      "oeba": 8035,
      "urantoin": 8036,
      "trofurantoin": 8037,
      "emisinin": 8038,
      ",%)": 8039,
      "018": 8040,
      "221": 8041,
      "325": 8042,
      "ACh": 8043,
      "Apo": 8044,
      "Bôi": 8045,
      "Cap": 8046,
      "EFS": 8047,
      "Jones": 8048,
      "KPC": 8049,
      "OI": 8050,
      "PG": 8051,
      "Paclitaxel": 8052,
      "Sâu": 8053,
      "Sáu": 8054,
      "dĩ": 8055,
      "dừa": 8056,
      "eu": 8057,
      "iquan": 8058,
      "ku": 8059,
      "kal": 8060,
      "mò": 8061,
      "đâu": 8062,
      "nhảy": 8063,
      "then": 8064,
      "chin": 8065,
      "phrin": 8066,
      "giáng": 8067,
      "quạ": 8068,
      "tulose": 8069,
      "dol": 8070,
      "eon": 8071,
      "end": 8072,
      "Chel": 8073,
      "CTSN": 8074,
      "BNBM": 8075,
      "bili": 8076,
      "IVA": 8077,
      "pis": 8078,
      "Tuần": 8079,
      "tanol": 8080,
      "mening": 8081,
      "PEU": 8082,
      "hydraz": 8083,
      "ramycin": 8084,
      "ICC": 8085,
      "fetoprotein": 8086,
      "Lich": 8087,
      "PRF": 8088,
      "VPCĐ": 8089,
      "DMARD": 8090,
      "syndrome": 8091,
      "Clindamycin": 8092,
      "chloride": 8093,
      "liposome": 8094,
      "Guidelines": 8095,
      "phenhyd": 8096,
      "Heparin": 8097,
      "homocystein": 8098,
      "bêta": 8099,
      "tetrahydro": 8100,
      "Green": 8101,
      "Proteus": 8102,
      "Meropenem": 8103,
      "iquantel": 8104,
      "310": 8105,
      "Cán": 8106,
      "GP": 8107,
      "HĐTL": 8108,
      "Ia": 8109,
      "KG": 8110,
      "Khoá": 8111,
      "MTB": 8112,
      "Nong": 8113,
      "Oc": 8114,
      "PK": 8115,
      "Ren": 8116,
      "Tra": 8117,
      "aro": 8118,
      "cúc": 8119,
      "hãm": 8120,
      "nẵng": 8121,
      "ĐO": 8122,
      "Đinh": 8123,
      "Đáng": 8124,
      "đúc": 8125,
      "chánh": 8126,
      "eric": 8127,
      "coid": 8128,
      "CTT": 8129,
      "184": 8130,
      "thostoma": 8131,
      "CHA": 8132,
      "steo": 8133,
      "Comm": 8134,
      "heroin": 8135,
      "OTA": 8136,
      "SVRI": 8137,
      "TVUS": 8138,
      "Rubin": 8139,
      "tington": 8140,
      "System": 8141,
      "ideline": 8142,
      "minogen": 8143,
      "phylline": 8144,
      "phila": 8145,
      "fluoroquinolones": 8146,
      "Doxycycline": 8147,
      "ronolactone": 8148,
      "ưỡn": 8149,
      "kholderia": 8150,
      "1cm": 8151,
      "Bề": 8152,
      "Bạo": 8153,
      "Danh": 8154,
      "Dimer": 8155,
      "Er": 8156,
      "Gem": 8157,
      "Ler": 8158,
      "Mg": 8159,
      "Tùng": 8160,
      "VAC": 8161,
      "bãi": 8162,
      "lũ": 8163,
      "mSv": 8164,
      "rem": 8165,
      "yer": 8166,
      "ẤT": 8167,
      "ỄM": 8168,
      "chà": 8169,
      "phed": 8170,
      "quế": 8171,
      "khoai": 8172,
      "cot": 8173,
      "albino": 8174,
      "Khá": 8175,
      "olan": 8176,
      "aci": 8177,
      "aste": 8178,
      "mazole": 8179,
      "lino": 8180,
      "vania": 8181,
      "MDCM": 8182,
      "STR": 8183,
      "urin": 8184,
      "RLCD": 8185,
      "sarcoidosis": 8186,
      "Stata": 8187,
      "HTLV": 8188,
      "aminoglycoside": 8189,
      "camera": 8190,
      "PiCCO": 8191,
      "Tetracycline": 8192,
      "silico": 8193,
      "prednisolon": 8194,
      "ĐỘNG": 8195,
      "GTTS": 8196,
      "sylvania": 8197,
      "mycobacteria": 8198,
      "furosemide": 8199,
      "NHIỄM": 8200,
      "AstraZeneca": 8201,
      "Pennsylvania": 8202,
      "1B": 8203,
      "375": 8204,
      "Bra": 8205,
      "Cột": 8206,
      "CẨM": 8207,
      "Eli": 8208,
      "Hs": 8209,
      "Hel": 8210,
      "Lon": 8211,
      "Mol": 8212,
      "PV": 8213,
      "PNCT": 8214,
      "PGT": 8215,
      "RB": 8216,
      "TGF": 8217,
      "VLTL": 8218,
      "crypto": 8219,
      "gãi": 8220,
      "mor": 8221,
      "nicke": 8222,
      "pli": 8223,
      "tám": 8224,
      "ward": 8225,
      "xổ": 8226,
      "µl": 8227,
      "ÔNG": 8228,
      "Đống": 8229,
      "ềng": 8230,
      "chromo": 8231,
      "phan": 8232,
      "phiến": 8233,
      "thun": 8234,
      "Nhờ": 8235,
      "diphenhyd": 8236,
      "tetan": 8237,
      "lim": 8238,
      "214": 8239,
      "mede": 8240,
      "167": 8241,
      "khuất": 8242,
      "STEMI": 8243,
      "nathostoma": 8244,
      "PEG": 8245,
      "penia": 8246,
      "Vit": 8247,
      "lactulose": 8248,
      "TKMP": 8249,
      "TSG": 8250,
      "PTSD": 8251,
      "polypep": 8252,
      "Lipo": 8253,
      "Asen": 8254,
      "glycogen": 8255,
      "Lys": 8256,
      "NSAIDs": 8257,
      "ANO": 8258,
      "NĐCM": 8259,
      "nucleotid": 8260,
      "vascular": 8261,
      "VDCĐ": 8262,
      "Wernicke": 8263,
      "Listeria": 8264,
      "phthalazin": 8265,
      "phthalazinon": 8266,
      "*,": 8267,
      "AH": 8268,
      "B2": 8269,
      "Bột": 8270,
      "Gro": 8271,
      "ITP": 8272,
      "ISS": 8273,
      "LX": 8274,
      "LƯ": 8275,
      "PU": 8276,
      "Pl": 8277,
      "PCS": 8278,
      "RP": 8279,
      "Sở": 8280,
      "YNT": 8281,
      "aOR": 8282,
      "hler": 8283,
      "çet": 8284,
      "quặt": 8285,
      "erin": 8286,
      "Trương": 8287,
      "tựa": 8288,
      "Giao": 8289,
      "điếu": 8290,
      "182": 8291,
      "meloxicam": 8292,
      "peak": 8293,
      "TNMC": 8294,
      "urs": 8295,
      "NTech": 8296,
      "nod": 8297,
      "vector": 8298,
      "coccid": 8299,
      "renalin": 8300,
      "tenofovir": 8301,
      "Wilms": 8302,
      "Richard": 8303,
      "Bank": 8304,
      "Tei": 8305,
      "Bacter": 8306,
      "KDIGO": 8307,
      "dapsone": 8308,
      "salicylic": 8309,
      "Cryptococcus": 8310,
      "gestrel": 8311,
      "Barthel": 8312,
      "Infection": 8313,
      "fliximab": 8314,
      "Behçet": 8315,
      "ductase": 8316,
      "MNTQ": 8317,
      "324": 8318,
      "AMD": 8319,
      "BẰNG": 8320,
      "Dũng": 8321,
      "FH": 8322,
      "GED": 8323,
      "KK": 8324,
      "KLN": 8325,
      "NU": 8326,
      "Nút": 8327,
      "Ter": 8328,
      "Tdap": 8329,
      "V2": 8330,
      "WO": 8331,
      "kary": 8332,
      "pul": 8333,
      "rũ": 8334,
      "sương": 8335,
      "súng": 8336,
      "stine": 8337,
      "ÁT": 8338,
      "Ấu": 8339,
      "nhói": 8340,
      "chả": 8341,
      "trơ": 8342,
      "trại": 8343,
      "phạt": 8344,
      "quỹ": 8345,
      "coni": 8346,
      "thiazol": 8347,
      "aly": 8348,
      "Khô": 8349,
      "acry": 8350,
      "tation": 8351,
      "181": 8352,
      "oxap": 8353,
      "Quả": 8354,
      "triamcinolone": 8355,
      "migra": 8356,
      "phat": 8357,
      "yllium": 8358,
      "NAT": 8359,
      "cein": 8360,
      "minis": 8361,
      "PDS": 8362,
      "ALĐMP": 8363,
      "Đoạn": 8364,
      "LVEF": 8365,
      "midazolam": 8366,
      "icilin": 8367,
      "BioNTech": 8368,
      "Fluoro": 8369,
      "polar": 8370,
      "Holmium": 8371,
      "Brian": 8372,
      "dansetron": 8373,
      "Propofol": 8374,
      "SBRT": 8375,
      "HUYẾT": 8376,
      "medeto": 8377,
      "\")": 8378,
      "+.": 8379,
      "026": 8380,
      "2cm": 8381,
      "Bau": 8382,
      "CWI": 8383,
      "Lây": 8384,
      "NQ": 8385,
      "PCEA": 8386,
      "Rịa": 8387,
      "SNA": 8388,
      "UTN": 8389,
      "Wis": 8390,
      "bes": 8391,
      "canh": 8392,
      "dép": 8393,
      "ise": 8394,
      "kes": 8395,
      "lé": 8396,
      "oz": 8397,
      "săn": 8398,
      "chẻ": 8399,
      "chét": 8400,
      "trinh": 8401,
      "khống": 8402,
      "rage": 8403,
      "Thức": 8404,
      "Chùm": 8405,
      "rotavirus": 8406,
      "asper": 8407,
      "imin": 8408,
      "icar": 8409,
      "reductase": 8410,
      "sec": 8411,
      "BVTV": 8412,
      "ĐMCD": 8413,
      "besia": 8414,
      "Coom": 8415,
      "flurane": 8416,
      "RLLP": 8417,
      "peroxidase": 8418,
      "Ass": 8419,
      "SLN": 8420,
      "ceftazidime": 8421,
      "Nile": 8422,
      "utz": 8423,
      "VGSV": 8424,
      "guidelines": 8425,
      "XQCLVT": 8426,
      "Lactobacillus": 8427,
      "BVMĐTĐ": 8428,
      "sulfonylu": 8429,
      "Hematocrit": 8430,
      "glutamate": 8431,
      "GABHS": 8432,
      "Wolff": 8433,
      "BTNDD": 8434,
      "CTMVQD": 8435,
      "MÁU": 8436,
      "Lerner": 8437,
      "-,": 8438,
      "1A": 8439,
      "420": 8440,
      "AJ": 8441,
      "Ben": 8442,
      "Cs": 8443,
      "FM": 8444,
      "FIGO": 8445,
      "GLP": 8446,
      "HN": 8447,
      "L4": 8448,
      "L5": 8449,
      "Mắc": 8450,
      "NNC": 8451,
      "PĐTT": 8452,
      "Sn": 8453,
      "STT": 8454,
      "Ts": 8455,
      "Ver": 8456,
      "XÉT": 8457,
      "banh": 8458,
      "cào": 8459,
      "cúi": 8460,
      "cement": 8461,
      "ÊU": 8462,
      "Đứng": 8463,
      "nhúng": 8464,
      "thán": 8465,
      "khay": 8466,
      "titis": 8467,
      "virin": 8468,
      "diesterase": 8469,
      "cad": 8470,
      "cat": 8471,
      "CTĐMV": 8472,
      "tration": 8473,
      "ceae": 8474,
      "384": 8475,
      "manii": 8476,
      "HCMVC": 8477,
      "TRAb": 8478,
      "mopressin": 8479,
      "perf": 8480,
      "Leishmania": 8481,
      "glycerol": 8482,
      "CED": 8483,
      "EV71": 8484,
      "DTA": 8485,
      "Peter": 8486,
      "Streptococci": 8487,
      "RECIST": 8488,
      "silicon": 8489,
      "platinum": 8490,
      "Excel": 8491,
      "SRP": 8492,
      "retinol": 8493,
      "Burkholderia": 8494,
      "myoglobin": 8495,
      "phenylephrine": 8496,
      "succin": 8497,
      "Multiplex": 8498,
      "UNBTK": 8499,
      "coagulase": 8500,
      "Services": 8501,
      "ANOVA": 8502,
      "rageen": 8503,
      "CTĐMVQD": 8504,
      "Br": 8505,
      "Bị": 8506,
      "Bre": 8507,
      "Eu": 8508,
      "EOR": 8509,
      "EDTA": 8510,
      "Fol": 8511,
      "Je": 8512,
      "KV": 8513,
      "Khuyết": 8514,
      "KHC": 8515,
      "KOH": 8516,
      "Mảng": 8517,
      "NL": 8518,
      "ROS": 8519,
      "V617": 8520,
      "bramycin": 8521,
      "esome": 8522,
      "ephed": 8523,
      "fep": 8524,
      "nofs": 8525,
      "omega": 8526,
      "por": 8527,
      "tý": 8528,
      "°,": 8529,
      "ùa": 8530,
      "ĐĐ": 8531,
      "ĐƯỜNG": 8532,
      "​​": 8533,
      "nhạc": 8534,
      "thri": 8535,
      "choán": 8536,
      "tical": 8537,
      "hodgkin": 8538,
      "203": 8539,
      "enol": 8540,
      "Ngân": 8541,
      "Trào": 8542,
      "aldehyd": 8543,
      "astro": 8544,
      "cape": 8545,
      "immunoglobulin": 8546,
      "bilan": 8547,
      "186": 8548,
      "metry": 8549,
      "232": 8550,
      "mito": 8551,
      "Metronidazole": 8552,
      "Meier": 8553,
      "ĐTM": 8554,
      "CD20": 8555,
      "IIIa": 8556,
      "management": 8557,
      "ESC": 8558,
      "plasminogen": 8559,
      "spironolactone": 8560,
      "TDH": 8561,
      "cystic": 8562,
      "artemisinin": 8563,
      "NĐC": 8564,
      "ropivacaine": 8565,
      "Enterobacteriaceae": 8566,
      "sporidia": 8567,
      "MĐX": 8568,
      "perazone": 8569,
      "Karnofs": 8570,
      "pôlýp": 8571,
      "munization": 8572,
      "Chelsea": 8573,
      "V617F": 8574,
      "024": 8575,
      "Alan": 8576,
      "ATG": 8577,
      "Bren": 8578,
      "BOP": 8579,
      "CCS": 8580,
      "FRA": 8581,
      "GK": 8582,
      "GTV": 8583,
      "HUS": 8584,
      "Il": 8585,
      "Non": 8586,
      "PXN": 8587,
      "axe": 8588,
      "bl": 8589,
      "ever": 8590,
      "lamivudine": 8591,
      "nát": 8592,
      "samine": 8593,
      "wor": 8594,
      "ĐƯ": 8595,
      "Đạo": 8596,
      "đậy": 8597,
      "thẹn": 8598,
      "chước": 8599,
      "mạo": 8600,
      "loxa": 8601,
      "rabine": 8602,
      "ense": 8603,
      "Phy": 8604,
      "chis": 8605,
      "idum": 8606,
      "Khai": 8607,
      "tector": 8608,
      "194": 8609,
      "mutans": 8610,
      "247": 8611,
      "lyso": 8612,
      "let": 8613,
      "hôm": 8614,
      "bavirin": 8615,
      "cardi": 8616,
      "MRA": 8617,
      "TMA": 8618,
      "mini": 8619,
      "bet": 8620,
      "CIN": 8621,
      "CSHQ": 8622,
      "HPT": 8623,
      "DLCO": 8624,
      "mouth": 8625,
      "kera": 8626,
      "cloro": 8627,
      "PRIS": 8628,
      "Levofloxacin": 8629,
      "Chiết": 8630,
      "calciferol": 8631,
      "HTL": 8632,
      "uroxim": 8633,
      "planar": 8634,
      "BTĐN": 8635,
      "fluorouracil": 8636,
      "clavulanate": 8637,
      "Triglycerid": 8638,
      "Triglyceride": 8639,
      "Estrogen": 8640,
      "spora": 8641,
      "Mycoplasma": 8642,
      "VNTMNK": 8643,
      "fructose": 8644,
      "fluorescein": 8645,
      "oxaparin": 8646,
      "Coombs": 8647,
      "AJCC": 8648,
      "036": 8649,
      "212": 8650,
      "3cm": 8651,
      "Bờ": 8652,
      "Diệp": 8653,
      "Em": 8654,
      "G4": 8655,
      "IT": 8656,
      "JOA": 8657,
      "LMA": 8658,
      "M0": 8659,
      "Mag": 8660,
      "Pon": 8661,
      "PLR": 8662,
      "Sắt": 8663,
      "TTr": 8664,
      "V1": 8665,
      "Vỏ": 8666,
      "WPW": 8667,
      "Zo": 8668,
      "itidis": 8669,
      "mời": 8670,
      "pd": 8671,
      "rô": 8672,
      "vừng": 8673,
      "zan": 8674,
      "ÔĐM": 8675,
      "Đảng": 8676,
      "βhCG": 8677,
      "ngô": 8678,
      "ngõ": 8679,
      "gien": 8680,
      "208": 8681,
      "khiêm": 8682,
      "Trĩ": 8683,
      "Chóng": 8684,
      "Phá": 8685,
      "Nhánh": 8686,
      "liếc": 8687,
      "asci": 8688,
      "303": 8689,
      "ice": 8690,
      "188": 8691,
      "245": 8692,
      "conazol": 8693,
      "dùi": 8694,
      "cmH": 8695,
      "onectin": 8696,
      "naloxone": 8697,
      "CLA": 8698,
      "kie": 8699,
      "pag": 8700,
      "methoxy": 8701,
      "RLĐB": 8702,
      "MAA": 8703,
      "grass": 8704,
      "gammadex": 8705,
      "KIT": 8706,
      "isoniazid": 8707,
      "field": 8708,
      "UTBMT": 8709,
      "Corticoid": 8710,
      "phosphodiesterase": 8711,
      "positron": 8712,
      "Taenia": 8713,
      "Immunoglobulin": 8714,
      "Acetaminophen": 8715,
      "blast": 8716,
      "LOD": 8717,
      "Trichomonas": 8718,
      "alkyl": 8719,
      "Bismuth": 8720,
      "clonidin": 8721,
      "diponectin": 8722,
      "IQR": 8723,
      "Huntington": 8724,
      "magnesium": 8725,
      "CẤP": 8726,
      "shock": 8727,
      "tazolamide": 8728,
      "CYP2C19": 8729,
      "nodgrass": 8730,
      "480": 8731,
      "5A": 8732,
      "Bí": 8733,
      "CẬN": 8734,
      "DKA": 8735,
      "EA": 8736,
      "FOX": 8737,
      "GD": 8738,
      "Hay": 8739,
      "MNA": 8740,
      "NOS": 8741,
      "Strong": 8742,
      "Ster": 8743,
      "Sha": 8744,
      "Yo": 8745,
      "cd": 8746,
      "elo": 8747,
      "fur": 8748,
      "gác": 8749,
      "ibi": 8750,
      "méo": 8751,
      "rèn": 8752,
      "tông": 8753,
      "uri": 8754,
      "Đậu": 8755,
      "ừu": 8756,
      "ngập": 8757,
      "nhọt": 8758,
      "khánh": 8759,
      "vic": 8760,
      "Thạnh": 8761,
      "topiramate": 8762,
      "coxi": 8763,
      "lumab": 8764,
      "ack": 8765,
      "CTNT": 8766,
      "CTscan": 8767,
      "buôn": 8768,
      "192": 8769,
      "193": 8770,
      "Giardia": 8771,
      "rivaroxaban": 8772,
      "hiếp": 8773,
      "169": 8774,
      "COX": 8775,
      "sterco": 8776,
      "phage": 8777,
      "Tuỵ": 8778,
      "NGUY": 8779,
      "TMCT": 8780,
      "CSSK": 8781,
      "CSWS": 8782,
      "yloides": 8783,
      "ADP": 8784,
      "NSE": 8785,
      "beryllium": 8786,
      "MAU": 8787,
      "EPI": 8788,
      "diatric": 8789,
      "transaminase": 8790,
      "Longo": 8791,
      "MLPA": 8792,
      "cysteine": 8793,
      "vonor": 8794,
      "Adeno": 8795,
      "ptosis": 8796,
      "Weber": 8797,
      "SCID": 8798,
      "OXA": 8799,
      "zym": 8800,
      "panto": 8801,
      "speci": 8802,
      "tyrosinase": 8803,
      "quercetin": 8804,
      "Barrett": 8805,
      "pamil": 8806,
      "cryoglobulin": 8807,
      "London": 8808,
      "aspergi": 8809,
      "EORTC": 8810,
      "032": 8811,
      "Bos": 8812,
      "Cp": 8813,
      "Dart": 8814,
      "Diclo": 8815,
      "LF": 8816,
      "Lp": 8817,
      "Mê": 8818,
      "RCL": 8819,
      "RFA": 8820,
      "ROP": 8821,
      "Spi": 8822,
      "Tứ": 8823,
      "Vảy": 8824,
      "VAP": 8825,
      "cz": 8826,
      "dra": 8827,
      "dẹt": 8828,
      "gồ": 8829,
      "hal": 8830,
      "lung": 8831,
      "nanh": 8832,
      "pellet": 8833,
      "tph": 8834,
      "uma": 8835,
      "way": 8836,
      "xong": 8837,
      "yo": 8838,
      "ƯỚ": 8839,
      "ỒNG": 8840,
      "ỤC": 8841,
      "ngoá": 8842,
      "tona": 8843,
      "Ngất": 8844,
      "lume": 8845,
      "Chag": 8846,
      "Phế": 8847,
      "Phức": 8848,
      "iden": 8849,
      "telo": 8850,
      "cuff": 8851,
      "tadine": 8852,
      "226": 8853,
      "258": 8854,
      "MDR": 8855,
      "TCI": 8856,
      "Tuấn": 8857,
      "264": 8858,
      "ceph": 8859,
      "gluten": 8860,
      "TNTC": 8861,
      "isel": 8862,
      "creatine": 8863,
      "hexa": 8864,
      "sartan": 8865,
      "Staphylococci": 8866,
      "mallei": 8867,
      "MoCA": 8868,
      "sackie": 8869,
      "Lactate": 8870,
      "TĐS": 8871,
      "Geisel": 8872,
      "blasto": 8873,
      "cept": 8874,
      "bisphosphonat": 8875,
      "phenobarbital": 8876,
      "desivir": 8877,
      "Wells": 8878,
      "amoniac": 8879,
      "diphenhydramine": 8880,
      "perfring": 8881,
      "Dartmouth": 8882,
      "ngoáy": 8883,
      "Chagas": 8884,
      "028": 8885,
      "311": 8886,
      "370": 8887,
      "AAS": 8888,
      "Bal": 8889,
      "Cô": 8890,
      "Dy": 8891,
      "Dem": 8892,
      "DMP": 8893,
      "DCTC": 8894,
      "FO": 8895,
      "Fan": 8896,
      "G2": 8897,
      "Hỏi": 8898,
      "Mẹ": 8899,
      "MCT": 8900,
      "Mis": 8901,
      "NNT": 8902,
      "Sửa": 8903,
      "Tor": 8904,
      "atum": 8905,
      "adiponectin": 8906,
      "bồi": 8907,
      "cưa": 8908,
      "gn": 8909,
      "gla": 8910,
      "ja": 8911,
      "kít": 8912,
      "kat": 8913,
      "ld": 8914,
      "lèn": 8915,
      "mali": 8916,
      "ocmon": 8917,
      "rạc": 8918,
      "tã": 8919,
      "uchia": 8920,
      "wal": 8921,
      "wing": 8922,
      "xăng": 8923,
      "đạn": 8924,
      "ẢI": 8925,
      "chảo": 8926,
      "ture": 8927,
      "Thải": 8928,
      "ama": 8929,
      "Trì": 8930,
      "Phì": 8931,
      "dise": 8932,
      "site": 8933,
      "acyl": 8934,
      "cula": 8935,
      "butamine": 8936,
      "213": 8937,
      "lina": 8938,
      "chun": 8939,
      "179": 8940,
      "neuro": 8941,
      "285": 8942,
      "Med": 8943,
      "carrageen": 8944,
      "trophil": 8945,
      "Medicare": 8946,
      "PER": 8947,
      "polyethylene": 8948,
      "ality": 8949,
      "book": 8950,
      "methacin": 8951,
      "TRÊN": 8952,
      "HBc": 8953,
      "NSCLC": 8954,
      "RLLM": 8955,
      "Rotavirus": 8956,
      "amitripty": 8957,
      "Bevacizumab": 8958,
      "oxifloxacin": 8959,
      "gondii": 8960,
      "latex": 8961,
      "factor": 8962,
      "NĐTP": 8963,
      "methimazole": 8964,
      "acetylcholinesterase": 8965,
      "Global": 8966,
      "Toxoplasma": 8967,
      "DASS": 8968,
      "sporidium": 8969,
      "caffein": 8970,
      "terpenoid": 8971,
      "Assessment": 8972,
      "stercoralis": 8973,
      "perfringens": 8974,
      "2A": 8975,
      "2a": 8976,
      "Bọ": 8977,
      "Bụp": 8978,
      "C6": 8979,
      "Câu": 8980,
      "DHA": 8981,
      "Demo": 8982,
      "EFA": 8983,
      "ECOG": 8984,
      "Fox": 8985,
      "FTT": 8986,
      "H5": 8987,
      "Huyện": 8988,
      "Sin": 8989,
      "Sto": 8990,
      "Sảng": 8991,
      "Sel": 8992,
      "SMA": 8993,
      "Wor": 8994,
      "bp": 8995,
      "cừu": 8996,
      "ization": 8997,
      "lề": 8998,
      "lửa": 8999,
      "mười": 9000,
      "rickett": 9001,
      "sc": 9002,
      "strong": 9003,
      "sạm": 9004,
      "vy": 9005,
      "vạch": 9006,
      "vát": 9007,
      "vườn": 9008,
      "xông": 9009,
      "yne": 9010,
      "ylate": 9011,
      "μm": 9012,
      "chói": 9013,
      "quăng": 9014,
      "nghiến": 9015,
      "ins": 9016,
      "index": 9017,
      "doi": 9018,
      "Thắt": 9019,
      "amic": 9020,
      "comm": 9021,
      "Nghề": 9022,
      "actino": 9023,
      "chuyền": 9024,
      "304": 9025,
      "rion": 9026,
      "246": 9027,
      "chuôi": 9028,
      "Quer": 9029,
      "172": 9030,
      "173": 9031,
      "ofla": 9032,
      "238": 9033,
      "epon": 9034,
      "mis": 9035,
      "citrate": 9036,
      "ST2": 9037,
      "293": 9038,
      "isen": 9039,
      "ylobacter": 9040,
      "lacto": 9041,
      "HATTr": 9042,
      "dul": 9043,
      "cytogenes": 9044,
      "keting": 9045,
      "lamine": 9046,
      "Sachs": 9047,
      "lism": 9048,
      "Neuro": 9049,
      "CĐNS": 9050,
      "fomycin": 9051,
      "Clarithromycin": 9052,
      "HDAC": 9053,
      "sign": 9054,
      "cele": 9055,
      "benzodiazepin": 9056,
      "XQCLĐT": 9057,
      "Denise": 9058,
      "Diseases": 9059,
      "Xoay": 9060,
      "adenoma": 9061,
      "Oxygen": 9062,
      "Lymphôm": 9063,
      "Miles": 9064,
      "chrome": 9065,
      "phosphoryl": 9066,
      "berberin": 9067,
      "Oddi": 9068,
      "Diabetes": 9069,
      "meningitidis": 9070,
      "010": 9071,
      "390": 9072,
      "A21": 9073,
      "Eye": 9074,
      "Gòn": 9075,
      "Nd": 9076,
      "Pal": 9077,
      "QF": 9078,
      "Tách": 9079,
      "TMDD": 9080,
      "WBC": 9081,
      "Xâm": 9082,
      "ZI": 9083,
      "gr": 9084,
      "gấu": 9085,
      "hc": 9086,
      "oma": 9087,
      "pall": 9088,
      "rông": 9089,
      "wen": 9090,
      "xí": 9091,
      "Đài": 9092,
      "ĐTH": 9093,
      "chy": 9094,
      "trăng": 9095,
      "trốn": 9096,
      "gion": 9097,
      "tube": 9098,
      "209": 9099,
      "Thật": 9100,
      "dưa": 9101,
      "Khái": 9102,
      "sian": 9103,
      "lich": 9104,
      "tapenem": 9105,
      "308": 9106,
      "elman": 9107,
      "TTK": 9108,
      "xico": 9109,
      "pit": 9110,
      "glucuron": 9111,
      "ism": 9112,
      "nate": 9113,
      "kitt": 9114,
      "bacil": 9115,
      "Ander": 9116,
      "cerulo": 9117,
      "Lido": 9118,
      "DDTT": 9119,
      "SVR": 9120,
      "SOI": 9121,
      "(-),": 9122,
      "Cuộc": 9123,
      "crip": 9124,
      "mela": 9125,
      "DCCS": 9126,
      "monocytogenes": 9127,
      "bismuth": 9128,
      "streptococci": 9129,
      "florua": 9130,
      "Tesini": 9131,
      "apoptosis": 9132,
      "Erythromycin": 9133,
      "octreotide": 9134,
      "pseudomallei": 9135,
      "carbamazepine": 9136,
      "Bacteroides": 9137,
      "Brenda": 9138,
      "vonorgestrel": 9139,
      "oflavin": 9140,
      "ceruloplasmin": 9141,
      "034": 9142,
      "215": 9143,
      "ACS": 9144,
      "ANP": 9145,
      "Bv": 9146,
      "EN": 9147,
      "FT4": 9148,
      "HỢ": 9149,
      "Kor": 9150,
      "LL": 9151,
      "Lam": 9152,
      "Nuss": 9153,
      "OD": 9154,
      "OCA": 9155,
      "P53": 9156,
      "PBC": 9157,
      "QL": 9158,
      "SCN": 9159,
      "UIV": 9160,
      "Vãng": 9161,
      "avi": 9162,
      "asia": 9163,
      "eli": 9164,
      "món": 9165,
      "p16": 9166,
      "pler": 9167,
      "vate": 9168,
      "ía": 9169,
      "phán": 9170,
      "205": 9171,
      "ralo": 9172,
      "rapy": 9173,
      "eni": 9174,
      "somato": 9175,
      "Chốc": 9176,
      "canna": 9177,
      "esper": 9178,
      "sum": 9179,
      "rib": 9180,
      "ril": 9181,
      "thìa": 9182,
      "IVM": 9183,
      "neffe": 9184,
      "sterol": 9185,
      "TCVS": 9186,
      "epider": 9187,
      "detector": 9188,
      "TP53": 9189,
      "265": 9190,
      "aze": 9191,
      "xed": 9192,
      "cineurin": 9193,
      "NHẬN": 9194,
      "ALBI": 9195,
      "UTG": 9196,
      "TSK": 9197,
      "AFC": 9198,
      "micron": 9199,
      "TICI": 9200,
      "baumanii": 9201,
      "fovir": 9202,
      "T1W": 9203,
      "diazepam": 9204,
      "marneffe": 9205,
      "thyroglobulin": 9206,
      "Nuốt": 9207,
      "rald": 9208,
      "chenne": 9209,
      "PIM": 9210,
      "phenylalanine": 9211,
      "alectin": 9212,
      "apoB": 9213,
      "Cyclophosph": 9214,
      "Burkitt": 9215,
      "barbitu": 9216,
      "deoxycho": 9217,
      "Bupivacain": 9218,
      "Baylor": 9219,
      "pyrido": 9220,
      "brio": 9221,
      "dopaminergic": 9222,
      "zapine": 9223,
      "Pemphigus": 9224,
      "QCVN": 9225,
      "Northwell": 9226,
      "Edward": 9227,
      "trichomonas": 9228,
      "KPCD": 9229,
      "Chloramphenicol": 9230,
      "022": 9231,
      "027": 9232,
      "042": 9233,
      "4cm": 9234,
      "Bóng": 9235,
      "Bụng": 9236,
      "BTK": 9237,
      "Eisen": 9238,
      "FLT": 9239,
      "Geno": 9240,
      "HCR": 9241,
      "HĐH": 9242,
      "IADL": 9243,
      "Ký": 9244,
      "OCD": 9245,
      "SĨ": 9246,
      "Song": 9247,
      "TLC": 9248,
      "atropine": 9249,
      "bá": 9250,
      "cli": 9251,
      "cyc": 9252,
      "dal": 9253,
      "fl": 9254,
      "fr": 9255,
      "fic": 9256,
      "gòn": 9257,
      "human": 9258,
      "kPa": 9259,
      "poli": 9260,
      "wer": 9261,
      "zu": 9262,
      "ÊM": 9263,
      "ame": 9264,
      "Trimetho": 9265,
      "Phép": 9266,
      "thia": 9267,
      "arter": 9268,
      "arman": 9269,
      "asai": 9270,
      "cukinumab": 9271,
      "cago": 9272,
      "eles": 9273,
      "bilis": 9274,
      "quyển": 9275,
      "241": 9276,
      "mm2": 9277,
      "lytica": 9278,
      "ning": 9279,
      "niacin": 9280,
      "237": 9281,
      "Thuỳ": 9282,
      "dehy": 9283,
      "HCl": 9284,
      "citr": 9285,
      "cilizumab": 9286,
      "Mexico": 9287,
      "TPPM": 9288,
      "TNV": 9289,
      "CHẨN": 9290,
      "385": 9291,
      "formol": 9292,
      "inovirus": 9293,
      "atch": 9294,
      "HATB": 9295,
      "MTQ": 9296,
      "sini": 9297,
      "Procalcitonin": 9298,
      "búa": 9299,
      "clostrid": 9300,
      "pneumo": 9301,
      "plastin": 9302,
      "Chicago": 9303,
      "Miếng": 9304,
      "VASc": 9305,
      "graph": 9306,
      "IgG4": 9307,
      "Cortisol": 9308,
      "CVC": 9309,
      "Nocar": 9310,
      "valacyclovir": 9311,
      "resin": 9312,
      "kotri": 9313,
      "QTc": 9314,
      "UTTBG": 9315,
      "DRB": 9316,
      "Internet": 9317,
      "STCL": 9318,
      "sevofluran": 9319,
      "Gerald": 9320,
      "AmpC": 9321,
      "chromatosis": 9322,
      "aminoglycosides": 9323,
      "pyridox": 9324,
      "Campylobacter": 9325,
      "ristone": 9326,
      "Pemphigoid": 9327,
      "Rickettsia": 9328,
      "etoposide": 9329,
      "Benzodiaz": 9330,
      "Prednisone": 9331,
      "ĐOÁN": 9332,
      "Lyshol": 9333,
      "fepristone": 9334,
      "coxib": 9335,
      "tphcm": 9336,
      "pallidum": 9337,
      "HỢP": 9338,
      "marneffei": 9339,
      "Eisenme": 9340,
      "AMP": 9341,
      "BÁC": 9342,
      "CQ": 9343,
      "Cre": 9344,
      "Dis": 9345,
      "DRE": 9346,
      "Ea": 9347,
      "FOL": 9348,
      "HGĐ": 9349,
      "Kẹp": 9350,
      "KHP": 9351,
      "LVM": 9352,
      "MG": 9353,
      "Mày": 9354,
      "Practice": 9355,
      "QHT": 9356,
      "TX": 9357,
      "Vid": 9358,
      "Wi": 9359,
      "War": 9360,
      "Xi": 9361,
      "Xã": 9362,
      "bas": 9363,
      "cent": 9364,
      "gắt": 9365,
      "hột": 9366,
      "kị": 9367,
      "kỉnh": 9368,
      "mM": 9369,
      "nạc": 9370,
      "pter": 9371,
      "rẽ": 9372,
      "sô": 9373,
      "sưởi": 9374,
      "ww": 9375,
      "đắn": 9376,
      "ẦN": 9377,
      "ngàn": 9378,
      "chal": 9379,
      "phả": 9380,
      "air": 9381,
      "Thy": 9382,
      "Thâm": 9383,
      "Thượng": 9384,
      "solium": 9385,
      "cosis": 9386,
      "aron": 9387,
      "tec": 9388,
      "sial": 9389,
      "ruvate": 9390,
      "imidazol": 9391,
      "elas": 9392,
      "tyloxa": 9393,
      "185": 9394,
      "rey": 9395,
      "251": 9396,
      "255": 9397,
      "tameth": 9398,
      "high": 9399,
      "nitine": 9400,
      "Qui": 9401,
      "cond": 9402,
      "233": 9403,
      "cyan": 9404,
      "hydrat": 9405,
      "bora": 9406,
      "Sig": 9407,
      "pagne": 9408,
      "TKCC": 9409,
      "vec": 9410,
      "acetoni": 9411,
      "UTCTC": 9412,
      "ether": 9413,
      "cefepime": 9414,
      "peptin": 9415,
      "khuyếch": 9416,
      "hara": 9417,
      "IUI": 9418,
      "hydroxychloroquine": 9419,
      "oxifen": 9420,
      "levobupivacaine": 9421,
      "marketing": 9422,
      "CXĐ": 9423,
      "Tech": 9424,
      "TAPSE": 9425,
      "Treatment": 9426,
      "Cyclosporine": 9427,
      "Spearman": 9428,
      "ketoconazole": 9429,
      "Campagne": 9430,
      "Erythro": 9431,
      "gnosis": 9432,
      "pyrazol": 9433,
      "Louis": 9434,
      "disease": 9435,
      "melatonin": 9436,
      "TCVSCP": 9437,
      "QHTD": 9438,
      "tyloxapol": 9439,
      "1a": 9440,
      "219": 9441,
      "326": 9442,
      "Bn": 9443,
      "Bố": 9444,
      "Dra": 9445,
      "Dmax": 9446,
      "Fc": 9447,
      "Hôn": 9448,
      "Lồi": 9449,
      "MAS": 9450,
      "RO": 9451,
      "RU": 9452,
      "SMN": 9453,
      "TẾ": 9454,
      "TCT": 9455,
      "Vú": 9456,
      "Vối": 9457,
      "Year": 9458,
      "diệp": 9459,
      "kar": 9460,
      "port": 9461,
      "rEF": 9462,
      "rest": 9463,
      "ƯỞ": 9464,
      "ẢO": 9465,
      "ợc": 9466,
      "ỮNG": 9467,
      "ngan": 9468,
      "thóp": 9469,
      "chở": 9470,
      "quầy": 9471,
      "ticus": 9472,
      "instein": 9473,
      "view": 9474,
      "rale": 9475,
      "Thiểu": 9476,
      "10mg": 9477,
      "emp": 9478,
      "ganciclovir": 9479,
      "butin": 9480,
      "buterol": 9481,
      "1993": 9482,
      "Giật": 9483,
      "229": 9484,
      "ribo": 9485,
      "netium": 9486,
      "neuron": 9487,
      "239": 9488,
      "354": 9489,
      "glutide": 9490,
      "calcineurin": 9491,
      "NTVM": 9492,
      "Vibrio": 9493,
      "ICE": 9494,
      "acebook": 9495,
      "iber": 9496,
      "apoli": 9497,
      "Division": 9498,
      "Albendazole": 9499,
      "Retin": 9500,
      "SpO": 9501,
      "NMCTC": 9502,
      "PSV": 9503,
      "NIPPV": 9504,
      "Nico": 9505,
      "trick": 9506,
      "Duchenne": 9507,
      "scopol": 9508,
      "phenolic": 9509,
      "famo": 9510,
      "Perelman": 9511,
      "Schwan": 9512,
      "Lactat": 9513,
      "ONJ": 9514,
      "alkaline": 9515,
      "Campuchia": 9516,
      "DƯỚI": 9517,
      "Bankart": 9518,
      "Boston": 9519,
      "glabra": 9520,
      "Eisenmenger": 9521,
      "KHPM": 9522,
      "ƯỞNG": 9523,
      "apolipoprotein": 9524,
      "023": 9525,
      "049": 9526,
      "275": 9527,
      "327": 9528,
      "Acu": 9529,
      "Bó": 9530,
      "Bây": 9531,
      "Blas": 9532,
      "Cri": 9533,
      "Cúm": 9534,
      "DPP": 9535,
      "Gò": 9536,
      "GMDT": 9537,
      "IOL": 9538,
      "Kĩ": 9539,
      "Kcal": 9540,
      "KTBT": 9541,
      "LỆ": 9542,
      "Nắm": 9543,
      "Nemo": 9544,
      "OAc": 9545,
      "SYNT": 9546,
      "Vẫn": 9547,
      "Var": 9548,
      "b1": 9549,
      "dắt": 9550,
      "dri": 9551,
      "exo": 9552,
      "gem": 9553,
      "hiên": 9554,
      "ibo": 9555,
      "lội": 9556,
      "mét": 9557,
      "ny": 9558,
      "nstein": 9559,
      "rhi": 9560,
      "ÁNG": 9561,
      "đỗ": 9562,
      "thạo": 9563,
      "vien": 9564,
      "aman": 9565,
      "nguyen": 9566,
      "Ngủ": 9567,
      "rose": 9568,
      "tesu": 9569,
      "genin": 9570,
      "imumab": 9571,
      "191": 9572,
      "217": 9573,
      "prolol": 9574,
      "malon": 9575,
      "relia": 9576,
      "meta": 9577,
      "levonorgestrel": 9578,
      "Quino": 9579,
      "TCL": 9580,
      "HCG": 9581,
      "TPO": 9582,
      "trom": 9583,
      "ist": 9584,
      "...)": 9585,
      "NHỮNG": 9586,
      "monary": 9587,
      "ALY": 9588,
      "CAN": 9589,
      "XHG": 9590,
      "Alber": 9591,
      "VPMP": 9592,
      "VATS": 9593,
      "Thịnh": 9594,
      "ular": 9595,
      "Mito": 9596,
      "SGPT": 9597,
      "SGOT": 9598,
      "cyclosporin": 9599,
      "gammaglobulin": 9600,
      "tronidazol": 9601,
      "haem": 9602,
      "Law": 9603,
      "dsDNA": 9604,
      "muscarin": 9605,
      "PAPP": 9606,
      "flow": 9607,
      "subtype": 9608,
      "nuclein": 9609,
      "salicylat": 9610,
      "Ticar": 9611,
      "EtOAc": 9612,
      "zapin": 9613,
      "Jaco": 9614,
      "SCORE": 9615,
      "maltodextrin": 9616,
      "GEDVI": 9617,
      "Karnofsky": 9618,
      "sackievirus": 9619,
      "FOLFOX": 9620,
      "Nemours": 9621,
      "SYNTAX": 9622,
      "Blo": 9623,
      "Cương": 9624,
      "Cực": 9625,
      "C18": 9626,
      "Dd": 9627,
      "DWI": 9628,
      "E2": 9629,
      "Hài": 9630,
      "Ker": 9631,
      "Knife": 9632,
      "Lứa": 9633,
      "Lăk": 9634,
      "MÔ": 9635,
      "Nặng": 9636,
      "Snodgrass": 9637,
      "TỈ": 9638,
      "VB": 9639,
      "ara": 9640,
      "bỉ": 9641,
      "balin": 9642,
      "dyc": 9643,
      "gấc": 9644,
      "lổ": 9645,
      "rám": 9646,
      "súp": 9647,
      "stri": 9648,
      "ua": 9649,
      "veno": 9650,
      "xít": 9651,
      "ĂNG": 9652,
      "ĐẾN": 9653,
      "đằng": 9654,
      "βE": 9655,
      "ngạc": 9656,
      "nhang": 9657,
      "thối": 9658,
      "thép": 9659,
      "thẫm": 9660,
      "hoocmon": 9661,
      "ind": 9662,
      "intron": 9663,
      "inlay": 9664,
      "infliximab": 9665,
      "chond": 9666,
      "Thói": 9667,
      "torus": 9668,
      "chitosan": 9669,
      "Nhạy": 9670,
      "rocuronium": 9671,
      "Nghĩa": 9672,
      "dioxin": 9673,
      "asen": 9674,
      "sugammadex": 9675,
      "218": 9676,
      "maco": 9677,
      "228": 9678,
      "TTĐT": 9679,
      "THẬN": 9680,
      "231": 9681,
      "pium": 9682,
      "iae": 9683,
      "MDS": 9684,
      "epraz": 9685,
      "pera": 9686,
      "cetaxel": 9687,
      "ORS": 9688,
      "CLO": 9689,
      "398": 9690,
      "thew": 9691,
      "ioido": 9692,
      "PTA": 9693,
      "peri": 9694,
      "HSP": 9695,
      "gabalin": 9696,
      "fenib": 9697,
      "voi": 9698,
      "ansas": 9699,
      "Roux": 9700,
      "VMNM": 9701,
      "State": 9702,
      "razepam": 9703,
      "Ringer": 9704,
      "KSNK": 9705,
      "Amphotericin": 9706,
      "MERS": 9707,
      "BiPAP": 9708,
      "hexan": 9709,
      "flozin": 9710,
      "laucoma": 9711,
      "Mini": 9712,
      "indomethacin": 9713,
      "KXHP": 9714,
      "Master": 9715,
      "Lymphoma": 9716,
      "PWV": 9717,
      "Hydroxy": 9718,
      "Matthew": 9719,
      "Histoplasma": 9720,
      "VTPQ": 9721,
      "belli": 9722,
      "Lệch": 9723,
      "karyotype": 9724,
      "Strongyloides": 9725,
      "ngannguyen": 9726,
      ")),": 9727,
      "021": 9728,
      "048": 9729,
      "295": 9730,
      "Ewing": 9731,
      "F0": 9732,
      "Far": 9733,
      "Gạc": 9734,
      "GAN": 9735,
      "Hofs": 9736,
      "Kasai": 9737,
      "Miệng": 9738,
      "MALT": 9739,
      "VUR": 9740,
      "atin": 9741,
      "atorvastatin": 9742,
      "bda": 9743,
      "cem": 9744,
      "cil": 9745,
      "dê": 9746,
      "dam": 9747,
      "hõm": 9748,
      "hbv": 9749,
      "ks": 9750,
      "koff": 9751,
      "mpox": 9752,
      "nin": 9753,
      "ness": 9754,
      "ot": 9755,
      "pt": 9756,
      "pren": 9757,
      "rộ": 9758,
      "rắc": 9759,
      "tsu": 9760,
      "xé": 9761,
      "ÀI": 9762,
      "Ánh": 9763,
      "ím": 9764,
      "ẠN": 9765,
      "ụa": 9766,
      "trộm": 9767,
      "Thụ": 9768,
      "eous": 9769,
      "khoanh": 9770,
      "cobal": 9771,
      "roi": 9772,
      "sip": 9773,
      "tah": 9774,
      "gency": 9775,
      "prol": 9776,
      "SAPS": 9777,
      "citrat": 9778,
      "pectin": 9779,
      "272": 9780,
      "cet": 9781,
      "MRCP": 9782,
      "national": 9783,
      "ALA": 9784,
      "duPon": 9785,
      "RLCH": 9786,
      "A1c": 9787,
      "Carb": 9788,
      "EPA": 9789,
      "aximin": 9790,
      "Lyon": 9791,
      "PAN": 9792,
      "Rika": 9793,
      "fication": 9794,
      "Duke": 9795,
      "Buôn": 9796,
      "Piperacillin": 9797,
      "melano": 9798,
      "Ruột": 9799,
      "chloramphenicol": 9800,
      "AIHA": 9801,
      "Treg": 9802,
      "TCD4": 9803,
      "BCLC": 9804,
      "Shel": 9805,
      "Acetyl": 9806,
      "garis": 9807,
      "trimethoprim": 9808,
      "Mann": 9809,
      "histolytica": 9810,
      "Realtime": 9811,
      "Borrelia": 9812,
      "Morphin": 9813,
      "apixaban": 9814,
      "grelor": 9815,
      "pyridin": 9816,
      "blot": 9817,
      "Aminoglycosid": 9818,
      "metoprolol": 9819,
      "valproate": 9820,
      "Carboplatin": 9821,
      "TÍNH": 9822,
      "NĂM": 9823,
      "asteur": 9824,
      "migraine": 9825,
      "gionella": 9826,
      "riboflavin": 9827,
      "Lysholm": 9828,
      "Alberta": 9829,
      "Hofstra": 9830,
      "duPont": 9831,
      "405": 9832,
      "550": 9833,
      "532": 9834,
      "650": 9835,
      "CFS": 9836,
      "Dậy": 9837,
      "ECF": 9838,
      "Einstein": 9839,
      "HAP": 9840,
      "Ib": 9841,
      "PAD": 9842,
      "PAC": 9843,
      "QOL": 9844,
      "SỰ": 9845,
      "Sợi": 9846,
      "SIDS": 9847,
      "Tong": 9848,
      "Tồn": 9849,
      "TSS": 9850,
      "TUR": 9851,
      "Un": 9852,
      "UMN": 9853,
      "Utah": 9854,
      "V3": 9855,
      "Ze": 9856,
      "dãi": 9857,
      "ehan": 9858,
      "gờ": 9859,
      "gol": 9860,
      "gẫy": 9861,
      "gue": 9862,
      "itr": 9863,
      "itin": 9864,
      "lc": 9865,
      "mẻ": 9866,
      "mia": 9867,
      "mOs": 9868,
      "nấc": 9869,
      "practice": 9870,
      "rầm": 9871,
      "rốt": 9872,
      "ucleo": 9873,
      "vối": 9874,
      "vinh": 9875,
      "yamo": 9876,
      "µL": 9877,
      "ÂY": 9878,
      "ịnh": 9879,
      "ỮA": 9880,
      "chặng": 9881,
      "trù": 9882,
      "trận": 9883,
      "phor": 9884,
      "phore": 9885,
      "enoxaparin": 9886,
      "soft": 9887,
      "erma": 9888,
      "Triển": 9889,
      "Chườm": 9890,
      "idan": 9891,
      "sive": 9892,
      "liêu": 9893,
      "taper": 9894,
      "generic": 9895,
      "Giấy": 9896,
      "Giúp": 9897,
      "proANP": 9898,
      "rist": 9899,
      "lysin": 9900,
      "164": 9901,
      "THỨC": 9902,
      "phot": 9903,
      "171": 9904,
      "xoài": 9905,
      "laze": 9906,
      "vancin": 9907,
      "SAU": 9908,
      "glucid": 9909,
      "CLTT": 9910,
      "penicil": 9911,
      "And": 9912,
      "XHTMCT": 9913,
      "HOSTL": 9914,
      "cytosine": 9915,
      "Heart": 9916,
      "VMX": 9917,
      "antigen": 9918,
      "TIA": 9919,
      "Neu": 9920,
      "Baker": 9921,
      "CVD": 9922,
      "sional": 9923,
      "TEL": 9924,
      "DENV": 9925,
      "Gentam": 9926,
      "desmopressin": 9927,
      "Paraquat": 9928,
      "XNĐMC": 9929,
      "BCL6": 9930,
      "SUVmean": 9931,
      "Macrol": 9932,
      "BĐXNĐMC": 9933,
      "BRCA1": 9934,
      "Bartholin": 9935,
      "Phospho": 9936,
      "papillomavirus": 9937,
      "gluconate": 9938,
      "HÀNH": 9939,
      "Sheehan": 9940,
      "stigmine": 9941,
      "Cochrane": 9942,
      "commen": 9943,
      "ralocorticoid": 9944,
      "chondri": 9945,
      "itracin": 9946,
      "yamoya": 9947,
      "033": 9948,
      "3A": 9949,
      "Bào": 9950,
      "Brau": 9951,
      "Cá": 9952,
      "Cái": 9953,
      "CMS": 9954,
      "Gnathostoma": 9955,
      "HƯỞNG": 9956,
      "Jen": 9957,
      "Kể": 9958,
      "MUTY": 9959,
      "Nối": 9960,
      "PPE": 9961,
      "Paul": 9962,
      "Qmax": 9963,
      "R2": 9964,
      "Rạch": 9965,
      "TEM": 9966,
      "Typ": 9967,
      "Võ": 9968,
      "VCS": 9969,
      "VWD": 9970,
      "Wood": 9971,
      "Xpert": 9972,
      "fel": 9973,
      "lụa": 9974,
      "mp": 9975,
      "mau": 9976,
      "moxifloxacin": 9977,
      "rạn": 9978,
      "sân": 9979,
      "ses": 9980,
      "uni": 9981,
      "use": 9982,
      "xime": 9983,
      "ỆT": 9984,
      "chanh": 9985,
      "trấp": 9986,
      "quạt": 9987,
      "titan": 9988,
      "lorazepam": 9989,
      "rafenib": 9990,
      "Tháo": 9991,
      "Th17": 9992,
      "ente": 9993,
      "Ngực": 9994,
      "TrT": 9995,
      "Trí": 9996,
      "Tren": 9997,
      "dica": 9998,
      "tetrac": 9999,
      "sic": 10000,
      "ashi": 10001,
      "THKG": 10002,
      "Hoặc": 10003,
      "IDSA": 10004,
      "Thuý": 10005,
      "TCCP": 10006,
      "mith": 10007,
      "HCBVTV": 10008,
      "HCCLTT": 10009,
      "SAP": 10010,
      "48h": 10011,
      "386": 10012,
      "ARID": 10013,
      "NKNP": 10014,
      "PDE": 10015,
      "ALS": 10016,
      "paro": 10017,
      "rinone": 10018,
      "ABC": 10019,
      "cker": 10020,
      "kíp": 10021,
      "orphine": 10022,
      "500mg": 10023,
      "Catheter": 10024,
      "Barton": 10025,
[...]
