{
  "version": "1.0",
  "truncation": null,
  "padding": null,
  "added_tokens": [
    {
      "id": 0,
      "content": "[PAD]",
      "single_word": false,
      "lstrip": false,
      "rstrip": false,
      "normalized": false,
      "special": true
    },
    {
      "id": 1,
      "content": "[UNK]",
      "single_word": false,
      "lstrip": false,
      "rstrip": false,
      "normalized": false,
      "special": true
    },
    {
      "id": 2,
      "content": "[SOS]",
      "single_word": false,
      "lstrip": false,
      "rstrip": false,
      "normalized": false,
      "special": true
    },
    {
      "id": 3,
      "content": "[EOS]",
      "single_word": false,
      "lstrip": false,
      "rstrip": false,
      "normalized": false,
      "special": true
    }
  ],
  "normalizer": null,
  "pre_tokenizer": {
    "type": "Whitespace"
  },
  "post_processor": null,
  "decoder": null,
  "model": {
    "type": "BPE",
    "dropout": null,
    "unk_token": "[UNK]",
    "continuing_subword_prefix": null,
    "end_of_word_suffix": null,
    "fuse_unk": false,
    "byte_fallback": false,
    "ignore_merges": false,
    "vocab": {
      "[PAD]": 0,
      "[UNK]": 1,
      "[SOS]": 2,
      "[EOS]": 3,
      "\u0002": 4,
      "!": 5,
      "\"": 6,
      "#": 7,
      "$": 8,
      "%": 9,
      "&": 10,
      "'": 11,
      "(": 12,
      ")": 13,
      "*": 14,
      "+": 15,
      ",": 16,
      "-": 17,
      ".": 18,
      "/": 19,
      "0": 20,
      "1": 21,
      "2": 22,
      "3": 23,
      "4": 24,
      "5": 25,
      "6": 26,
      "7": 27,
      "8": 28,
      "9": 29,
      ":": 30,
      ";": 31,
      "<": 32,
      "=": 33,
      ">": 34,
      "?": 35,
      "@": 36,
      "A": 37,
      "B": 38,
      "C": 39,
      "D": 40,
      "E": 41,
      "F": 42,
      "G": 43,
      "H": 44,
      "I": 45,
      "J": 46,
      "K": 47,
      "L": 48,
      "M": 49,
      "N": 50,
      "O": 51,
      "P": 52,
      "Q": 53,
      "R": 54,
      "S": 55,
      "T": 56,
      "U": 57,
      "V": 58,
      "W": 59,
      "X": 60,
      "Y": 61,
      "Z": 62,
      "[": 63,
      "\\": 64,
      "]": 65,
      "^": 66,
      "_": 67,
      "`": 68,
      "a": 69,
      "b": 70,
      "c": 71,
      "d": 72,
      "e": 73,
      "f": 74,
      "g": 75,
      "h": 76,
      "i": 77,
      "j": 78,
      "k": 79,
      "l": 80,
      "m": 81,
      "n": 82,
      "o": 83,
      "p": 84,
      "q": 85,
      "r": 86,
      "s": 87,
      "t": 88,
      "u": 89,
      "v": 90,
      "w": 91,
      "x": 92,
      "y": 93,
      "z": 94,
      "{": 95,
      "|": 96,
      "}": 97,
      "~": 98,
      "¢": 99,
      "£": 100,
      "¥": 101,
      "§": 102,
      "©": 103,
      "«": 104,
      "¬": 105,
      "­": 106,
      "®": 107,
      "°": 108,
      "±": 109,
      "²": 110,
      "³": 111,
      "´": 112,
      "µ": 113,
      "¹": 114,
      "º": 115,
      "»": 116,
      "¼": 117,
      "½": 118,
      "¾": 119,
      "À": 120,
      "Á": 121,
      "Â": 122,
      "Å": 123,
      "É": 124,
      "Ê": 125,
      "Ì": 126,
      "Í": 127,
      "Ï": 128,
      "Ð": 129,
      "Ñ": 130,
      "Ò": 131,
      "Ô": 132,
      "Õ": 133,
      "×": 134,
      "Ù": 135,
      "Ú": 136,
      "ß": 137,
      "à": 138,
      "á": 139,
      "â": 140,
      "ã": 141,
      "ä": 142,
      "æ": 143,
      "ç": 144,
      "è": 145,
      "é": 146,
      "ê": 147,
      "ë": 148,
      "ì": 149,
      "í": 150,
      "ï": 151,
      "ñ": 152,
      "ò": 153,
      "ó": 154,
      "ô": 155,
      "õ": 156,
      "ö": 157,
      "÷": 158,
      "ø": 159,
      "ù": 160,
      "ú": 161,
      "û": 162,
      "ü": 163,
      "ý": 164,
      "ă": 165,
      "Đ": 166,
      "đ": 167,
      "ė": 168,
      "ĩ": 169,
      "ŋ": 170,
      "œ": 171,
      "ũ": 172,
      "ŷ": 173,
      "Ơ": 174,
      "ơ": 175,
      "Ư": 176,
      "ư": 177,
      "ȃ": 178,
      "ʼ": 179,
      "˂": 180,
      "˃": 181,
      "˚": 182,
      "̀": 183,
      "́": 184,
      "̣": 185,
      "̴": 186,
      "Α": 187,
      "Β": 188,
      "Δ": 189,
      "Ω": 190,
      "α": 191,
      "β": 192,
      "γ": 193,
      "δ": 194,
      "ε": 195,
      "ζ": 196,
      "θ": 197,
      "κ": 198,
      "λ": 199,
      "μ": 200,
      "ο": 201,
      "π": 202,
      "ρ": 203,
      "υ": 204,
      "χ": 205,
      "ω": 206,
      "а": 207,
      "қ": 208,
      "ᵒ": 209,
      "ᵡ": 210,
      "ᵧ": 211,
      "Ạ": 212,
      "ạ": 213,
      "ả": 214,
      "Ấ": 215,
      "ấ": 216,
      "Ầ": 217,
      "ầ": 218,
      "ẩ": 219,
      "Ẫ": 220,
      "ẫ": 221,
      "Ậ": 222,
      "ậ": 223,
      "ắ": 224,
      "ằ": 225,
      "ẵ": 226,
      "ặ": 227,
      "ẹ": 228,
      "ẻ": 229,
      "ẽ": 230,
      "Ế": 231,
      "ế": 232,
      "ề": 233,
      "ể": 234,
      "ễ": 235,
      "Ệ": 236,
      "ệ": 237,
      "Ỉ": 238,
      "ỉ": 239,
      "Ị": 240,
      "ị": 241,
      "ọ": 242,
      "ỏ": 243,
      "ố": 244,
      "ồ": 245,
      "ổ": 246,
      "ộ": 247,
      "ớ": 248,
      "ờ": 249,
      "Ở": 250,
      "ở": 251,
      "ỡ": 252,
      "ợ": 253,
      "ụ": 254,
      "ủ": 255,
      "Ứ": 256,
      "ứ": 257,
      "ừ": 258,
      "ử": 259,
      "Ữ": 260,
      "ữ": 261,
      "ự": 262,
      "ỳ": 263,
      "ỷ": 264,
      "Ỹ": 265,
      "ỹ": 266,
      "ᾨ": 267,
      "​": 268,
      "‎": 269,
      "‐": 270,
      "‑": 271,
      "‒": 272,
      "–": 273,
      "—": 274,
      "―": 275,
      "‘": 276,
      "’": 277,
      "‚": 278,
      "‛": 279,
      "“": 280,
      "”": 281,
      "‟": 282,
      "†": 283,
      "‡": 284,
      "•": 285,
      "‰": 286,
      "′": 287,
      "⁄": 288,
      "⁰": 289,
      "⁺": 290,
      "™": 291,
      "⅓": 292,
      "Ⅱ": 293,
      "Ⅲ": 294,
      "←": 295,
      "↑": 296,
      "→": 297,
      "↓": 298,
      "↔": 299,
      "∆": 300,
      "−": 301,
      "∗": 302,
      "∛": 303,
      "≈": 304,
      "≡": 305,
      "≤": 306,
      "≥": 307,
      "●": 308,
      "◦": 309,
      "✓": 310,
      "": 311,
      "": 312,
      "": 313,
      "": 314,
      "": 315,
      "": 316,
      "": 317,
      "": 318,
      "": 319,
      "": 320,
      "": 321,
      "": 322,
      "": 323,
      "": 324,
      "": 325,
      "": 326,
      "": 327,
      "": 328,
      "": 329,
      "": 330,
      "": 331,
      "ﬀ": 332,
      "ﬁ": 333,
      "ﬂ": 334,
      "﻿": 335,
      "�": 336,
      "in": 337,
      "ti": 338,
      "re": 339,
      "th": 340,
      "on": 341,
      "an": 342,
      "er": 343,
      "en": 344,
      "al": 345,
      "or": 346,
      "es": 347,
      "of": 348,
      "is": 349,
      "at": 350,
      "ed": 351,
      "the": 352,
      "as": 353,
      "ati": 354,
      "ar": 355,
      "and": 356,
      "ic": 357,
      "ro": 358,
      "ent": 359,
      "to": 360,
      "ing": 361,
      "ec": 362,
      "ac": 363,
      "os": 364,
      "us": 365,
      "it": 366,
      "ve": 367,
      "ul": 368,
      "he": 369,
      "om": 370,
      "ation": 371,
      "le": 372,
      "ly": 373,
      "st": 374,
      "ur": 375,
      "wi": 376,
      "tion": 377,
      "with": 378,
      "ter": 379,
      "ol": 380,
      "de": 381,
      "res": 382,
      "di": 383,
      "ag": 384,
      "un": 385,
      "ch": 386,
      "ents": 387,
      "be": 388,
      "pati": 389,
      "ce": 390,
      "tr": 391,
      "for": 392,
      "lo": 393,
      "we": 394,
      "si": 395,
      "il": 396,
      "me": 397,
      "ts": 398,
      "The": 399,
      "are": 400,
      "ut": 401,
      "pro": 402,
      "od": 403,
      "id": 404,
      "patients": 405,
      "ment": 406,
      "per": 407,
      "com": 408,
      "cl": 409,
      "ver": 410,
      "am": 411,
      "tic": 412,
      "ap": 413,
      "con": 414,
      "ab": 415,
      "um": 416,
      "se": 417,
      "ho": 418,
      "ad": 419,
      "ate": 420,
      "ical": 421,
      "ig": 422,
      "im": 423,
      "ay": 424,
      "op": 425,
      "ity": 426,
      "was": 427,
      "ir": 428,
      "dis": 429,
      "su": 430,
      "20": 431,
      "ne": 432,
      "reat": 433,
      "ff": 434,
      "oc": 435,
      "ia": 436,
      "ud": 437,
      "pl": 438,
      "hy": 439,
      "tive": 440,
      "uc": 441,
      "ren": 442,
      "no": 443,
      "ain": 444,
      "age": 445,
      "em": 446,
      "rom": 447,
      "ex": 448,
      "up": 449,
      "mon": 450,
      "ion": 451,
      "ess": 452,
      "der": 453,
      ").": 454,
      "qu": 455,
      "igh": 456,
      "mo": 457,
      "ated": 458,
      "ary": 459,
      "were": 460,
      "ase": 461,
      "if": 462,
      "sy": 463,
      "ine": 464,
      "ther": 465,
      "by": 466,
      "treat": 467,
      "ure": 468,
      "co": 469,
      "can": 470,
      "ll": 471,
      "ear": 472,
      "ted": 473,
      "val": 474,
      "pre": 475,
      "ant": 476,
      "ital": 477,
      "og": 478,
      "est": 479,
      "osp": 480,
      "inf": 481,
      "sp": 482,
      "act": 483,
      "from": 484,
      "aus": 485,
      "ha": 486,
      "ection": 487,
      "tom": 488,
      "et": 489,
      "ial": 490,
      "ults": 491,
      "gro": 492,
      "ten": 493,
      "stud": 494,
      "af": 495,
      "In": 496,
      "),": 497,
      "low": 498,
      "ospital": 499,
      "osis": 500,
      "pos": 501,
      "mal": 502,
      "ph": 503,
      "sur": 504,
      "that": 505,
      "tis": 506,
      "ri": 507,
      "ations": 508,
      "ug": 509,
      "par": 510,
      "ven": 511,
      "gn": 512,
      "sho": 513,
      "one": 514,
      "ular": 515,
      "li": 516,
      "wh": 517,
      "ous": 518,
      "out": 519,
      "treatment": 520,
      "ors": 521,
      "study": 522,
      "10": 523,
      "red": 524,
      "may": 525,
      "gen": 526,
      "ective": 527,
      "pres": 528,
      "ases": 529,
      "cy": 530,
      "te": 531,
      "ally": 532,
      "high": 533,
      "cor": 534,
      "vi": 535,
      "med": 536,
      "ge": 537,
      "cre": 538,
      "usion": 539,
      "tro": 540,
      "ild": 541,
      "cer": 542,
      "ass": 543,
      "agn": 544,
      "thod": 545,
      "mp": 546,
      "ong": 547,
      "bet": 548,
      "po": 549,
      "ome": 550,
      "group": 551,
      "pe": 552,
      "dise": 553,
      "eff": 554,
      "Res": 555,
      "not": 556,
      "have": 557,
      "caus": 558,
      "ost": 559,
      "ty": 560,
      "sion": 561,
      "car": 562,
      "valu": 563,
      "after": 564,
      "fo": 565,
      "iz": 566,
      "end": 567,
      "olog": 568,
      "Con": 569,
      "inical": 570,
      "por": 571,
      "und": 572,
      "surg": 573,
      "rel": 574,
      "ative": 575,
      "rate": 576,
      "duc": 577,
      "anti": 578,
      "tal": 579,
      "ath": 580,
      "Th": 581,
      "cur": 582,
      "ence": 583,
      "ist": 584,
      "ory": 585,
      "ect": 586,
      "dr": 587,
      "so": 588,
      "wor": 589,
      "%,": 590,
      "hospital": 591,
      "ific": 592,
      "bj": 593,
      "ves": 594,
      "201": 595,
      "el": 596,
      "year": 597,
      "ep": 598,
      "all": 599,
      "min": 600,
      "incl": 601,
      "ple": 602,
      "ery": 603,
      "pr": 604,
      "mptom": 605,
      "disease": 606,
      "ult": 607,
      "able": 608,
      "ose": 609,
      "br": 610,
      "ans": 611,
      "clusion": 612,
      "ildren": 613,
      "uld": 614,
      "blo": 615,
      "str": 616,
      "ies": 617,
      "man": 618,
      "than": 619,
      "inal": 620,
      "ser": 621,
      "diagn": 622,
      "acter": 623,
      "ma": 624,
      "fact": 625,
      "ased": 626,
      "ey": 627,
      "resp": 628,
      "cases": 629,
      "ast": 630,
      "sign": 631,
      "clinical": 632,
      "fe": 633,
      "cent": 634,
      "ich": 635,
      "ang": 636,
      "ris": 637,
      "sis": 638,
      "ance": 639,
      "but": 640,
      "vel": 641,
      "gr": 642,
      "Conclusion": 643,
      "bi": 644,
      "ight": 645,
      "inter": 646,
      "incre": 647,
      "00": 648,
      "most": 649,
      "ds": 650,
      "ob": 651,
      "%.": 652,
      "eg": 653,
      "ke": 654,
      "other": 655,
      "hi": 656,
      "common": 657,
      "infection": 658,
      "risk": 659,
      "Results": 660,
      "ind": 661,
      "children": 662,
      "order": 663,
      "ber": 664,
      "should": 665,
      "day": 666,
      "mptoms": 667,
      "results": 668,
      "ble": 669,
      "level": 670,
      "surgery": 671,
      "had": 672,
      "ute": 673,
      "blood": 674,
      "which": 675,
      "bo": 676,
      "Me": 677,
      "cop": 678,
      "diff": 679,
      "ue": 680,
      "years": 681,
      "tim": 682,
      "unc": 683,
      "ill": 684,
      "rec": 685,
      "alth": 686,
      "ects": 687,
      "test": 688,
      "ater": 689,
      "fi": 690,
      "cell": 691,
      "hem": 692,
      "has": 693,
      "plic": 694,
      "ected": 695,
      "tri": 696,
      "ween": 697,
      "patient": 698,
      "who": 699,
      "method": 700,
      "between": 701,
      "tics": 702,
      "cancer": 703,
      "ni": 704,
      "factors": 705,
      "amin": 706,
      "ures": 707,
      "time": 708,
      "%)": 709,
      "used": 710,
      "Key": 711,
      "des": 712,
      "month": 713,
      "12": 714,
      "some": 715,
      "drug": 716,
      "cal": 717,
      "more": 718,
      "use": 719,
      "hyper": 720,
      "therap": 721,
      "ers": 722,
      "nd": 723,
      "ail": 724,
      "fl": 725,
      "tra": 726,
      "Hospital": 727,
      "ach": 728,
      "ici": 729,
      "col": 730,
      "nor": 731,
      "mun": 732,
      "cri": 733,
      "To": 734,
      "tum": 735,
      "requ": 736,
      "char": 737,
      "evalu": 738,
      "form": 739,
      "dur": 740,
      "ew": 741,
      "disorder": 742,
      "ology": 743,
      "coun": 744,
      "fol": 745,
      "ugh": 746,
      "peri": 747,
      "this": 748,
      "spec": 749,
      "%),": 750,
      "av": 751,
      "ron": 752,
      "dia": 753,
      "acti": 754,
      "signific": 755,
      "over": 756,
      "atory": 757,
      "ese": 758,
      "normal": 759,
      "Obj": 760,
      "trans": 761,
      "Vi": 762,
      "enti": 763,
      "vas": 764,
      "ss": 765,
      "also": 766,
      "vention": 767,
      "ually": 768,
      "pain": 769,
      "includ": 770,
      "ved": 771,
      "under": 772,
      "Method": 773,
      "ack": 774,
      "symptoms": 775,
      "significant": 776,
      "les": 777,
      "iti": 778,
      "There": 779,
      "go": 780,
      "ces": 781,
      "ech": 782,
      "Pati": 783,
      "ign": 784,
      "cess": 785,
      "fore": 786,
      "oid": 787,
      "oscop": 788,
      "therapy": 789,
      "def": 790,
      "aly": 791,
      "unction": 792,
      "health": 793,
      "ude": 794,
      "ecti": 795,
      "cont": 796,
      "ric": 797,
      "tomy": 798,
      "eren": 799,
      "dec": 800,
      "ide": 801,
      "oci": 802,
      "Ho": 803,
      "show": 804,
      "now": 805,
      "vere": 806,
      "ra": 807,
      "ung": 808,
      "inj": 809,
      "ting": 810,
      "ating": 811,
      "follow": 812,
      "months": 813,
      "15": 814,
      "cause": 815,
      "comp": 816,
      "bin": 817,
      "complic": 818,
      "reg": 819,
      "occur": 820,
      "care": 821,
      "using": 822,
      "ak": 823,
      "ace": 824,
      "urs": 825,
      "cin": 826,
      "words": 827,
      "acute": 828,
      "differen": 829,
      "Ch": 830,
      "atic": 831,
      "%).": 832,
      "function": 833,
      "do": 834,
      "omen": 835,
      "oper": 836,
      "fir": 837,
      "rap": 838,
      "stem": 839,
      "port": 840,
      "itis": 841,
      "ause": 842,
      "ys": 843,
      "kin": 844,
      "lop": 845,
      "very": 846,
      "term": 847,
      "oma": 848,
      "ving": 849,
      "wo": 850,
      "19": 851,
      "character": 852,
      "severe": 853,
      "bec": 854,
      "mor": 855,
      "arter": 856,
      "contro": 857,
      "eral": 858,
      "phy": 859,
      "need": 860,
      "rome": 861,
      "mic": 862,
      "inh": 863,
      "ane": 864,
      "vis": 865,
      "vol": 866,
      "05": 867,
      "ari": 868,
      "ful": 869,
      "diagnosis": 870,
      "ronic": 871,
      "CT": 872,
      "ates": 873,
      "vent": 874,
      "An": 875,
      "sive": 876,
      "202": 877,
      "ual": 878,
      "Di": 879,
      "vers": 880,
      "non": 881,
      "tions": 882,
      "tric": 883,
      "usually": 884,
      "synd": 885,
      "during": 886,
      "when": 887,
      "posi": 888,
      "Re": 889,
      "related": 890,
      "old": 891,
      "gi": 892,
      "about": 893,
      "cardi": 894,
      "been": 895,
      "sub": 896,
      "times": 897,
      "struc": 898,
      "velop": 899,
      "ced": 900,
      "gl": 901,
      "Keywords": 902,
      "part": 903,
      "II": 904,
      "ness": 905,
      "This": 906,
      "main": 907,
      "30": 908,
      "ism": 909,
      "treated": 910,
      "section": 911,
      "ency": 912,
      "mg": 913,
      "tes": 914,
      "nam": 915,
      "cular": 916,
      "vir": 917,
      "develop": 918,
      "ized": 919,
      "know": 920,
      "ens": 921,
      "ral": 922,
      "ility": 923,
      "women": 924,
      "200": 925,
      "higher": 926,
      "syndrome": 927,
      "aff": 928,
      "50": 929,
      "associ": 930,
      "St": 931,
      "long": 932,
      "type": 933,
      "Treat": 934,
      "IV": 935,
      "cord": 936,
      "mia": 937,
      "there": 938,
      "bl": 939,
      "ai": 940,
      "cr": 941,
      "oph": 942,
      "ross": 943,
      "nec": 944,
      "characteris": 945,
      "11": 946,
      "such": 947,
      "ci": 948,
      "chronic": 949,
      "Viet": 950,
      "typ": 951,
      "descri": 952,
      "view": 953,
      "trac": 954,
      "pul": 955,
      "sel": 956,
      "art": 957,
      "diagnos": 958,
      "days": 959,
      "include": 960,
      "ins": 961,
      "ite": 962,
      "cho": 963,
      "vid": 964,
      "int": 965,
      "vity": 966,
      "Methods": 967,
      "ople": 968,
      "thro": 969,
      "often": 970,
      "met": 971,
      "fr": 972,
      "verage": 973,
      "its": 974,
      "sure": 975,
      "ard": 976,
      "14": 977,
      "men": 978,
      "ree": 979,
      "mean": 980,
      "hel": 981,
      "system": 982,
      "our": 983,
      "path": 984,
      "ond": 985,
      "wever": 986,
      "ication": 987,
      "air": 988,
      "impro": 989,
      "ek": 990,
      "earch": 991,
      "Treatment": 992,
      "less": 993,
      "18": 994,
      "result": 995,
      "mus": 996,
      "app": 997,
      "led": 998,
      "increased": 999,
      "ck": 1000,
      "Patients": 1001,
      "13": 1002,
      "ants": 1003,
      "due": 1004,
      "uro": 1005,
      "dom": 1006,
      "atis": 1007,
      "Med": 1008,
      "fail": 1009,
      "De": 1010,
      "ectively": 1011,
      "24": 1012,
      "mm": 1013,
      "til": 1014,
      "including": 1015,
      "sup": 1016,
      "cle": 1017,
      "thy": 1018,
      "decre": 1019,
      "oscopic": 1020,
      "immun": 1021,
      "injur": 1022,
      "ions": 1023,
      "infl": 1024,
      "ody": 1025,
      "complications": 1026,
      "control": 1027,
      "au": 1028,
      "my": 1029,
      "characteristics": 1030,
      "drugs": 1031,
      "ational": 1032,
      "side": 1033,
      "bio": 1034,
      "betes": 1035,
      "hor": 1036,
      "present": 1037,
      "ograp": 1038,
      "people": 1039,
      "assess": 1040,
      "renal": 1041,
      "first": 1042,
      "week": 1043,
      "levels": 1044,
      "Sy": 1045,
      "tension": 1046,
      "before": 1047,
      "25": 1048,
      "det": 1049,
      "16": 1050,
      "requi": 1051,
      "ox": 1052,
      "100": 1053,
      "dic": 1054,
      "vascular": 1055,
      "fem": 1056,
      "ner": 1057,
      "accoun": 1058,
      "ulation": 1059,
      "Cl": 1060,
      "lower": 1061,
      "tech": 1062,
      "tain": 1063,
      "ulti": 1064,
      "ior": 1065,
      "inc": 1066,
      "bre": 1067,
      "associated": 1068,
      "disorders": 1069,
      "utri": 1070,
      "ade": 1071,
      "tu": 1072,
      "ardi": 1073,
      "their": 1074,
      "sti": 1075,
      "sec": 1076,
      "dies": 1077,
      "Com": 1078,
      "pregn": 1079,
      "onse": 1080,
      "ically": 1081,
      "sectional": 1082,
      "ish": 1083,
      "eding": 1084,
      "monary": 1085,
      "gas": 1086,
      "Diagn": 1087,
      "ax": 1088,
      "because": 1089,
      "fied": 1090,
      "among": 1091,
      "dition": 1092,
      "flu": 1093,
      "help": 1094,
      "examin": 1095,
      "average": 1096,
      "vari": 1097,
      "heart": 1098,
      "medi": 1099,
      "ip": 1100,
      "king": 1101,
      "failure": 1102,
      "CO": 1103,
      "lif": 1104,
      "intervention": 1105,
      "weight": 1106,
      "alysis": 1107,
      "60": 1108,
      "well": 1109,
      "partic": 1110,
      "meas": 1111,
      "mis": 1112,
      "cross": 1113,
      "oral": 1114,
      "ledge": 1115,
      "ile": 1116,
      "reduc": 1117,
      "medical": 1118,
      "saf": 1119,
      "Vietnam": 1120,
      "ice": 1121,
      "arm": 1122,
      "diabetes": 1123,
      "produc": 1124,
      "curren": 1125,
      "only": 1126,
      "sco": 1127,
      "any": 1128,
      "ges": 1129,
      "ety": 1130,
      "perfor": 1131,
      "these": 1132,
      "cep": 1133,
      "pressure": 1134,
      "rh": 1135,
      "causes": 1136,
      "comple": 1137,
      "ress": 1138,
      "ectives": 1139,
      "ene": 1140,
      "specific": 1141,
      "ality": 1142,
      "indic": 1143,
      "ization": 1144,
      "emia": 1145,
      "bacter": 1146,
      "ments": 1147,
      "partment": 1148,
      "appro": 1149,
      "versity": 1150,
      "gu": 1151,
      "hours": 1152,
      "acy": 1153,
      "ities": 1154,
      "evaluate": 1155,
      "log": 1156,
      "combin": 1157,
      "utrition": 1158,
      "neum": 1159,
      "two": 1160,
      "ange": 1161,
      "asis": 1162,
      "mar": 1163,
      "ot": 1164,
      "respectively": 1165,
      "case": 1166,
      "17": 1167,
      "lar": 1168,
      "surgical": 1169,
      "ame": 1170,
      "effects": 1171,
      "However": 1172,
      "sen": 1173,
      "skin": 1174,
      "Pro": 1175,
      "ground": 1176,
      "stat": 1177,
      "tumor": 1178,
      "iciency": 1179,
      "valence": 1180,
      "40": 1181,
      "Diagnosis": 1182,
      "niqu": 1183,
      "oss": 1184,
      "without": 1185,
      "into": 1186,
      "identi": 1187,
      "ared": 1188,
      "95": 1189,
      "ability": 1190,
      "positive": 1191,
      "Objective": 1192,
      "thes": 1193,
      "num": 1194,
      "vac": 1195,
      "pression": 1196,
      "spective": 1197,
      "las": 1198,
      "good": 1199,
      "aging": 1200,
      "Objectives": 1201,
      "tern": 1202,
      "roid": 1203,
      "centr": 1204,
      "ings": 1205,
      "early": 1206,
      "stu": 1207,
      "based": 1208,
      "body": 1209,
      "ackground": 1210,
      "liver": 1211,
      "radi": 1212,
      "top": 1213,
      "aneous": 1214,
      "methods": 1215,
      "tality": 1216,
      "effective": 1217,
      "techniqu": 1218,
      "terior": 1219,
      "ough": 1220,
      "ale": 1221,
      "prim": 1222,
      "antibio": 1223,
      "ages": 1224,
      "hip": 1225,
      "If": 1226,
      "resist": 1227,
      "plas": 1228,
      "dose": 1229,
      "lim": 1230,
      "ft": 1231,
      "serum": 1232,
      "they": 1233,
      "concentr": 1234,
      "Background": 1235,
      "groups": 1236,
      "outcom": 1237,
      "ural": 1238,
      "ise": 1239,
      "ints": 1240,
      "loc": 1241,
      "ography": 1242,
      "ture": 1243,
      "sol": 1244,
      "Su": 1245,
      "knowledge": 1246,
      "hemo": 1247,
      "..": 1248,
      "dep": 1249,
      "fer": 1250,
      "cul": 1251,
      "many": 1252,
      "pneum": 1253,
      "iratory": 1254,
      "ectomy": 1255,
      "For": 1256,
      "artery": 1257,
      "sus": 1258,
      "research": 1259,
      "done": 1260,
      "conduc": 1261,
      "proced": 1262,
      "mortality": 1263,
      "lesions": 1264,
      "pulmonary": 1265,
      "We": 1266,
      "ID": 1267,
      "ancy": 1268,
      "Ph": 1269,
      "tras": 1270,
      "rect": 1271,
      "status": 1272,
      "lym": 1273,
      "amm": 1274,
      "showed": 1275,
      "RI": 1276,
      "%;": 1277,
      "del": 1278,
      "tract": 1279,
      "multi": 1280,
      "find": 1281,
      "invol": 1282,
      "pec": 1283,
      "cells": 1284,
      "action": 1285,
      "tissu": 1286,
      "those": 1287,
      "Uni": 1288,
      "number": 1289,
      "nutrition": 1290,
      "diseases": 1291,
      "score": 1292,
      "lap": 1293,
      "way": 1294,
      "both": 1295,
      "total": 1296,
      "loss": 1297,
      "sug": 1298,
      "chem": 1299,
      "post": 1300,
      "bil": 1301,
      "pat": 1302,
      "ze": 1303,
      "stage": 1304,
      "mall": 1305,
      "dys": 1306,
      "ening": 1307,
      "plant": 1308,
      "org": 1309,
      "prevalence": 1310,
      "gene": 1311,
      "abnormal": 1312,
      "Conclusions": 1313,
      "Cent": 1314,
      "mit": 1315,
      "ological": 1316,
      "idne": 1317,
      "throm": 1318,
      "Ac": 1319,
      "icine": 1320,
      "CI": 1321,
      "vin": 1322,
      "abs": 1323,
      "University": 1324,
      "weeks": 1325,
      "iter": 1326,
      "period": 1327,
      "quality": 1328,
      "sensi": 1329,
      "cording": 1330,
      "life": 1331,
      "bjects": 1332,
      "ound": 1333,
      "injury": 1334,
      "mat": 1335,
      "ptive": 1336,
      "food": 1337,
      "tox": 1338,
      "ive": 1339,
      "mi": 1340,
      "lung": 1341,
      "abor": 1342,
      "MD": 1343,
      "son": 1344,
      "It": 1345,
      "istory": 1346,
      "examination": 1347,
      "tial": 1348,
      "ca": 1349,
      "work": 1350,
      "ially": 1351,
      "operative": 1352,
      "sam": 1353,
      "caused": 1354,
      "current": 1355,
      "termine": 1356,
      "hypertension": 1357,
      "micro": 1358,
      "pri": 1359,
      "tumors": 1360,
      "diagnosed": 1361,
      "23": 1362,
      "chol": 1363,
      "line": 1364,
      "bit": 1365,
      "arr": 1366,
      "cut": 1367,
      "hepati": 1368,
      "small": 1369,
      "lev": 1370,
      "Al": 1371,
      "lymph": 1372,
      "stand": 1373,
      "like": 1374,
      "onia": 1375,
      "eng": 1376,
      "Pre": 1377,
      "prote": 1378,
      "mil": 1379,
      "infections": 1380,
      "thor": 1381,
      "value": 1382,
      "commun": 1383,
      "sep": 1384,
      "assi": 1385,
      "IC": 1386,
      "ocy": 1387,
      "sever": 1388,
      "inflamm": 1389,
      "22": 1390,
      "Evalu": 1391,
      "tem": 1392,
      "kidne": 1393,
      "neuro": 1394,
      "thyroid": 1395,
      "Some": 1396,
      "Symptoms": 1397,
      "new": 1398,
      "ventric": 1399,
      "bone": 1400,
      "AR": 1401,
      "AS": 1402,
      "increase": 1403,
      "phys": 1404,
      "dominal": 1405,
      "frequ": 1406,
      "intra": 1407,
      "conducted": 1408,
      "left": 1409,
      "agement": 1410,
      "imp": 1411,
      "He": 1412,
      "respiratory": 1413,
      "tor": 1414,
      "fract": 1415,
      "primary": 1416,
      "improve": 1417,
      "tig": 1418,
      "particular": 1419,
      "fy": 1420,
      "dex": 1421,
      "chang": 1422,
      "formation": 1423,
      "hypo": 1424,
      "kg": 1425,
      "depend": 1426,
      "az": 1427,
      "acid": 1428,
      "ied": 1429,
      "comm": 1430,
      "opath": 1431,
      "cinoma": 1432,
      "2022": 1433,
      "gest": 1434,
      "compared": 1435,
      "CR": 1436,
      "right": 1437,
      "bleeding": 1438,
      "suc": 1439,
      "ata": 1440,
      "toper": 1441,
      "21": 1442,
      "ultras": 1443,
      "provin": 1444,
      "90": 1445,
      "erg": 1446,
      "predic": 1447,
      "01": 1448,
      "No": 1449,
      "practi": 1450,
      "chool": 1451,
      "significantly": 1452,
      "found": 1453,
      "import": 1454,
      "anes": 1455,
      "80": 1456,
      "33": 1457,
      "NA": 1458,
      "yl": 1459,
      "male": 1460,
      "intest": 1461,
      "cons": 1462,
      "termin": 1463,
      "measure": 1464,
      "35": 1465,
      "Po": 1466,
      "studies": 1467,
      "ateral": 1468,
      "feat": 1469,
      "uce": 1470,
      "aterial": 1471,
      "statis": 1472,
      "2021": 1473,
      "history": 1474,
      "jor": 1475,
      "female": 1476,
      "cir": 1477,
      "testing": 1478,
      "through": 1479,
      "head": 1480,
      "cm": 1481,
      "yo": 1482,
      "lead": 1483,
      "espec": 1484,
      "sing": 1485,
      "effect": 1486,
      "determine": 1487,
      "tissue": 1488,
      "atal": 1489,
      "occ": 1490,
      "mental": 1491,
      "especially": 1492,
      "Mo": 1493,
      "ution": 1494,
      "hyp": 1495,
      "toperative": 1496,
      "place": 1497,
      "following": 1498,
      "ick": 1499,
      "ties": 1500,
      "whe": 1501,
      "bro": 1502,
      "OR": 1503,
      "vic": 1504,
      "pan": 1505,
      "tests": 1506,
      "contin": 1507,
      "obstruc": 1508,
      "stro": 1509,
      "nal": 1510,
      "28": 1511,
      "verse": 1512,
      "ning": 1513,
      "abdominal": 1514,
      "AP": 1515,
      "portion": 1516,
      "descriptive": 1517,
      "general": 1518,
      "mut": 1519,
      "rare": 1520,
      "response": 1521,
      "activity": 1522,
      "fluid": 1523,
      "poly": 1524,
      "tend": 1525,
      "concentration": 1526,
      "mod": 1527,
      "fication": 1528,
      "tol": 1529,
      "70": 1530,
      "technique": 1531,
      "second": 1532,
      "students": 1533,
      "sin": 1534,
      "cap": 1535,
      "36": 1536,
      "rati": 1537,
      "see": 1538,
      "ray": 1539,
      "urg": 1540,
      "viewed": 1541,
      "45": 1542,
      "management": 1543,
      "traum": 1544,
      "aged": 1545,
      "important": 1546,
      "utes": 1547,
      "aphy": 1548,
      "sible": 1549,
      "kidney": 1550,
      "death": 1551,
      "iat": 1552,
      "itation": 1553,
      "coron": 1554,
      "ml": 1555,
      "ste": 1556,
      "initi": 1557,
      "pregnancy": 1558,
      "Patient": 1559,
      "pneumonia": 1560,
      "tical": 1561,
      "organ": 1562,
      "75": 1563,
      "AT": 1564,
      "tically": 1565,
      "ms": 1566,
      "accounted": 1567,
      "inary": 1568,
      "lapar": 1569,
      "Clinical": 1570,
      "relations": 1571,
      "relation": 1572,
      "according": 1573,
      "ologic": 1574,
      "features": 1575,
      "Af": 1576,
      "percent": 1577,
      "virus": 1578,
      "48": 1579,
      "ake": 1580,
      "try": 1581,
      "Tr": 1582,
      "survi": 1583,
      "breast": 1584,
      "commend": 1585,
      "recommend": 1586,
      "ventricular": 1587,
      "major": 1588,
      "ited": 1589,
      "ori": 1590,
      "neg": 1591,
      "Ad": 1592,
      "given": 1593,
      "ocardi": 1594,
      "performed": 1595,
      "practice": 1596,
      "signs": 1597,
      "intestinal": 1598,
      "vestig": 1599,
      "remo": 1600,
      "large": 1601,
      "ratio": 1602,
      "inhi": 1603,
      "HC": 1604,
      "isto": 1605,
      "negative": 1606,
      "protein": 1607,
      "ption": 1608,
      "vit": 1609,
      "province": 1610,
      "her": 1611,
      "ret": 1612,
      "analysis": 1613,
      "cardiac": 1614,
      "success": 1615,
      "tivity": 1616,
      "venous": 1617,
      "fusion": 1618,
      "enz": 1619,
      "within": 1620,
      "fever": 1621,
      "decreased": 1622,
      "sh": 1623,
      "reco": 1624,
      "minutes": 1625,
      "ritis": 1626,
      "27": 1627,
      "26": 1628,
      "Stud": 1629,
      "ped": 1630,
      "Ex": 1631,
      "aw": 1632,
      "fac": 1633,
      "31": 1634,
      "ulin": 1635,
      "aining": 1636,
      "difference": 1637,
      "By": 1638,
      "itu": 1639,
      "necess": 1640,
      "ones": 1641,
      "proportion": 1642,
      "procedure": 1643,
      "coll": 1644,
      "abol": 1645,
      "aim": 1646,
      "aryn": 1647,
      "table": 1648,
      "ps": 1649,
      "coronary": 1650,
      "hol": 1651,
      "psy": 1652,
      "IN": 1653,
      "city": 1654,
      "dy": 1655,
      "erate": 1656,
      "iatric": 1657,
      "grade": 1658,
      "dro": 1659,
      "fam": 1660,
      "AL": 1661,
      "complete": 1662,
      "All": 1663,
      "postoperative": 1664,
      "different": 1665,
      "then": 1666,
      "AC": 1667,
      "pal": 1668,
      "deficiency": 1669,
      "rence": 1670,
      "orrh": 1671,
      "susp": 1672,
      "findings": 1673,
      "sed": 1674,
      "imaging": 1675,
      "Hy": 1676,
      "itary": 1677,
      "001": 1678,
      "particularly": 1679,
      "oster": 1680,
      "occurs": 1681,
      "asing": 1682,
      "prog": 1683,
      "mission": 1684,
      "manif": 1685,
      "ily": 1686,
      "prevent": 1687,
      "sequ": 1688,
      "relationship": 1689,
      "Ne": 1690,
      "resistance": 1691,
      "size": 1692,
      "ST": 1693,
      "vised": 1694,
      "veness": 1695,
      "hand": 1696,
      "sometimes": 1697,
      "2020": 1698,
      "Most": 1699,
      "ples": 1700,
      "oscopy": 1701,
      "Sep": 1702,
      "After": 1703,
      "ust": 1704,
      "rep": 1705,
      "suff": 1706,
      "gluc": 1707,
      "appear": 1708,
      "Study": 1709,
      "typically": 1710,
      "genital": 1711,
      "lip": 1712,
      ");": 1713,
      "them": 1714,
      "changes": 1715,
      "ines": 1716,
      "Se": 1717,
      "aren": 1718,
      "xim": 1719,
      "brain": 1720,
      "bed": 1721,
      "labor": 1722,
      "tensive": 1723,
      "expos": 1724,
      "dist": 1725,
      "65": 1726,
      "hum": 1727,
      "necessary": 1728,
      "ently": 1729,
      "nerve": 1730,
      "adv": 1731,
      "carcinoma": 1732,
      "32": 1733,
      "scre": 1734,
      "mem": 1735,
      "Department": 1736,
      "MI": 1737,
      "bral": 1738,
      "angi": 1739,
      "stroke": 1740,
      "block": 1741,
      "theter": 1742,
      "ub": 1743,
      "require": 1744,
      "Educ": 1745,
      "sensitivity": 1746,
      "index": 1747,
      "ib": 1748,
      "get": 1749,
      "criter": 1750,
      "bal": 1751,
      "jo": 1752,
      "survival": 1753,
      "Sign": 1754,
      "process": 1755,
      "Education": 1756,
      "ano": 1757,
      "shor": 1758,
      "inhibit": 1759,
      "rece": 1760,
      "29": 1761,
      "highest": 1762,
      "cult": 1763,
      "arc": 1764,
      "34": 1765,
      "ogen": 1766,
      "sex": 1767,
      "having": 1768,
      "idence": 1769,
      "omy": 1770,
      "ectiveness": 1771,
      "types": 1772,
      "conside": 1773,
      "considered": 1774,
      "mol": 1775,
      "active": 1776,
      "trict": 1777,
      "ume": 1778,
      "contr": 1779,
      "echan": 1780,
      "physical": 1781,
      "tak": 1782,
      "37": 1783,
      "retro": 1784,
      "ster": 1785,
      "toxic": 1786,
      "gastro": 1787,
      "Children": 1788,
      "safe": 1789,
      "ventil": 1790,
      "cere": 1791,
      "position": 1792,
      "evaluation": 1793,
      "hen": 1794,
      "water": 1795,
      "Dis": 1796,
      "38": 1797,
      "PE": 1798,
      "safety": 1799,
      "ole": 1800,
      "ovascular": 1801,
      "appropri": 1802,
      "View": 1803,
      "rest": 1804,
      "direct": 1805,
      "diffic": 1806,
      "aden": 1807,
      "HIV": 1808,
      "Revised": 1809,
      "histo": 1810,
      "factor": 1811,
      "cutaneous": 1812,
      "tit": 1813,
      "Reviewed": 1814,
      "classi": 1815,
      "Medical": 1816,
      "Result": 1817,
      "chest": 1818,
      "oids": 1819,
      "metabol": 1820,
      "grow": 1821,
      "nod": 1822,
      "bir": 1823,
      "These": 1824,
      "educ": 1825,
      "percentage": 1826,
      "mark": 1827,
      "MRI": 1828,
      "2019": 1829,
      "criteria": 1830,
      "determin": 1831,
      "identify": 1832,
      "glo": 1833,
      "tre": 1834,
      "ae": 1835,
      "older": 1836,
      "catheter": 1837,
      "gener": 1838,
      "antibiotics": 1839,
      "gram": 1840,
      "elec": 1841,
      "adults": 1842,
      "rup": 1843,
      "manifest": 1844,
      "experi": 1845,
      "Signs": 1846,
      "Jan": 1847,
      "local": 1848,
      "ES": 1849,
      "Chi": 1850,
      "ately": 1851,
      "oste": 1852,
      "avail": 1853,
      "biop": 1854,
      "elev": 1855,
      "hea": 1856,
      "ator": 1857,
      "anal": 1858,
      "lex": 1859,
      "child": 1860,
      "hemorrh": 1861,
      "needed": 1862,
      "metast": 1863,
      "ema": 1864,
      "invas": 1865,
      "67": 1866,
      "nurs": 1867,
      "statistically": 1868,
      "ergen": 1869,
      "SA": 1870,
      "neon": 1871,
      "pop": 1872,
      "birth": 1873,
      "laparoscopic": 1874,
      "vey": 1875,
      "progn": 1876,
      "mild": 1877,
      "ters": 1878,
      "derly": 1879,
      "ecting": 1880,
      "asal": 1881,
      "PD": 1882,
      "upper": 1883,
      "correlation": 1884,
      "hemat": 1885,
      "trauma": 1886,
      "muscle": 1887,
      "investig": 1888,
      "spinal": 1889,
      "school": 1890,
      "uary": 1891,
      "simil": 1892,
      "opathy": 1893,
      "role": 1894,
      "shock": 1895,
      "similar": 1896,
      "itor": 1897,
      "still": 1898,
      "area": 1899,
      "thesia": 1900,
      "will": 1901,
      "omas": 1902,
      "reli": 1903,
      "sal": 1904,
      "bar": 1905,
      "qui": 1906,
      "42": 1907,
      "volume": 1908,
      "multiple": 1909,
      "rates": 1910,
      "icacy": 1911,
      "lled": 1912,
      "mid": 1913,
      "leep": 1914,
      "vag": 1915,
      "Gen": 1916,
      "person": 1917,
      "data": 1918,
      "transplant": 1919,
      "row": 1920,
      "outcomes": 1921,
      "analy": 1922,
      "thromb": 1923,
      "ious": 1924,
      "phal": 1925,
      "reduce": 1926,
      "ER": 1927,
      "ium": 1928,
      "repor": 1929,
      "smo": 1930,
      "neph": 1931,
      "effectiveness": 1932,
      "39": 1933,
      "mechan": 1934,
      "moderate": 1935,
      "55": 1936,
      "Ass": 1937,
      "pancre": 1938,
      "Medicine": 1939,
      "duration": 1940,
      "outcome": 1941,
      "arth": 1942,
      "72": 1943,
      "AD": 1944,
      "though": 1945,
      "dos": 1946,
      "scal": 1947,
      "dam": 1948,
      "glucose": 1949,
      "Minh": 1950,
      "VID": 1951,
      "aterials": 1952,
      "elderly": 1953,
      "mother": 1954,
      "CD": 1955,
      "tration": 1956,
      "poor": 1957,
      "rectal": 1958,
      "included": 1959,
      "ulcer": 1960,
      "infants": 1961,
      "EN": 1962,
      "followed": 1963,
      "confir": 1964,
      "ons": 1965,
      "suspected": 1966,
      "vical": 1967,
      "operation": 1968,
      "ith": 1969,
      "unt": 1970,
      "46": 1971,
      "each": 1972,
      "III": 1973,
      "change": 1974,
      "trial": 1975,
      "open": 1976,
      "On": 1977,
      "ature": 1978,
      "ultrasound": 1979,
      "ditional": 1980,
      "ortic": 1981,
      "dysfunction": 1982,
      "Im": 1983,
      "appropriate": 1984,
      "Ab": 1985,
      "urinary": 1986,
      "possible": 1987,
      "pen": 1988,
      "erc": 1989,
      "antibiotic": 1990,
      "pur": 1991,
      "dified": 1992,
      "report": 1993,
      "ques": 1994,
      "affected": 1995,
      "53": 1996,
      "mL": 1997,
      "43": 1998,
      "range": 1999,
      "central": 2000,
      "HB": 2001,
      "samples": 2002,
      "esoph": 2003,
      "combination": 2004,
      "eu": 2005,
      "bacteria": 2006,
      "commonly": 2007,
      "44": 2008,
      "deg": 2009,
      "immune": 2010,
      "85": 2011,
      "ison": 2012,
      "lear": 2013,
      "tran": 2014,
      "ision": 2015,
      "amp": 2016,
      "prevention": 2017,
      "bur": 2018,
      "face": 2019,
      "biopsy": 2020,
      "infarc": 2021,
      "inflammatory": 2022,
      "available": 2023,
      "combined": 2024,
      "Points": 2025,
      "vious": 2026,
      "fic": 2027,
      "heal": 2028,
      "onset": 2029,
      "ld": 2030,
      "while": 2031,
      "bacterial": 2032,
      "iting": 2033,
      "plac": 2034,
      "US": 2035,
      "muc": 2036,
      "havi": 2037,
      "continu": 2038,
      "proble": 2039,
      "asp": 2040,
      "induc": 2041,
      "ischem": 2042,
      "oft": 2043,
      "district": 2044,
      "47": 2045,
      "enter": 2046,
      "bol": 2047,
      "department": 2048,
      "anterior": 2049,
      "mass": 2050,
      "poten": 2051,
      "family": 2052,
      "flap": 2053,
      "ng": 2054,
      "AN": 2055,
      "anemia": 2056,
      "41": 2057,
      "evaluated": 2058,
      "myocardi": 2059,
      "eth": 2060,
      "recei": 2061,
      "56": 2062,
      "Des": 2063,
      "2018": 2064,
      "Co": 2065,
      "diagnostic": 2066,
      "plasma": 2067,
      "obstruction": 2068,
      "rapid": 2069,
      "indicated": 2070,
      "hepatitis": 2071,
      "placement": 2072,
      "abl": 2073,
      "...": 2074,
      "uter": 2075,
      "lying": 2076,
      "increasing": 2077,
      "58": 2078,
      "TH": 2079,
      "Un": 2080,
      "prospective": 2081,
      "mitted": 2082,
      "must": 2083,
      "satis": 2084,
      "known": 2085,
      "Evaluation": 2086,
      "being": 2087,
      "ocal": 2088,
      "pheral": 2089,
      "adder": 2090,
      "incidence": 2091,
      "isol": 2092,
      "ains": 2093,
      "reduced": 2094,
      "sleep": 2095,
      "fet": 2096,
      "cortic": 2097,
      "efficacy": 2098,
      "abnormalities": 2099,
      "mptomatic": 2100,
      "attit": 2101,
      "yen": 2102,
      "adi": 2103,
      "ules": 2104,
      "2017": 2105,
      "obser": 2106,
      "vitamin": 2107,
      "systemic": 2108,
      "Per": 2109,
      "oxy": 2110,
      "96": 2111,
      "causing": 2112,
      "chemo": 2113,
      "Inf": 2114,
      "ring": 2115,
      "plied": 2116,
      "anesthesia": 2117,
      "behavi": 2118,
      "hydro": 2119,
      "plate": 2120,
      "flow": 2121,
      "injection": 2122,
      "areas": 2123,
      "severity": 2124,
      "successful": 2125,
      "ditions": 2126,
      "paren": 2127,
      "auto": 2128,
      "ran": 2129,
      "als": 2130,
      "cohol": 2131,
      "mer": 2132,
      "oth": 2133,
      "):": 2134,
      "reas": 2135,
      "every": 2136,
      "monitor": 2137,
      "Other": 2138,
      "wn": 2139,
      "Research": 2140,
      "Surg": 2141,
      "66": 2142,
      "ry": 2143,
      "even": 2144,
      "sugges": 2145,
      "initial": 2146,
      "edema": 2147,
      "soft": 2148,
      "progres": 2149,
      "self": 2150,
      "National": 2151,
      "does": 2152,
      "ef": 2153,
      "arthritis": 2154,
      "atitis": 2155,
      "subjects": 2156,
      "57": 2157,
      "ton": 2158,
      "tribut": 2159,
      "ental": 2160,
      "Dec": 2161,
      "cum": 2162,
      "ergency": 2163,
      "64": 2164,
      "exposure": 2165,
      "went": 2166,
      "minim": 2167,
      "ize": 2168,
      "COVID": 2169,
      "divid": 2170,
      "decrease": 2171,
      "dil": 2172,
      "exp": 2173,
      "62": 2174,
      "sten": 2175,
      "vities": 2176,
      "complication": 2177,
      "nea": 2178,
      "pregnant": 2179,
      "ventilation": 2180,
      "perit": 2181,
      "free": 2182,
      "cervical": 2183,
      "morph": 2184,
      "injuries": 2185,
      "hepat": 2186,
      "likely": 2187,
      "thorac": 2188,
      "52": 2189,
      "pose": 2190,
      "conditions": 2191,
      "sto": 2192,
      "tention": 2193,
      "avoid": 2194,
      "stim": 2195,
      "En": 2196,
      "adj": 2197,
      "growth": 2198,
      "esity": 2199,
      "illary": 2200,
      "73": 2201,
      "increases": 2202,
      "000": 2203,
      "vaccin": 2204,
      "recurrent": 2205,
      "site": 2206,
      "better": 2207,
      "71": 2208,
      "invasive": 2209,
      "cine": 2210,
      "required": 2211,
      "recommended": 2212,
      "49": 2213,
      "2015": 2214,
      "SS": 2215,
      "Table": 2216,
      "amine": 2217,
      "January": 2218,
      "Health": 2219,
      "resection": 2220,
      "infarction": 2221,
      "state": 2222,
      "IL": 2223,
      "61": 2224,
      "mainly": 2225,
      "short": 2226,
      "den": 2227,
      "carri": 2228,
      "graphy": 2229,
      "corticoster": 2230,
      "As": 2231,
      "don": 2232,
      "again": 2233,
      "diet": 2234,
      "stric": 2235,
      "evid": 2236,
      "aring": 2237,
      "great": 2238,
      "information": 2239,
      "76": 2240,
      "thal": 2241,
      "54": 2242,
      "Central": 2243,
      "bene": 2244,
      "regim": 2245,
      "let": 2246,
      "86": 2247,
      "achi": 2248,
      "provid": 2249,
      "clin": 2250,
      "AB": 2251,
      "tained": 2252,
      "phosp": 2253,
      "light": 2254,
      "plement": 2255,
      "PV": 2256,
      "flex": 2257,
      "infected": 2258,
      "bodies": 2259,
      "stress": 2260,
      "cemia": 2261,
      "Can": 2262,
      "thetic": 2263,
      "model": 2264,
      "arly": 2265,
      "describe": 2266,
      "vement": 2267,
      "Mean": 2268,
      "pu": 2269,
      "cyto": 2270,
      "adverse": 2271,
      "bject": 2272,
      "uria": 2273,
      "Center": 2274,
      "single": 2275,
      "thma": 2276,
      "approach": 2277,
      "asy": 2278,
      "idi": 2279,
      "ok": 2280,
      "malign": 2281,
      "2012": 2282,
      "peripheral": 2283,
      "bladder": 2284,
      "hormon": 2285,
      "itus": 2286,
      "degree": 2287,
      "ula": 2288,
      "remain": 2289,
      "ources": 2290,
      "IO": 2291,
      "cler": 2292,
      "2010": 2293,
      "influ": 2294,
      "bor": 2295,
      "ger": 2296,
      "situ": 2297,
      "enc": 2298,
      "standard": 2299,
      "off": 2300,
      "posterior": 2301,
      "97": 2302,
      "same": 2303,
      "uch": 2304,
      "abil": 2305,
      "var": 2306,
      "died": 2307,
      "88": 2308,
      "congenital": 2309,
      "Over": 2310,
      "51": 2311,
      "ength": 2312,
      "electro": 2313,
      "With": 2314,
      "alcohol": 2315,
      "Binh": 2316,
      "ule": 2317,
      "urine": 2318,
      "depression": 2319,
      "stenosis": 2320,
      "vation": 2321,
      "three": 2322,
      "Subjects": 2323,
      "bron": 2324,
      "applied": 2325,
      "extrac": 2326,
      "few": 2327,
      "support": 2328,
      "omic": 2329,
      "tuber": 2330,
      "cus": 2331,
      "scan": 2332,
      "gastrointestinal": 2333,
      "BC": 2334,
      "guyen": 2335,
      "ible": 2336,
      "culture": 2337,
      "education": 2338,
      "lum": 2339,
      "wide": 2340,
      "medic": 2341,
      "damage": 2342,
      "anoi": 2343,
      "young": 2344,
      "achie": 2345,
      "several": 2346,
      "cour": 2347,
      "leu": 2348,
      "Jun": 2349,
      "vide": 2350,
      "suggest": 2351,
      "allow": 2352,
      "workers": 2353,
      "ie": 2354,
      "assessment": 2355,
      "endoscopic": 2356,
      "joint": 2357,
      "did": 2358,
      "cardiovascular": 2359,
      "hepatic": 2360,
      "anced": 2361,
      "EC": 2362,
      "myocardial": 2363,
      "scop": 2364,
      "83": 2365,
      "ester": 2366,
      "actic": 2367,
      "gastric": 2368,
      "chemotherapy": 2369,
      "opic": 2370,
      "arterial": 2371,
      "reported": 2372,
      "92": 2373,
      "activities": 2374,
      "Cho": 2375,
      "mening": 2376,
      "gly": 2377,
      "cyst": 2378,
      "2016": 2379,
      "obesity": 2380,
      "Materials": 2381,
      "oti": 2382,
      "prot": 2383,
      "graf": 2384,
      "oplas": 2385,
      "ances": 2386,
      "fat": 2387,
      "wel": 2388,
      "specificity": 2389,
      "human": 2390,
      "At": 2391,
      "68": 2392,
      "secondary": 2393,
      "tar": 2394,
      "medicine": 2395,
      "Oc": 2396,
      "fracture": 2397,
      "condition": 2398,
      "location": 2399,
      "63": 2400,
      "tiology": 2401,
      "Col": 2402,
      "development": 2403,
      "wound": 2404,
      "apy": 2405,
      "2013": 2406,
      "radiation": 2407,
      "screening": 2408,
      "resistant": 2409,
      "embol": 2410,
      "orally": 2411,
      "defin": 2412,
      "59": 2413,
      "uth": 2414,
      "could": 2415,
      "laboratory": 2416,
      "Rec": 2417,
      "ished": 2418,
      "General": 2419,
      "detect": 2420,
      "underwent": 2421,
      "trig": 2422,
      "ergic": 2423,
      "78": 2424,
      "doc": 2425,
      "accur": 2426,
      "ites": 2427,
      "viral": 2428,
      "When": 2429,
      "69": 2430,
      "least": 2431,
      "uring": 2432,
      "needle": 2433,
      "cerebral": 2434,
      "transplantation": 2435,
      "reduction": 2436,
      "stay": 2437,
      "Hanoi": 2438,
      "arch": 2439,
      "zed": 2440,
      "Dr": 2441,
      "Par": 2442,
      "syn": 2443,
      "OF": 2444,
      "logic": 2445,
      "uong": 2446,
      "sinus": 2447,
      "manifestations": 2448,
      "hemorrhage": 2449,
      "gin": 2450,
      "against": 2451,
      "axis": 2452,
      "creat": 2453,
      "Pr": 2454,
      "omal": 2455,
      "93": 2456,
      "grad": 2457,
      "PCR": 2458,
      "vices": 2459,
      "particip": 2460,
      "length": 2461,
      "insulin": 2462,
      "87": 2463,
      "2011": 2464,
      "chrom": 2465,
      "betic": 2466,
      "hyth": 2467,
      "pel": 2468,
      "asthma": 2469,
      "82": 2470,
      "prof": 2471,
      "osa": 2472,
      "plication": 2473,
      "City": 2474,
      "Ray": 2475,
      "bul": 2476,
      "idity": 2477,
      "HO": 2478,
      "amo": 2479,
      "equ": 2480,
      "vs": 2481,
      "colon": 2482,
      "difficult": 2483,
      "pharm": 2484,
      "mes": 2485,
      "illness": 2486,
      "psych": 2487,
      "rine": 2488,
      "cept": 2489,
      "mutations": 2490,
      "ences": 2491,
      "sider": 2492,
      "until": 2493,
      "enign": 2494,
      "deli": 2495,
      "Anti": 2496,
      "98": 2497,
      "pho": 2498,
      "uni": 2499,
      "Ig": 2500,
      "once": 2501,
      "91": 2502,
      "toxicity": 2503,
      "inflammation": 2504,
      "previous": 2505,
      "improved": 2506,
      "measured": 2507,
      "dischar": 2508,
      "wa": 2509,
      "urther": 2510,
      "guide": 2511,
      "phen": 2512,
      "lla": 2513,
      "2014": 2514,
      "diarr": 2515,
      "exerc": 2516,
      "anat": 2517,
      "neck": 2518,
      "Nguyen": 2519,
      "thesis": 2520,
      "cium": 2521,
      "serious": 2522,
      "survey": 2523,
      "lesion": 2524,
      "genetic": 2525,
      "chi": 2526,
      "actions": 2527,
      "84": 2528,
      "identified": 2529,
      "metabolic": 2530,
      "valve": 2531,
      "ways": 2532,
      "Hem": 2533,
      "detected": 2534,
      "emergency": 2535,
      "81": 2536,
      "evidence": 2537,
      "wall": 2538,
      "seiz": 2539,
      "May": 2540,
      "hic": 2541,
      "rosis": 2542,
      "ageal": 2543,
      "points": 2544,
      "question": 2545,
      "94": 2546,
      "xi": 2547,
      "minis": 2548,
      "Modified": 2549,
      "sk": 2550,
      "alb": 2551,
      "elevated": 2552,
      "adequ": 2553,
      "count": 2554,
      "fractures": 2555,
      "controlled": 2556,
      "tolic": 2557,
      "Ar": 2558,
      "itive": 2559,
      "design": 2560,
      "thir": 2561,
      "leuk": 2562,
      "prognosis": 2563,
      "Eff": 2564,
      "set": 2565,
      "world": 2566,
      "compar": 2567,
      "oxygen": 2568,
      "77": 2569,
      "MS": 2570,
      "scale": 2571,
      "vaccine": 2572,
      "tubercul": 2573,
      "icians": 2574,
      "aine": 2575,
      "certain": 2576,
      "cles": 2577,
      "eye": 2578,
      "vaginal": 2579,
      "ward": 2580,
      "feeding": 2581,
      "Descri": 2582,
      "induced": 2583,
      "prolong": 2584,
      "ram": 2585,
      "PR": 2586,
      "thick": 2587,
      "atr": 2588,
      "diabetic": 2589,
      "point": 2590,
      "Dise": 2591,
      "%);": 2592,
      "74": 2593,
      "geal": 2594,
      "analges": 2595,
      "collected": 2596,
      "potential": 2597,
      "ove": 2598,
      "stones": 2599,
      "lor": 2600,
      "CS": 2601,
      "ink": 2602,
      "plan": 2603,
      "DL": 2604,
      "acer": 2605,
      "extre": 2606,
      "ont": 2607,
      "shows": 2608,
      "relative": 2609,
      "nasal": 2610,
      "oles": 2611,
      "nephro": 2612,
      "End": 2613,
      "Hyper": 2614,
      "enzy": 2615,
      "lines": 2616,
      "ocial": 2617,
      "doses": 2618,
      "sens": 2619,
      "MC": 2620,
      "benef": 2621,
      "useful": 2622,
      "Le": 2623,
      "ides": 2624,
      "tube": 2625,
      "Fe": 2626,
      "clo": 2627,
      "ureter": 2628,
      "99": 2629,
      "pass": 2630,
      "ns": 2631,
      "mand": 2632,
      "ask": 2633,
      "Acute": 2634,
      "back": 2635,
      "classification": 2636,
      "peritone": 2637,
      "program": 2638,
      "ache": 2639,
      "Pos": 2640,
      "overall": 2641,
      "azole": 2642,
      "vom": 2643,
      "aryngeal": 2644,
      "June": 2645,
      "bility": 2646,
      "beta": 2647,
      "fibro": 2648,
      "Vietnamese": 2649,
      "mothers": 2650,
      "ales": 2651,
      "fibr": 2652,
      "Ser": 2653,
      "bowel": 2654,
      "attitude": 2655,
      "clos": 2656,
      "istent": 2657,
      "89": 2658,
      "become": 2659,
      "mpho": 2660,
      "immedi": 2661,
      "nee": 2662,
      "admission": 2663,
      "however": 2664,
      "From": 2665,
      "benign": 2666,
      "TS": 2667,
      "late": 2668,
      "limited": 2669,
      "They": 2670,
      "umin": 2671,
      "median": 2672,
      "techniques": 2673,
      "diarrhea": 2674,
      "construc": 2675,
      "class": 2676,
      "Ap": 2677,
      "icient": 2678,
      "presence": 2679,
      "malignant": 2680,
      "vision": 2681,
      "irr": 2682,
      "series": 2683,
      "take": 2684,
      "ators": 2685,
      "ards": 2686,
      "otherapy": 2687,
      "viron": 2688,
      "complex": 2689,
      "aortic": 2690,
      "dium": 2691,
      "differenti": 2692,
      "pattern": 2693,
      "contribut": 2694,
      "otomy": 2695,
      "pers": 2696,
      "nutritional": 2697,
      "leg": 2698,
      "calcium": 2699,
      "sepsis": 2700,
      "phosph": 2701,
      "eck": 2702,
      "mell": 2703,
      "ably": 2704,
      "meter": 2705,
      "lateral": 2706,
      "ists": 2707,
      "recurren": 2708,
      "monitoring": 2709,
      "iron": 2710,
      "respond": 2711,
      "ta": 2712,
      "aily": 2713,
      "delay": 2714,
      "isms": 2715,
      "2009": 2716,
      "ained": 2717,
      "population": 2718,
      "region": 2719,
      "bran": 2720,
      "olar": 2721,
      "values": 2722,
      "fetal": 2723,
      "TB": 2724,
      "ophil": 2725,
      "ternal": 2726,
      "Although": 2727,
      "repair": 2728,
      "Assess": 2729,
      "sch": 2730,
      "adhe": 2731,
      "Therefore": 2732,
      "rupture": 2733,
      "frequency": 2734,
      "BMI": 2735,
      "dialysis": 2736,
      "undergo": 2737,
      "ergy": 2738,
      "ycin": 2739,
      "inser": 2740,
      "vary": 2741,
      "onography": 2742,
      "includes": 2743,
      "MR": 2744,
      "quanti": 2745,
      "immuno": 2746,
      "contrast": 2747,
      "ics": 2748,
      "hydr": 2749,
      "correct": 2750,
      "79": 2751,
      "mutation": 2752,
      "rele": 2753,
      "affect": 2754,
      "urys": 2755,
      "esophageal": 2756,
      "delivery": 2757,
      "ophy": 2758,
      "cost": 2759,
      "abscess": 2760,
      "fall": 2761,
      "ls": 2762,
      "aspir": 2763,
      "Ob": 2764,
      "iary": 2765,
      "press": 2766,
      "plications": 2767,
      "atrial": 2768,
      "illin": 2769,
      "Tha": 2770,
      "coma": 2771,
      "phase": 2772,
      "vomiting": 2773,
      "nia": 2774,
      "tomo": 2775,
      "extract": 2776,
      "dysp": 2777,
      "Drug": 2778,
      "rand": 2779,
      "nai": 2780,
      "daily": 2781,
      "troduc": 2782,
      "vessel": 2783,
      "regular": 2784,
      "production": 2785,
      "species": 2786,
      "provide": 2787,
      "domin": 2788,
      "retrospective": 2789,
      "base": 2790,
      "insuff": 2791,
      "Sp": 2792,
      "ood": 2793,
      "hospitals": 2794,
      "transfusion": 2795,
      "DNA": 2796,
      "Nam": 2797,
      "recovery": 2798,
      "vents": 2799,
      "Resources": 2800,
      "Qu": 2801,
      "via": 2802,
      "majority": 2803,
      "ostic": 2804,
      "Subject": 2805,
      "Topic": 2806,
      "hal": 2807,
      "tac": 2808,
      "pediatric": 2809,
      "duct": 2810,
      "although": 2811,
      "situation": 2812,
      "dle": 2813,
      "functional": 2814,
      "Bec": 2815,
      "above": 2816,
      "nurses": 2817,
      "tent": 2818,
      "Mil": 2819,
      "environ": 2820,
      "xiety": 2821,
      "cos": 2822,
      "where": 2823,
      "gy": 2824,
      "echo": 2825,
      "solution": 2826,
      "aid": 2827,
      "pathy": 2828,
      "logy": 2829,
      "hour": 2830,
      "shown": 2831,
      "Because": 2832,
      "ker": 2833,
      "parame": 2834,
      "spl": 2835,
      "fung": 2836,
      "thus": 2837,
      "esis": 2838,
      "admitted": 2839,
      "enh": 2840,
      "prescri": 2841,
      "simp": 2842,
      "reaction": 2843,
      "adminis": 2844,
      "py": 2845,
      "Ty": 2846,
      "received": 2847,
      "smoking": 2848,
      "accounting": 2849,
      "compl": 2850,
      "measures": 2851,
      "du": 2852,
      "att": 2853,
      "absor": 2854,
      "weak": 2855,
      "healthy": 2856,
      "clear": 2857,
      "ectious": 2858,
      "phyl": 2859,
      "lact": 2860,
      "males": 2861,
      "Apr": 2862,
      "lympho": 2863,
      "antigen": 2864,
      "overweight": 2865,
      "corticosteroids": 2866,
      "aria": 2867,
      "addition": 2868,
      "recurrence": 2869,
      "procedures": 2870,
      "carried": 2871,
      "airway": 2872,
      "Thai": 2873,
      "vein": 2874,
      "frequently": 2875,
      "eyes": 2876,
      "adequate": 2877,
      "rectomy": 2878,
      "Pharm": 2879,
      "knee": 2880,
      "estim": 2881,
      "seen": 2882,
      "ischemic": 2883,
      "pyl": 2884,
      "antibodies": 2885,
      "dependent": 2886,
      "CH": 2887,
      "stable": 2888,
      "load": 2889,
      "regimen": 2890,
      "determined": 2891,
      "aneurys": 2892,
      "mmol": 2893,
      "nic": 2894,
      "coli": 2895,
      "detection": 2896,
      "studied": 2897,
      "membr": 2898,
      "last": 2899,
      "investigate": 2900,
      "ential": 2901,
      "lic": 2902,
      "sample": 2903,
      "reach": 2904,
      "rogen": 2905,
      "TI": 2906,
      "replacement": 2907,
      "ash": 2908,
      "hospitalized": 2909,
      "dications": 2910,
      "breath": 2911,
      "strong": 2912,
      "COPD": 2913,
      "aired": 2914,
      "hormone": 2915,
      "ference": 2916,
      "third": 2917,
      "faction": 2918,
      "ember": 2919,
      "bile": 2920,
      "requires": 2921,
      "inhibitors": 2922,
      "pi": 2923,
      "septic": 2924,
      "temper": 2925,
      "repe": 2926,
      "struct": 2927,
      "discharge": 2928,
      "FR": 2929,
      "rarely": 2930,
      "reconstruc": 2931,
      "antic": 2932,
      "node": 2933,
      "idemia": 2934,
      "taken": 2935,
      "random": 2936,
      "assessed": 2937,
      "quired": 2938,
      "longer": 2939,
      "made": 2940,
      "sw": 2941,
      "Blo": 2942,
      "slow": 2943,
      "que": 2944,
      "visual": 2945,
      "improvement": 2946,
      "further": 2947,
      "mechanical": 2948,
      "living": 2949,
      "inte": 2950,
      "trib": 2951,
      "branch": 2952,
      "subst": 2953,
      "training": 2954,
      "internal": 2955,
      "peritoneal": 2956,
      "CA": 2957,
      "bial": 2958,
      "much": 2959,
      "ficial": 2960,
      "stit": 2961,
      "eutic": 2962,
      "ush": 2963,
      "aternal": 2964,
      "Hb": 2965,
      "defects": 2966,
      "intr": 2967,
      "community": 2968,
      "conj": 2969,
      "RE": 2970,
      "record": 2971,
      "ulmonary": 2972,
      "malnutrition": 2973,
      "diameter": 2974,
      "confirmed": 2975,
      "ow": 2976,
      "ina": 2977,
      "asion": 2978,
      "tosis": 2979,
      "resol": 2980,
      "occup": 2981,
      "CP": 2982,
      "recent": 2983,
      "staff": 2984,
      "exercise": 2985,
      "Inter": 2986,
      "publ": 2987,
      "cellular": 2988,
      "impair": 2989,
      "motor": 2990,
      "gland": 2991,
      "neonatal": 2992,
      "hygi": 2993,
      "whether": 2994,
      "urb": 2995,
      "establ": 2996,
      "mellitus": 2997,
      "ferred": 2998,
      "aer": 2999,
      "tuberculosis": 3000,
      "Hue": 3001,
      "Hg": 3002,
      "uted": 3003,
      "osin": 3004,
      "close": 3005,
      "agents": 3006,
      "December": 3007,
      "seg": 3008,
      "infer": 3009,
      "females": 3010,
      "Cardi": 3011,
      "lig": 3012,
      "review": 3013,
      "More": 3014,
      "Cor": 3015,
      "vul": 3016,
      "vice": 3017,
      "Non": 3018,
      ".)": 3019,
      "NS": 3020,
      "engue": 3021,
      "center": 3022,
      "ED": 3023,
      "chemical": 3024,
      "social": 3025,
      "tered": 3026,
      "parameters": 3027,
      "zing": 3028,
      "Military": 3029,
      "distal": 3030,
      "Trans": 3031,
      "problems": 3032,
      "stimul": 3033,
      "anxiety": 3034,
      "leading": 3035,
      "endo": 3036,
      "best": 3037,
      "concer": 3038,
      "questionnai": 3039,
      "suppor": 3040,
      "antibody": 3041,
      "deep": 3042,
      "intake": 3043,
      "ien": 3044,
      "acl": 3045,
      "drain": 3046,
      "remia": 3047,
      "IS": 3048,
      "contrac": 3049,
      "isolated": 3050,
      "fist": 3051,
      "Etiology": 3052,
      "products": 3053,
      "SD": 3054,
      "ays": 3055,
      "facil": 3056,
      "defect": 3057,
      "Sur": 3058,
      "ills": 3059,
      "course": 3060,
      "call": 3061,
      "orr": 3062,
      "cardia": 3063,
      "clerosis": 3064,
      "enal": 3065,
      "satisfaction": 3066,
      "bri": 3067,
      "treating": 3068,
      "guid": 3069,
      "rad": 3070,
      "advanced": 3071,
      "Gi": 3072,
      "meth": 3073,
      "taking": 3074,
      "CL": 3075,
      "ank": 3076,
      "logical": 3077,
      "thyroidism": 3078,
      "pathology": 3079,
      "anc": 3080,
      "albumin": 3081,
      "Chronic": 3082,
      "adherence": 3083,
      "mong": 3084,
      "gender": 3085,
      "carb": 3086,
      "ultrasonography": 3087,
      "Disease": 3088,
      "max": 3089,
      "uncture": 3090,
      "thrombosis": 3091,
      "hood": 3092,
      "pelvic": 3093,
      "fil": 3094,
      "stone": 3095,
      "arrhyth": 3096,
      "association": 3097,
      "prolonged": 3098,
      "prob": 3099,
      "anh": 3100,
      "Char": 3101,
      "adoles": 3102,
      "meric": 3103,
      "working": 3104,
      "eld": 3105,
      "removal": 3106,
      "middle": 3107,
      "NP": 3108,
      "Path": 3109,
      "ition": 3110,
      "sour": 3111,
      "special": 3112,
      "real": 3113,
      "resulting": 3114,
      "pread": 3115,
      "highly": 3116,
      "lu": 3117,
      "compon": 3118,
      "lumbar": 3119,
      "arily": 3120,
      "rout": 3121,
      "Jul": 3122,
      "limb": 3123,
      "involved": 3124,
      "proper": 3125,
      "exam": 3126,
      "calcul": 3127,
      "MA": 3128,
      "hold": 3129,
      "OS": 3130,
      "Ret": 3131,
      "ather": 3132,
      "cat": 3133,
      "nursing": 3134,
      "platelet": 3135,
      "epid": 3136,
      "trop": 3137,
      "2008": 3138,
      "Cross": 3139,
      "mc": 3140,
      "hygiene": 3141,
      "Ag": 3142,
      "agulation": 3143,
      "Among": 3144,
      "isk": 3145,
      "108": 3146,
      "mac": 3147,
      "otype": 3148,
      "graft": 3149,
      "ontaneous": 3150,
      "O2": 3151,
      "Do": 3152,
      "bidity": 3153,
      "predictive": 3154,
      "temperature": 3155,
      "make": 3156,
      "target": 3157,
      "Be": 3158,
      "stop": 3159,
      "experience": 3160,
      "Blood": 3161,
      "02": 3162,
      "routine": 3163,
      "epide": 3164,
      "tribution": 3165,
      "acquired": 3166,
      "consum": 3167,
      "teeth": 3168,
      "Li": 3169,
      "ulder": 3170,
      "Common": 3171,
      "ses": 3172,
      "needs": 3173,
      "03": 3174,
      "Americ": 3175,
      "symptom": 3176,
      "ausea": 3177,
      "add": 3178,
      "observed": 3179,
      "others": 3180,
      "continuous": 3181,
      "canal": 3182,
      "strains": 3183,
      "bronch": 3184,
      "tries": 3185,
      "icillin": 3186,
      "pancreatic": 3187,
      "ull": 3188,
      "cancers": 3189,
      "adult": 3190,
      "ither": 3191,
      "molec": 3192,
      "therapeutic": 3193,
      "surface": 3194,
      "you": 3195,
      "welling": 3196,
      "white": 3197,
      "clinically": 3198,
      "obtained": 3199,
      "suggests": 3200,
      "lack": 3201,
      "prophyl": 3202,
      "maxim": 3203,
      "GI": 3204,
      "utro": 3205,
      "yst": 3206,
      "underlying": 3207,
      "Aug": 3208,
      "mouth": 3209,
      "tomography": 3210,
      "foot": 3211,
      "emp": 3212,
      "ticular": 3213,
      "secre": 3214,
      "bers": 3215,
      "partial": 3216,
      "expl": 3217,
      "undergoing": 3218,
      "thyl": 3219,
      "meningitis": 3220,
      "Many": 3221,
      "HBV": 3222,
      "troduction": 3223,
      "AF": 3224,
      "atives": 3225,
      "phil": 3226,
      "inger": 3227,
      "toma": 3228,
      "uture": 3229,
      "atin": 3230,
      "thel": 3231,
      "Nor": 3232,
      "ito": 3233,
      "varian": 3234,
      "headache": 3235,
      "ogly": 3236,
      "sodium": 3237,
      "sensitive": 3238,
      "version": 3239,
      "School": 3240,
      "intrac": 3241,
      "onic": 3242,
      "izing": 3243,
      "developed": 3244,
      "kal": 3245,
      "Or": 3246,
      "dental": 3247,
      "BP": 3248,
      "isted": 3249,
      "resid": 3250,
      "AV": 3251,
      "various": 3252,
      "ranial": 3253,
      "vered": 3254,
      "arteries": 3255,
      "onomic": 3256,
      "preoperative": 3257,
      "Ce": 3258,
      "ocar": 3259,
      "tub": 3260,
      "seizures": 3261,
      "consider": 3262,
      "tin": 3263,
      "cid": 3264,
      "rin": 3265,
      "tur": 3266,
      "plus": 3267,
      "recogn": 3268,
      "pleural": 3269,
      "asionally": 3270,
      "tation": 3271,
      "effusion": 3272,
      "star": 3273,
      "unds": 3274,
      "neurologic": 3275,
      "initis": 3276,
      "another": 3277,
      "occurred": 3278,
      "Risk": 3279,
      "events": 3280,
      "essential": 3281,
      "06": 3282,
      "issu": 3283,
      "PI": 3284,
      "sul": 3285,
      "omer": 3286,
      "examined": 3287,
      "Evaluate": 3288,
      "around": 3289,
      "agon": 3290,
      "infectious": 3291,
      "treatments": 3292,
      "HF": 3293,
      "metastasis": 3294,
      "asymptomatic": 3295,
      "Pe": 3296,
      "nerv": 3297,
      "concentrations": 3298,
      "Prevention": 3299,
      "Phy": 3300,
      "habil": 3301,
      "roup": 3302,
      "ye": 3303,
      "countries": 3304,
      "epis": 3305,
      "containing": 3306,
      "allergic": 3307,
      "siology": 3308,
      "tracheal": 3309,
      "Sometimes": 3310,
      "home": 3311,
      "greater": 3312,
      "amount": 3313,
      "xed": 3314,
      "seud": 3315,
      "ICU": 3316,
      "sexual": 3317,
      "NT": 3318,
      "Tra": 3319,
      "Surgical": 3320,
      "Man": 3321,
      "check": 3322,
      "scores": 3323,
      "lymphoma": 3324,
      "echocardi": 3325,
      "otic": 3326,
      "suscep": 3327,
      "Infection": 3328,
      "angle": 3329,
      "placed": 3330,
      "A1": 3331,
      "problem": 3332,
      "progression": 3333,
      "expression": 3334,
      "obstructive": 3335,
      "heum": 3336,
      "encephal": 3337,
      "operated": 3338,
      "characterized": 3339,
      "dividual": 3340,
      "otid": 3341,
      "nodes": 3342,
      "uterine": 3343,
      "So": 3344,
      "sum": 3345,
      "lysis": 3346,
      "spontaneous": 3347,
      "relatively": 3348,
      "uble": 3349,
      "oxid": 3350,
      "PL": 3351,
      "arean": 3352,
      "apar": 3353,
      "recorded": 3354,
      "chy": 3355,
      "contamin": 3356,
      "append": 3357,
      "progressive": 3358,
      "Complications": 3359,
      "stetric": 3360,
      "xy": 3361,
      "fast": 3362,
      "nausea": 3363,
      "omes": 3364,
      "maintain": 3365,
      "insufficiency": 3366,
      "helps": 3367,
      "oriasis": 3368,
      "application": 3369,
      "draw": 3370,
      "frequent": 3371,
      "recep": 3372,
      "excl": 3373,
      "tens": 3374,
      "acet": 3375,
      "iod": 3376,
      "advant": 3377,
      "maternal": 3378,
      "enia": 3379,
      "occus": 3380,
      "ables": 3381,
      "io": 3382,
      "cran": 3383,
      "biliary": 3384,
      "lipid": 3385,
      "Fact": 3386,
      "dL": 3387,
      "cholester": 3388,
      "nat": 3389,
      "obj": 3390,
      "adrenal": 3391,
      "cannot": 3392,
      "mature": 3393,
      "achieved": 3394,
      "Dinh": 3395,
      "compare": 3396,
      "tool": 3397,
      "loid": 3398,
      "DM": 3399,
      "cav": 3400,
      "put": 3401,
      "super": 3402,
      "versus": 3403,
      "affecting": 3404,
      "acerb": 3405,
      "pap": 3406,
      "practic": 3407,
      "CRP": 3408,
      "contact": 3409,
      "ographic": 3410,
      "Surgery": 3411,
      "habilitation": 3412,
      "orectal": 3413,
      "vo": 3414,
      "respon": 3415,
      "forms": 3416,
      "pylori": 3417,
      "DS": 3418,
      "dens": 3419,
      "spor": 3420,
      "Ep": 3421,
      "hat": 3422,
      "tle": 3423,
      "differences": 3424,
      "typical": 3425,
      "facial": 3426,
      "asc": 3427,
      "rent": 3428,
      "confirm": 3429,
      "Character": 3430,
      "hepato": 3431,
      "tachy": 3432,
      "RO": 3433,
      "percutaneous": 3434,
      "correc": 3435,
      "ogenic": 3436,
      "fibrosis": 3437,
      "drainage": 3438,
      "possi": 3439,
      "subclinical": 3440,
      "tors": 3441,
      "globin": 3442,
      "iness": 3443,
      "dry": 3444,
      "tempor": 3445,
      "reconstruction": 3446,
      "cough": 3447,
      "mice": 3448,
      "university": 3449,
      "called": 3450,
      "promis": 3451,
      "services": 3452,
      "blas": 3453,
      "dominant": 3454,
      "unit": 3455,
      "begin": 3456,
      "full": 3457,
      "nel": 3458,
      "down": 3459,
      "Neuro": 3460,
      "creatin": 3461,
      "Introduction": 3462,
      "iasis": 3463,
      "reducing": 3464,
      "rapidly": 3465,
      "release": 3466,
      "04": 3467,
      "tooth": 3468,
      "receptor": 3469,
      "RS": 3470,
      "root": 3471,
      "limit": 3472,
      "Pur": 3473,
      "acity": 3474,
      "behavior": 3475,
      "iv": 3476,
      "chlor": 3477,
      "itch": 3478,
      "come": 3479,
      "pot": 3480,
      "four": 3481,
      "foreign": 3482,
      "break": 3483,
      "rhosis": 3484,
      "later": 3485,
      "ru": 3486,
      "Dan": 3487,
      "proxim": 3488,
      "strate": 3489,
      "ECG": 3490,
      "Hear": 3491,
      "almost": 3492,
      "lith": 3493,
      "fully": 3494,
      "gestational": 3495,
      "fibrill": 3496,
      "structure": 3497,
      "reng": 3498,
      "specim": 3499,
      "transfer": 3500,
      "morbidity": 3501,
      "See": 3502,
      "onin": 3503,
      "exacerb": 3504,
      "necrosis": 3505,
      "extrem": 3506,
      "ian": 3507,
      "ime": 3508,
      "Ly": 3509,
      "lit": 3510,
      "cephal": 3511,
      "cogn": 3512,
      "poison": 3513,
      "individual": 3514,
      "titis": 3515,
      "traditional": 3516,
      "thoracic": 3517,
      "height": 3518,
      "generation": 3519,
      "Our": 3520,
      "tw": 3521,
      "verte": 3522,
      "lipidemia": 3523,
      "PT": 3524,
      "generally": 3525,
      "thelial": 3526,
      "ga": 3527,
      "nar": 3528,
      "bac": 3529,
      "images": 3530,
      "selected": 3531,
      "choice": 3532,
      "stool": 3533,
      "access": 3534,
      "neonates": 3535,
      "compo": 3536,
      "Gas": 3537,
      "hearing": 3538,
      "2007": 3539,
      "tility": 3540,
      "ubation": 3541,
      "medications": 3542,
      "simple": 3543,
      "gue": 3544,
      "rang": 3545,
      "ucle": 3546,
      "topical": 3547,
      "Duc": 3548,
      "stitute": 3549,
      "AM": 3550,
      "stic": 3551,
      "defined": 3552,
      "implant": 3553,
      "uncti": 3554,
      "regard": 3555,
      "contrain": 3556,
      "altern": 3557,
      "marrow": 3558,
      "foc": 3559,
      "direc": 3560,
      "pathological": 3561,
      "ovarian": 3562,
      "lytic": 3563,
      "plasia": 3564,
      "iance": 3565,
      "sci": 3566,
      "Ha": 3567,
      "external": 3568,
      "shoulder": 3569,
      "Ul": 3570,
      "defic": 3571,
      "topic": 3572,
      "Using": 3573,
      "membrane": 3574,
      "].": 3575,
      "bu": 3576,
      "sia": 3577,
      "implement": 3578,
      "Group": 3579,
      "ament": 3580,
      "agul": 3581,
      "below": 3582,
      "cessive": 3583,
      "benefit": 3584,
      "opor": 3585,
      "neutro": 3586,
      "symptomatic": 3587,
      "Disorder": 3588,
      "orig": 3589,
      "sim": 3590,
      "timal": 3591,
      "ocular": 3592,
      "entia": 3593,
      "directly": 3594,
      "Bach": 3595,
      "circum": 3596,
      "Early": 3597,
      "ibular": 3598,
      "xia": 3599,
      "onal": 3600,
      "infusion": 3601,
      "content": 3602,
      "rit": 3603,
      "gia": 3604,
      "occlusion": 3605,
      "how": 3606,
      "Characteris": 3607,
      "ubin": 3608,
      "hypertensive": 3609,
      "enzyme": 3610,
      "Multi": 3611,
      "bulin": 3612,
      "CE": 3613,
      "Know": 3614,
      "pes": 3615,
      "reactions": 3616,
      "spine": 3617,
      "progress": 3618,
      "gran": 3619,
      "July": 3620,
      "acin": 3621,
      "hospitalization": 3622,
      "characteristic": 3623,
      "ischemia": 3624,
      "cents": 3625,
      "pha": 3626,
      "thral": 3627,
      "atigue": 3628,
      "involves": 3629,
      "cirrhosis": 3630,
      "tended": 3631,
      "distress": 3632,
      "ware": 3633,
      "erythe": 3634,
      "April": 3635,
      "March": 3636,
      "pol": 3637,
      "toc": 3638,
      "mentation": 3639,
      "techn": 3640,
      "impaired": 3641,
      "Rel": 3642,
      "land": 3643,
      "alone": 3644,
      "accid": 3645,
      "intensive": 3646,
      "always": 3647,
      "orb": 3648,
      "nit": 3649,
      "step": 3650,
      "nervous": 3651,
      "tingu": 3652,
      "caps": 3653,
      "Mai": 3654,
      "either": 3655,
      "energy": 3656,
      "ression": 3657,
      "aph": 3658,
      "fraction": 3659,
      "My": 3660,
      "distingu": 3661,
      "word": 3662,
      "tissues": 3663,
      "Assessment": 3664,
      "ination": 3665,
      "laser": 3666,
      "aims": 3667,
      "Long": 3668,
      "zation": 3669,
      "accomp": 3670,
      "angiography": 3671,
      "PS": 3672,
      "gar": 3673,
      "lot": 3674,
      "proto": 3675,
      "involvement": 3676,
      "toler": 3677,
      "namic": 3678,
      "Min": 3679,
      "demon": 3680,
      "bly": 3681,
      "arthro": 3682,
      "dem": 3683,
      "prostate": 3684,
      "divided": 3685,
      "public": 3686,
      "During": 3687,
      "your": 3688,
      "uses": 3689,
      "August": 3690,
      "Cancer": 3691,
      "scar": 3692,
      "atro": 3693,
      "tober": 3694,
      "valent": 3695,
      "Progn": 3696,
      "HCC": 3697,
      "questionnaire": 3698,
      "calc": 3699,
      "femoral": 3700,
      "parents": 3701,
      "istry": 3702,
      "tional": 3703,
      "ling": 3704,
      "preterm": 3705,
      "EF": 3706,
      "Factors": 3707,
      "absorption": 3708,
      "interventions": 3709,
      "Of": 3710,
      "aryng": 3711,
      "stent": 3712,
      "opathic": 3713,
      "ape": 3714,
      "supplement": 3715,
      "ged": 3716,
      "reve": 3717,
      "vaccination": 3718,
      "cholesterol": 3719,
      "Hai": 3720,
      "One": 3721,
      "PA": 3722,
      "uration": 3723,
      "fistula": 3724,
      "pa": 3725,
      "Thus": 3726,
      "mias": 3727,
      "cords": 3728,
      "pep": 3729,
      "prognostic": 3730,
      "ophysiology": 3731,
      "prepar": 3732,
      "Gy": 3733,
      "swelling": 3734,
      "ened": 3735,
      "agne": 3736,
      "density": 3737,
      "ler": 3738,
      "tested": 3739,
      "fin": 3740,
      "medication": 3741,
      "weakness": 3742,
      "Nutrition": 3743,
      "tender": 3744,
      "relie": 3745,
      "compression": 3746,
      "epi": 3747,
      "guidelines": 3748,
      "assium": 3749,
      "molar": 3750,
      "ENT": 3751,
      "IDS": 3752,
      "neal": 3753,
      "traumatic": 3754,
      "Heart": 3755,
      "LV": 3756,
      "distribution": 3757,
      "room": 3758,
      "streng": 3759,
      "emo": 3760,
      "tember": 3761,
      "Overview": 3762,
      "occal": 3763,
      "pancreatitis": 3764,
      "esophag": 3765,
      "half": 3766,
      "Retro": 3767,
      "preser": 3768,
      "rays": 3769,
      "spread": 3770,
      "ulty": 3771,
      "lege": 3772,
      "endoscopy": 3773,
      "fungal": 3774,
      "genes": 3775,
      "Car": 3776,
      "Caus": 3777,
      "Tu": 3778,
      "interval": 3779,
      "pharmac": 3780,
      "ply": 3781,
      "alve": 3782,
      "consis": 3783,
      "HA": 3784,
      "ej": 3785,
      "ending": 3786,
      "osinophil": 3787,
      "surge": 3788,
      "milk": 3789,
      "CV": 3790,
      "nail": 3791,
      "thorax": 3792,
      "ACE": 3793,
      "Immun": 3794,
      "persistent": 3795,
      "Pl": 3796,
      "ventional": 3797,
      "ION": 3798,
      "October": 3799,
      "embolism": 3800,
      "Tho": 3801,
      "ification": 3802,
      "would": 3803,
      "aimed": 3804,
      "High": 3805,
      "aphyloc": 3806,
      "Giang": 3807,
      "echocardiography": 3808,
      "agic": 3809,
      "encing": 3810,
      "usc": 3811,
      "developing": 3812,
      "born": 3813,
      "stom": 3814,
      "reason": 3815,
      "example": 3816,
      "irubin": 3817,
      "ureus": 3818,
      "retin": 3819,
      "CSF": 3820,
      "Knowledge": 3821,
      "transi": 3822,
      "accuracy": 3823,
      "tendon": 3824,
      "Ped": 3825,
      "dri": 3826,
      "image": 3827,
      "sys": 3828,
      "involve": 3829,
      "prior": 3830,
      "athy": 3831,
      "bilateral": 3832,
      "Reg": 3833,
      "atology": 3834,
      "fort": 3835,
      "Survey": 3836,
      "08": 3837,
      "Institute": 3838,
      "500": 3839,
      "uric": 3840,
      "enem": 3841,
      "Pharmacy": 3842,
      "LA": 3843,
      "Mor": 3844,
      "sc": 3845,
      "removed": 3846,
      "fibrillation": 3847,
      "GFR": 3848,
      "American": 3849,
      "cognitive": 3850,
      "RNA": 3851,
      "aureus": 3852,
      "mas": 3853,
      "compliance": 3854,
      "suscepti": 3855,
      "creatinine": 3856,
      "attention": 3857,
      "organs": 3858,
      "oporosis": 3859,
      "udes": 3860,
      "scopic": 3861,
      "thickness": 3862,
      "intracranial": 3863,
      "tachycardia": 3864,
      "denti": 3865,
      "pressive": 3866,
      "conjuncti": 3867,
      "aled": 3868,
      "Dia": 3869,
      "immediately": 3870,
      "mcg": 3871,
      "Spec": 3872,
      "pros": 3873,
      "dyspnea": 3874,
      "systolic": 3875,
      "rehabilitation": 3876,
      "icardi": 3877,
      "Thu": 3878,
      "complicated": 3879,
      "VT": 3880,
      "palp": 3881,
      "September": 3882,
      "odes": 3883,
      "chromos": 3884,
      "minor": 3885,
      "develops": 3886,
      "perforation": 3887,
      "classified": 3888,
      "EV": 3889,
      "HPV": 3890,
      "gins": 3891,
      "isting": 3892,
      "capacity": 3893,
      "delayed": 3894,
      "duod": 3895,
      "nas": 3896,
      "assisted": 3897,
      "(>": 3898,
      "appearance": 3899,
      "ella": 3900,
      "MT": 3901,
      "ostomy": 3902,
      "fatigue": 3903,
      "colorectal": 3904,
      "completely": 3905,
      "incision": 3906,
      "Ste": 3907,
      "accounts": 3908,
      "depends": 3909,
      "environment": 3910,
      "successfully": 3911,
      "dementia": 3912,
      "ned": 3913,
      "Average": 3914,
      "solid": 3915,
      "Serum": 3916,
      "sud": 3917,
      "stages": 3918,
      "exc": 3919,
      "cholec": 3920,
      "material": 3921,
      "andid": 3922,
      "intubation": 3923,
      "anesthetic": 3924,
      "analyzed": 3925,
      "vessels": 3926,
      "Ng": 3927,
      "leak": 3928,
      "partum": 3929,
      "glomer": 3930,
      "Prospective": 3931,
      "hemoglobin": 3932,
      "Purpose": 3933,
      "sites": 3934,
      "aspiration": 3935,
      "trum": 3936,
      "ured": 3937,
      "rather": 3938,
      "Characteristics": 3939,
      "Lapar": 3940,
      "resis": 3941,
      "discus": 3942,
      "pler": 3943,
      "infant": 3944,
      "measurement": 3945,
      "thrombocy": 3946,
      "AIDS": 3947,
      "focal": 3948,
      "itable": 3949,
      "2005": 3950,
      "Post": 3951,
      "hs": 3952,
      "proximal": 3953,
      "lat": 3954,
      "depending": 3955,
      "pneumoniae": 3956,
      "ging": 3957,
      "extra": 3958,
      "psoriasis": 3959,
      "leukemia": 3960,
      "Use": 3961,
      "Engl": 3962,
      "Pain": 3963,
      "alle": 3964,
      "umab": 3965,
      "optimal": 3966,
      "aclinical": 3967,
      "potassium": 3968,
      "cystic": 3969,
      "duce": 3970,
      "squ": 3971,
      "regression": 3972,
      "affects": 3973,
      "Is": 3974,
      "prophylaxis": 3975,
      "CK": 3976,
      "FS": 3977,
      "tially": 3978,
      "Keyword": 3979,
      "event": 3980,
      "osal": 3981,
      "opi": 3982,
      "ospor": 3983,
      "pressed": 3984,
      "endoc": 3985,
      "According": 3986,
      "national": 3987,
      "Initi": 3988,
      "bilirubin": 3989,
      "WHO": 3990,
      "foods": 3991,
      "Prognosis": 3992,
      "neu": 3993,
      "standing": 3994,
      "paras": 3995,
      "osup": 3996,
      "movement": 3997,
      "members": 3998,
      "bing": 3999,
      "epidemi": 4000,
      "ician": 4001,
      "impact": 4002,
      "impairment": 4003,
      "organisms": 4004,
      "09": 4005,
      "primarily": 4006,
      "Data": 4007,
      "rheum": 4008,
      "Test": 4009,
      "communication": 4010,
      "cu": 4011,
      "lycer": 4012,
      "occasionally": 4013,
      "restric": 4014,
      "ann": 4015,
      "lowest": 4016,
      "computed": 4017,
      "helpful": 4018,
      "PET": 4019,
      "antico": 4020,
      "Phys": 4021,
      "gall": 4022,
      "mary": 4023,
      "transmission": 4024,
      "mmHg": 4025,
      "2006": 4026,
      "thrombo": 4027,
      "perfusion": 4028,
      "oppler": 4029,
      "correlated": 4030,
      "minute": 4031,
      "Total": 4032,
      "Associ": 4033,
      "istic": 4034,
      "influenz": 4035,
      "ping": 4036,
      "tear": 4037,
      "systems": 4038,
      "intravenous": 4039,
      "software": 4040,
      "Mic": 4041,
      "oil": 4042,
      "diagnose": 4043,
      "described": 4044,
      "administration": 4045,
      "ocarcinoma": 4046,
      "ark": 4047,
      "1st": 4048,
      "LI": 4049,
      "fal": 4050,
      "motion": 4051,
      "paraclinical": 4052,
      "How": 4053,
      "menop": 4054,
      "mitral": 4055,
      "eating": 4056,
      "bot": 4057,
      "practices": 4058,
      "learning": 4059,
      "facilities": 4060,
      "house": 4061,
      "microbial": 4062,
      "dietary": 4063,
      "la": 4064,
      "Prevalence": 4065,
      "widely": 4066,
      "Prim": 4067,
      "molecular": 4068,
      "mobil": 4069,
      "alpha": 4070,
      "2023": 4071,
      "tative": 4072,
      "meet": 4073,
      "demonstr": 4074,
      "pite": 4075,
      "read": 4076,
      "commune": 4077,
      "Contro": 4078,
      "hypotension": 4079,
      "famil": 4080,
      "cysts": 4081,
      "occi": 4082,
      "space": 4083,
      "metastatic": 4084,
      "Comp": 4085,
      "appears": 4086,
      "sudden": 4087,
      "urrent": 4088,
      "perform": 4089,
      "spe": 4090,
      "risks": 4091,
      "ulcers": 4092,
      "encies": 4093,
      "protocol": 4094,
      "agnetic": 4095,
      "lox": 4096,
      "feas": 4097,
      "muscles": 4098,
      "photo": 4099,
      "anas": 4100,
      "vitis": 4101,
      "New": 4102,
      "liter": 4103,
      "matitis": 4104,
      "Investig": 4105,
      "ureteral": 4106,
      "excessive": 4107,
      "mediast": 4108,
      "EP": 4109,
      "xation": 4110,
      "insertion": 4111,
      "poisoning": 4112,
      "gir": 4113,
      "along": 4114,
      "units": 4115,
      "conf": 4116,
      "ipment": 4117,
      "topenia": 4118,
      "retur": 4119,
      "pical": 4120,
      "ulations": 4121,
      "vacaine": 4122,
      "radical": 4123,
      "nodules": 4124,
      "supr": 4125,
      "Causes": 4126,
      "fill": 4127,
      "feel": 4128,
      "hypertro": 4129,
      "residual": 4130,
      "uscitation": 4131,
      "AU": 4132,
      "Sci": 4133,
      "additional": 4134,
      "separ": 4135,
      "College": 4136,
      "analgesia": 4137,
      "(+": 4138,
      "compromis": 4139,
      "bypass": 4140,
      "absence": 4141,
      "advantages": 4142,
      "extraction": 4143,
      "T2": 4144,
      "upi": 4145,
      "avir": 4146,
      "CC": 4147,
      "romes": 4148,
      "Synd": 4149,
      "oplasty": 4150,
      "evaluating": 4151,
      "mye": 4152,
      "receiving": 4153,
      "skills": 4154,
      "07": 4155,
      "hair": 4156,
      "osteoporosis": 4157,
      "splen": 4158,
      "DI": 4159,
      "enough": 4160,
      "English": 4161,
      "BL": 4162,
      "fish": 4163,
      "corneal": 4164,
      "pow": 4165,
      "Clin": 4166,
      "records": 4167,
      "infil": 4168,
      "pulse": 4169,
      "Pathophysiology": 4170,
      "obacter": 4171,
      "threat": 4172,
      "unting": 4173,
      "Bi": 4174,
      "unless": 4175,
      "activ": 4176,
      "phosphate": 4177,
      "fluor": 4178,
      "soci": 4179,
      "prolif": 4180,
      "Low": 4181,
      "provides": 4182,
      "wors": 4183,
      "Age": 4184,
      "mel": 4185,
      "Ca": 4186,
      "culation": 4187,
      "carotid": 4188,
      "improving": 4189,
      "plasty": 4190,
      "initially": 4191,
      "About": 4192,
      "stability": 4193,
      "unknown": 4194,
      "plants": 4195,
      "(<": 4196,
      "enhance": 4197,
      "Primary": 4198,
      "AK": 4199,
      "falls": 4200,
      "Pediatric": 4201,
      "ba": 4202,
      "polyps": 4203,
      "stomach": 4204,
      "LDL": 4205,
      "amy": 4206,
      "predict": 4207,
      "reptoc": 4208,
      "contribute": 4209,
      "BNP": 4210,
      "acidosis": 4211,
      "Cy": 4212,
      "wr": 4213,
      "Diff": 4214,
      "MP": 4215,
      "eas": 4216,
      "coagulation": 4217,
      "metabolism": 4218,
      "adolescents": 4219,
      "Out": 4220,
      "clinicians": 4221,
      "ession": 4222,
      "located": 4223,
      "Fr": 4224,
      "play": 4225,
      "hemical": 4226,
      "decreases": 4227,
      "indicate": 4228,
      "vitro": 4229,
      "Cal": 4230,
      "bas": 4231,
      "mur": 4232,
      "field": 4233,
      "product": 4234,
      "ats": 4235,
      "physi": 4236,
      "athyroid": 4237,
      "healing": 4238,
      "pH": 4239,
      "acup": 4240,
      "doi": 4241,
      "participants": 4242,
      "autoimmune": 4243,
      "arrhythmias": 4244,
      "enced": 4245,
      "Sub": 4246,
      "elevation": 4247,
      "relief": 4248,
      "120": 4249,
      "lea": 4250,
      "counsel": 4251,
      "gradually": 4252,
      "Disorders": 4253,
      "ME": 4254,
      "she": 4255,
      "nex": 4256,
      "quite": 4257,
      "hypogly": 4258,
      "aque": 4259,
      "periodon": 4260,
      "remains": 4261,
      "cycl": 4262,
      "diffuse": 4263,
      "disturb": 4264,
      "lymphocy": 4265,
      "posed": 4266,
      "color": 4267,
      "itored": 4268,
      "stetrics": 4269,
      "Case": 4270,
      "gon": 4271,
      "rs": 4272,
      "omat": 4273,
      "inhibitor": 4274,
      "estimated": 4275,
      "Met": 4276,
      "asse": 4277,
      "thanol": 4278,
      "setting": 4279,
      "maximum": 4280,
      "T3": 4281,
      "TN": 4282,
      "war": 4283,
      "monitored": 4284,
      "productive": 4285,
      "steroid": 4286,
      "summary": 4287,
      "consequ": 4288,
      "Resp": 4289,
      "ituitary": 4290,
      "origin": 4291,
      "round": 4292,
      "dias": 4293,
      "conclusion": 4294,
      "RT": 4295,
      "aund": 4296,
      "igure": 4297,
      "utions": 4298,
      "independent": 4299,
      "Severe": 4300,
      "Wor": 4301,
      "thin": 4302,
      "ongue": 4303,
      "AND": 4304,
      "prolifer": 4305,
      "dengue": 4306,
      "ified": 4307,
      "Care": 4308,
      "MO": 4309,
      "clus": 4310,
      "media": 4311,
      "epidural": 4312,
      "suitable": 4313,
      "mandibular": 4314,
      "omical": 4315,
      "diver": 4316,
      "HbA1": 4317,
      "comparison": 4318,
      "ore": 4319,
      "slight": 4320,
      "ogens": 4321,
      "cemic": 4322,
      "bes": 4323,
      "galy": 4324,
      "except": 4325,
      "Thanh": 4326,
      "compounds": 4327,
      "larger": 4328,
      "attack": 4329,
      "source": 4330,
      "2nd": 4331,
      "Mal": 4332,
      "UR": 4333,
      "insp": 4334,
      "ticul": 4335,
      "efficiency": 4336,
      "endome": 4337,
      "joints": 4338,
      "VAS": 4339,
      "ias": 4340,
      "thalm": 4341,
      "Vit": 4342,
      "che": 4343,
      "anim": 4344,
      "aware": 4345,
      "mostly": 4346,
      "aundice": 4347,
      "ered": 4348,
      "hom": 4349,
      "LD": 4350,
      "sar": 4351,
      "conn": 4352,
      "paralysis": 4353,
      "osteo": 4354,
      "dissection": 4355,
      "emic": 4356,
      "assay": 4357,
      "structures": 4358,
      "contracep": 4359,
      "Evaluating": 4360,
      "ethnic": 4361,
      "sions": 4362,
      "kele": 4363,
      "epile": 4364,
      "purpose": 4365,
      "immediate": 4366,
      "enro": 4367,
      "noted": 4368,
      "presented": 4369,
      "Fi": 4370,
      "amide": 4371,
      "conventional": 4372,
      "modified": 4373,
      "System": 4374,
      "Laparoscopic": 4375,
      "2004": 4376,
      "immunosup": 4377,
      "hort": 4378,
      "statistical": 4379,
      "little": 4380,
      "Aim": 4381,
      "ACT": 4382,
      "Pa": 4383,
      "onitis": 4384,
      "ilateral": 4385,
      "relap": 4386,
      "caregi": 4387,
      "Radi": 4388,
      "equi": 4389,
      "People": 4390,
      "triglycer": 4391,
      "segment": 4392,
      "err": 4393,
      "chall": 4394,
      "produce": 4395,
      "medium": 4396,
      "mask": 4397,
      "Information": 4398,
      "150": 4399,
      "truc": 4400,
      "sensory": 4401,
      "inferior": 4402,
      "orth": 4403,
      "lling": 4404,
      "marked": 4405,
      "HCMC": 4406,
      "herni": 4407,
      "reflex": 4408,
      "randomized": 4409,
      "El": 4410,
      "hab": 4411,
      "consti": 4412,
      "whole": 4413,
      "opharyngeal": 4414,
      "breathing": 4415,
      "sulf": 4416,
      "Dong": 4417,
      "prep": 4418,
      "cesarean": 4419,
      "HR": 4420,
      "hemody": 4421,
      "absent": 4422,
      "ocyte": 4423,
      "aneurysm": 4424,
      "uman": 4425,
      "prec": 4426,
      "genotype": 4427,
      "Gia": 4428,
      "tile": 4429,
      "upus": 4430,
      "mance": 4431,
      "lapse": 4432,
      "near": 4433,
      "cultures": 4434,
      "components": 4435,
      "lay": 4436,
      "osus": 4437,
      "portal": 4438,
      "economic": 4439,
      "pericardi": 4440,
      "Jo": 4441,
      "flux": 4442,
      "Oral": 4443,
      "accep": 4444,
      "methyl": 4445,
      "igr": 4446,
      "toxin": 4447,
      "electroly": 4448,
      "wal": 4449,
      "ised": 4450,
      "withdraw": 4451,
      "oneph": 4452,
      "making": 4453,
      "icitis": 4454,
      "accompan": 4455,
      "consumption": 4456,
      "specimens": 4457,
      "gan": 4458,
      "curve": 4459,
      "interview": 4460,
      "minh": 4461,
      "subcutaneous": 4462,
      "perior": 4463,
      "ocytes": 4464,
      "temp": 4465,
      "markers": 4466,
      "clinic": 4467,
      "alternative": 4468,
      "Gu": 4469,
      "HE": 4470,
      "ument": 4471,
      "llar": 4472,
      "cious": 4473,
      "Sup": 4474,
      "onat": 4475,
      "band": 4476,
      "nose": 4477,
      "swe": 4478,
      "surance": 4479,
      "remove": 4480,
      "THE": 4481,
      "Au": 4482,
      "GA": 4483,
      "Gl": 4484,
      "childhood": 4485,
      "closure": 4486,
      "repeated": 4487,
      "strength": 4488,
      "Pres": 4489,
      "onance": 4490,
      "amous": 4491,
      "thyro": 4492,
      "Tum": 4493,
      "ises": 4494,
      "dermatitis": 4495,
      "NI": 4496,
      "decom": 4497,
      "circulation": 4498,
      "provided": 4499,
      "vertebral": 4500,
      "sac": 4501,
      "rot": 4502,
      "chan": 4503,
      "ligament": 4504,
      "neur": 4505,
      "osing": 4506,
      "osclerosis": 4507,
      "leads": 4508,
      "Physical": 4509,
      "eosinophil": 4510,
      "erous": 4511,
      "agent": 4512,
      "wash": 4513,
      "tenance": 4514,
      "Intra": 4515,
      "syndromes": 4516,
      "distinguish": 4517,
      "too": 4518,
      "oxide": 4519,
      "dyslipidemia": 4520,
      "TR": 4521,
      "mill": 4522,
      "donor": 4523,
      "quantitative": 4524,
      "hepatocellular": 4525,
      "resuscitation": 4526,
      "hemodialysis": 4527,
      "Hoa": 4528,
      "produced": 4529,
      "mechanism": 4530,
      "Control": 4531,
      "],": 4532,
      "hemorrhagic": 4533,
      "idiopathic": 4534,
      "Ultras": 4535,
      "pituitary": 4536,
      "agg": 4537,
      "transmitted": 4538,
      "corticosteroid": 4539,
      "establish": 4540,
      "embr": 4541,
      "mucosal": 4542,
      "othorax": 4543,
      "viet": 4544,
      "soon": 4545,
      "Syndrome": 4546,
      "pup": 4547,
      "concern": 4548,
      "TP": 4549,
      "erythro": 4550,
      "rash": 4551,
      "tongue": 4552,
      "mucosa": 4553,
      "accurate": 4554,
      "onatremia": 4555,
      "link": 4556,
      "performance": 4557,
      "cranial": 4558,
      "tili": 4559,
      "biological": 4560,
      "myel": 4561,
      "producing": 4562,
      "morphology": 4563,
      "stimulation": 4564,
      "objective": 4565,
      "possibly": 4566,
      "icular": 4567,
      "phic": 4568,
      "deficits": 4569,
      "diastolic": 4570,
      "chain": 4571,
      "protective": 4572,
      "TO": 4573,
      "suggested": 4574,
      "Retrospective": 4575,
      "Cer": 4576,
      "SAR": 4577,
      "contain": 4578,
      "opo": 4579,
      "exper": 4580,
      "what": 4581,
      "teach": 4582,
      "ks": 4583,
      "reduces": 4584,
      "keletal": 4585,
      "domen": 4586,
      "attemp": 4587,
      "mediate": 4588,
      "finding": 4589,
      "scopy": 4590,
      "inol": 4591,
      "1000": 4592,
      "hernia": 4593,
      "Type": 4594,
      "rd": 4595,
      "ord": 4596,
      "malaria": 4597,
      "postpartum": 4598,
      "granul": 4599,
      "Gastro": 4600,
      "FD": 4601,
      "jaundice": 4602,
      "va": 4603,
      "outpatient": 4604,
      "electr": 4605,
      "regimens": 4606,
      "LE": 4607,
      "pene": 4608,
      "twice": 4609,
      "rim": 4610,
      "loon": 4611,
      "deaths": 4612,
      "variate": 4613,
      "girls": 4614,
      "counseling": 4615,
      "Doppler": 4616,
      "past": 4617,
      "acent": 4618,
      "healthcare": 4619,
      "HCV": 4620,
      "minimal": 4621,
      "resonance": 4622,
      "tral": 4623,
      "Der": 4624,
      "Sim": 4625,
      "flo": 4626,
      "just": 4627,
      "kes": 4628,
      "Staphyloc": 4629,
      "reference": 4630,
      "quid": 4631,
      "double": 4632,
      "vaccines": 4633,
      "Diabetes": 4634,
      "superior": 4635,
      "auth": 4636,
      "presentation": 4637,
      "conscious": 4638,
      "Neon": 4639,
      "Describe": 4640,
      "macro": 4641,
      "enrolled": 4642,
      "kinson": 4643,
      "Sec": 4644,
      "atoid": 4645,
      "inges": 4646,
      "perman": 4647,
      "plex": 4648,
      "bow": 4649,
      "authors": 4650,
      "(%)": 4651,
      "TE": 4652,
      "significance": 4653,
      "variable": 4654,
      "PhD": 4655,
      "optic": 4656,
      "preferred": 4657,
      "omegaly": 4658,
      "retinal": 4659,
      "metastases": 4660,
      "night": 4661,
      "deform": 4662,
      "fron": 4663,
      "usual": 4664,
      "caries": 4665,
      "Compar": 4666,
      "indications": 4667,
      "continence": 4668,
      "exposed": 4669,
      "T4": 4670,
      "cology": 4671,
      "nh": 4672,
      "semin": 4673,
      "premature": 4674,
      "Inj": 4675,
      "peak": 4676,
      "ultaneous": 4677,
      "five": 4678,
      "lymphaden": 4679,
      "natural": 4680,
      "Em": 4681,
      "ots": 4682,
      "zy": 4683,
      "receive": 4684,
      "Pulmonary": 4685,
      "iring": 4686,
      "nucle": 4687,
      "pg": 4688,
      "lets": 4689,
      "idine": 4690,
      "move": 4691,
      "trials": 4692,
      "profession": 4693,
      "tenderness": 4694,
      "said": 4695,
      "veget": 4696,
      "dig": 4697,
      "elim": 4698,
      "amino": 4699,
      "Food": 4700,
      "Identi": 4701,
      "ded": 4702,
      "finger": 4703,
      "regurg": 4704,
      "differentiated": 4705,
      "established": 4706,
      "cavity": 4707,
      "IG": 4708,
      "wards": 4709,
      "train": 4710,
      "uded": 4711,
      "Pregn": 4712,
      "hematoma": 4713,
      "closed": 4714,
      "HDL": 4715,
      "Initial": 4716,
      "promo": 4717,
      "conser": 4718,
      "2000": 4719,
      "sper": 4720,
      "urity": 4721,
      "operating": 4722,
      "indicators": 4723,
      "accompanied": 4724,
      "tly": 4725,
      "hes": 4726,
      "atus": 4727,
      "orbital": 4728,
      "PP": 4729,
      "cence": 4730,
      "trim": 4731,
      "episodes": 4732,
      "pseud": 4733,
      "ili": 4734,
      "genic": 4735,
      "antimicrobial": 4736,
      "standards": 4737,
      "penia": 4738,
      "border": 4739,
      "locations": 4740,
      "difficulty": 4741,
      "spectrum": 4742,
      "icle": 4743,
      "varies": 4744,
      "HS": 4745,
      "benz": 4746,
      "excre": 4747,
      "necology": 4748,
      "attitudes": 4749,
      "ON": 4750,
      "ket": 4751,
      "live": 4752,
      "hypergly": 4753,
      "description": 4754,
      "stitial": 4755,
      "assemia": 4756,
      "3rd": 4757,
      "RBC": 4758,
      "ived": 4759,
      "six": 4760,
      "oglo": 4761,
      "benefits": 4762,
      "oten": 4763,
      "utum": 4764,
      "pathogens": 4765,
      "supple": 4766,
      "Hepati": 4767,
      "reached": 4768,
      "])": 4769,
      "reflux": 4770,
      "Quang": 4771,
      "VA": 4772,
      "strain": 4773,
      "painful": 4774,
      "narrow": 4775,
      "anatomical": 4776,
      "300": 4777,
      "devices": 4778,
      "IU": 4779,
      "ests": 4780,
      "ogram": 4781,
      "aneurysms": 4782,
      "Mar": 4783,
      "ode": 4784,
      "pation": 4785,
      "stor": 4786,
      "device": 4787,
      "mineral": 4788,
      "cold": 4789,
      "tensity": 4790,
      "ores": 4791,
      "disability": 4792,
      "core": 4793,
      "blockers": 4794,
      "balance": 4795,
      "influenza": 4796,
      "lamp": 4797,
      "ching": 4798,
      "prost": 4799,
      "saline": 4800,
      "avy": 4801,
      "currently": 4802,
      "hypothyroidism": 4803,
      "occupational": 4804,
      "orrhea": 4805,
      "T1": 4806,
      "Tri": 4807,
      "previously": 4808,
      "atrophy": 4809,
      "instr": 4810,
      "abdomen": 4811,
      "103": 4812,
      "Consider": 4813,
      "Thi": 4814,
      "personal": 4815,
      "transpor": 4816,
      "wave": 4817,
      "upivacaine": 4818,
      "magnetic": 4819,
      "uncommon": 4820,
      "Phu": 4821,
      "patterns": 4822,
      "acupuncture": 4823,
      "oman": 4824,
      "IM": 4825,
      "qual": 4826,
      "tends": 4827,
      "ventive": 4828,
      "traction": 4829,
      "Micro": 4830,
      "Mon": 4831,
      "depth": 4832,
      "balloon": 4833,
      "adenocarcinoma": 4834,
      "liquid": 4835,
      "etiology": 4836,
      "far": 4837,
      "acne": 4838,
      "ressive": 4839,
      "quick": 4840,
      "proteins": 4841,
      "neuropathy": 4842,
      "allowing": 4843,
      "alveolar": 4844,
      "sph": 4845,
      "excision": 4846,
      "na": 4847,
      "terms": 4848,
      "Drugs": 4849,
      "usp": 4850,
      "cycle": 4851,
      "(+)": 4852,
      "har": 4853,
      "amni": 4854,
      "endocrine": 4855,
      "Bac": 4856,
      "migr": 4857,
      "ulated": 4858,
      "oxidant": 4859,
      "tip": 4860,
      "urethral": 4861,
      "whose": 4862,
      "bioc": 4863,
      "thromycin": 4864,
      "influence": 4865,
      "designed": 4866,
      "therapies": 4867,
      "give": 4868,
      "Male": 4869,
      "aor": 4870,
      "guided": 4871,
      "Phong": 4872,
      "predicting": 4873,
      "Ur": 4874,
      "cry": 4875,
      "viruses": 4876,
      "pharmacy": 4877,
      "enzymes": 4878,
      "uv": 4879,
      "ception": 4880,
      "litis": 4881,
      "fixation": 4882,
      "IgG": 4883,
      "extreme": 4884,
      "ii": 4885,
      "materials": 4886,
      "staging": 4887,
      "comfort": 4888,
      "cover": 4889,
      "maintenance": 4890,
      "acts": 4891,
      "prop": 4892,
      "seizure": 4893,
      "inking": 4894,
      "ering": 4895,
      "indication": 4896,
      "fetus": 4897,
      "hydration": 4898,
      "usted": 4899,
      "sterile": 4900,
      "Vitamin": 4901,
      "regurgitation": 4902,
      "Fol": 4903,
      "Pneum": 4904,
      "lupus": 4905,
      "formations": 4906,
      "Current": 4907,
      "bic": 4908,
      "otypes": 4909,
      "thres": 4910,
      "Poly": 4911,
      "Br": 4912,
      "inci": 4913,
      "opulmonary": 4914,
      "apply": 4915,
      "lungs": 4916,
      "nos": 4917,
      "yle": 4918,
      "intensity": 4919,
      "ector": 4920,
      "BS": 4921,
      "hard": 4922,
      "uity": 4923,
      "ems": 4924,
      "account": 4925,
      "mixed": 4926,
      "continued": 4927,
      "loxacin": 4928,
      "hoid": 4929,
      "outpatients": 4930,
      "AST": 4931,
      "globulin": 4932,
      "recognized": 4933,
      "HD": 4934,
      "cure": 4935,
      "renatal": 4936,
      "moid": 4937,
      "hyponatremia": 4938,
      "ogenesis": 4939,
      "orbi": 4940,
      "critical": 4941,
      "ocarditis": 4942,
      "sterone": 4943,
      "probably": 4944,
      "scienti": 4945,
      "ocl": 4946,
      "localized": 4947,
      "thought": 4948,
      "permanent": 4949,
      "subsequ": 4950,
      "maxillary": 4951,
      "apenem": 4952,
      "ateg": 4953,
      "involving": 4954,
      "circul": 4955,
      "determination": 4956,
      "iodine": 4957,
      "History": 4958,
      "Sch": 4959,
      "itic": 4960,
      "arrest": 4961,
      "appe": 4962,
      "2003": 4963,
      "achieve": 4964,
      "Gram": 4965,
      "Renal": 4966,
      "sym": 4967,
      "partments": 4968,
      "supportive": 4969,
      "ancies": 4970,
      "irrig": 4971,
      "septal": 4972,
      "consult": 4973,
      "satisfied": 4974,
      "hypoglycemia": 4975,
      "valid": 4976,
      "requiring": 4977,
      "transient": 4978,
      "Fem": 4979,
      "extent": 4980,
      "anomal": 4981,
      "despite": 4982,
      "Determin": 4983,
      "levant": 4984,
      "arynx": 4985,
      "secretion": 4986,
      "ingu": 4987,
      "veins": 4988,
      "stre": 4989,
      "spp": 4990,
      "centers": 4991,
      "yet": 4992,
      "Sever": 4993,
      "invasion": 4994,
      "aerob": 4995,
      "CM": 4996,
      "icin": 4997,
      "ampl": 4998,
      "umb": 4999,
      "preventing": 5000,
      "sig": 5001,
      "spas": 5002,
      "ophthalm": 5003,
      "protection": 5004,
      "bind": 5005,
      "unts": 5006,
      "Her": 5007,
      "NSA": 5008,
      "wise": 5009,
      "illus": 5010,
      "reproductive": 5011,
      "burden": 5012,
      "Descriptive": 5013,
      "uscular": 5014,
      "umbil": 5015,
      "optim": 5016,
      "communes": 5017,
      "thrombocytopenia": 5018,
      "SARS": 5019,
      "Two": 5020,
      "rag": 5021,
      "elid": 5022,
      "pneumothorax": 5023,
      "provinces": 5024,
      "CoV": 5025,
      "Antibio": 5026,
      "appendicitis": 5027,
      "SP": 5028,
      "Val": 5029,
      "Incre": 5030,
      "2002": 5031,
      "nerves": 5032,
      "flaps": 5033,
      "ushing": 5034,
      "pig": 5035,
      "acuity": 5036,
      "ends": 5037,
      "popular": 5038,
      "ablation": 5039,
      "fasting": 5040,
      "ato": 5041,
      "anatomy": 5042,
      "Ninh": 5043,
      "kidneys": 5044,
      "mediastinal": 5045,
      "easily": 5046,
      "weigh": 5047,
      "effectively": 5048,
      "identification": 5049,
      "nephrotic": 5050,
      "slightly": 5051,
      "Bet": 5052,
      "Dengue": 5053,
      "Imp": 5054,
      "vem": 5055,
      "ausal": 5056,
      "changed": 5057,
      "demonstrated": 5058,
      "NSAID": 5059,
      "ensure": 5060,
      "analyze": 5061,
      "doctors": 5062,
      "anastom": 5063,
      "sick": 5064,
      "van": 5065,
      "duodenal": 5066,
      "400": 5067,
      "Vir": 5068,
      "ometric": 5069,
      "since": 5070,
      "breastfeeding": 5071,
      "Liver": 5072,
      "Up": 5073,
      "becomes": 5074,
      "ameth": 5075,
      "ocytosis": 5076,
      "literature": 5077,
      "vietnam": 5078,
      "vember": 5079,
      "fatal": 5080,
      "ices": 5081,
      "diagnosing": 5082,
      "rhinitis": 5083,
      "baseline": 5084,
      "guidance": 5085,
      "extremity": 5086,
      "bon": 5087,
      "output": 5088,
      "gestation": 5089,
      "clearance": 5090,
      "rhyth": 5091,
      "ump": 5092,
      "uclear": 5093,
      "sputum": 5094,
      "Determine": 5095,
      "distance": 5096,
      "HbA1c": 5097,
      "arti": 5098,
      "clean": 5099,
      "author": 5100,
      "cerebro": 5101,
      "burn": 5102,
      "dilation": 5103,
      "preparation": 5104,
      "pupil": 5105,
      "lin": 5106,
      "ino": 5107,
      "tosterone": 5108,
      "service": 5109,
      "regions": 5110,
      "measurements": 5111,
      "explained": 5112,
      "started": 5113,
      "osteoarthritis": 5114,
      "Du": 5115,
      "might": 5116,
      "reser": 5117,
      "Thong": 5118,
      "boys": 5119,
      "frag": 5120,
      "unilateral": 5121,
      "reditary": 5122,
      "Gra": 5123,
      "diure": 5124,
      "utaneous": 5125,
      "interstitial": 5126,
      "collection": 5127,
      "chromat": 5128,
      "Obstetrics": 5129,
      "next": 5130,
      "future": 5131,
      "oses": 5132,
      "extensive": 5133,
      "Indications": 5134,
      "pathologic": 5135,
      "supply": 5136,
      "hands": 5137,
      "medicinal": 5138,
      "squamous": 5139,
      "equivalent": 5140,
      "rig": 5141,
      "suture": 5142,
      "refl": 5143,
      "hypertrophy": 5144,
      "AKI": 5145,
      "gel": 5146,
      "caregivers": 5147,
      "Rare": 5148,
      "µg": 5149,
      "ocaine": 5150,
      "tritis": 5151,
      "expected": 5152,
      "contaminated": 5153,
      "easy": 5154,
      "parathyroid": 5155,
      "abortion": 5156,
      "slowly": 5157,
      "AUC": 5158,
      "accum": 5159,
      "covered": 5160,
      "icide": 5161,
      "investigated": 5162,
      "endotracheal": 5163,
      "leaves": 5164,
      "itate": 5165,
      "itud": 5166,
      "carcin": 5167,
      "kines": 5168,
      "analgesic": 5169,
      "Anat": 5170,
      "potentially": 5171,
      "Normal": 5172,
      "pack": 5173,
      "zinc": 5174,
      "detail": 5175,
      "behaviors": 5176,
      "donors": 5177,
      "correction": 5178,
      "simultaneous": 5179,
      "bab": 5180,
      "illi": 5181,
      "avoided": 5182,
      "Enter": 5183,
      "Association": 5184,
      "inguinal": 5185,
      "retention": 5186,
      "phrine": 5187,
      "entire": 5188,
      "enteric": 5189,
      "apnea": 5190,
      "neoplas": 5191,
      "managed": 5192,
      "continue": 5193,
      "Testing": 5194,
      "gang": 5195,
      "tures": 5196,
      "rever": 5197,
      "ectopic": 5198,
      "resh": 5199,
      "sequencing": 5200,
      "regarding": 5201,
      "threshold": 5202,
      "warm": 5203,
      "insurance": 5204,
      "proBNP": 5205,
      "quad": 5206,
      "United": 5207,
      "his": 5208,
      "remission": 5209,
      "earli": 5210,
      "District": 5211,
      "harm": 5212,
      "resources": 5213,
      "goal": 5214,
      "nonspecific": 5215,
      "superficial": 5216,
      "Bre": 5217,
      "heavy": 5218,
      "aps": 5219,
      "sensation": 5220,
      "pressants": 5221,
      "Plas": 5222,
      "inpatients": 5223,
      "abuse": 5224,
      "November": 5225,
      "fluids": 5226,
      "magn": 5227,
      "diges": 5228,
      "extr": 5229,
      "Also": 5230,
      "encephalitis": 5231,
      "BR": 5232,
      "matic": 5233,
      "vative": 5234,
      "itting": 5235,
      "intraoperative": 5236,
      "puber": 5237,
      "UL": 5238,
      "aes": 5239,
      "hn": 5240,
      "alkal": 5241,
      "begins": 5242,
      "younger": 5243,
      "component": 5244,
      "rheumatoid": 5245,
      "Nh": 5246,
      "gain": 5247,
      "omon": 5248,
      "antioxidant": 5249,
      "feren": 5250,
      "schools": 5251,
      "equipment": 5252,
      "regional": 5253,
      "incontinence": 5254,
      "amma": 5255,
      "estrogen": 5256,
      "unclear": 5257,
      "formula": 5258,
      "reasons": 5259,
      "CG": 5260,
      "DR": 5261,
      "physician": 5262,
      "worldwide": 5263,
      "neutropenia": 5264,
      "basis": 5265,
      "recommendations": 5266,
      "sufficient": 5267,
      "burns": 5268,
      "ocom": 5269,
      "otri": 5270,
      "disc": 5271,
      "Adverse": 5272,
      "itudinal": 5273,
      "inosa": 5274,
      "thern": 5275,
      "detecting": 5276,
      "revealed": 5277,
      "whereas": 5278,
      "threatening": 5279,
      "Ma": 5280,
      "Nhat": 5281,
      "aty": 5282,
      "Organ": 5283,
      "hemodynamic": 5284,
      "Van": 5285,
      "sclerosis": 5286,
      "metry": 5287,
      "pred": 5288,
      "incter": 5289,
      "relieve": 5290,
      "Both": 5291,
      "Women": 5292,
      "ceed": 5293,
      "opress": 5294,
      "recru": 5295,
      "Def": 5296,
      "Postoperative": 5297,
      "prescribed": 5298,
      "challen": 5299,
      "mach": 5300,
      "ensi": 5301,
      "oration": 5302,
      "necro": 5303,
      "AA": 5304,
      "ND": 5305,
      "formed": 5306,
      "catheterization": 5307,
      "erythemat": 5308,
      "TT": 5309,
      "intermit": 5310,
      "ulitis": 5311,
      "dermat": 5312,
      "solutions": 5313,
      "directed": 5314,
      "Respiratory": 5315,
      "void": 5316,
      "comycin": 5317,
      "promp": 5318,
      "applying": 5319,
      "omyopathy": 5320,
      "Lung": 5321,
      "sun": 5322,
      "predis": 5323,
      "Parkinson": 5324,
      "neurom": 5325,
      "feasible": 5326,
      "Step": 5327,
      "predn": 5328,
      "fav": 5329,
      "axillary": 5330,
      "acial": 5331,
      "activation": 5332,
      "indicates": 5333,
      "250": 5334,
      "cortis": 5335,
      "cellent": 5336,
      "induction": 5337,
      "anomalies": 5338,
      "figure": 5339,
      "puncture": 5340,
      "force": 5341,
      "Effects": 5342,
      "comparing": 5343,
      "lactam": 5344,
      "aerug": 5345,
      "epithelial": 5346,
      "anticoagul": 5347,
      "Staphylococcus": 5348,
      "Bo": 5349,
      "PC": 5350,
      "environmental": 5351,
      "issue": 5352,
      "Based": 5353,
      "Skin": 5354,
      "fas": 5355,
      "teral": 5356,
      "demand": 5357,
      "means": 5358,
      "malformations": 5359,
      "requirements": 5360,
      "calculated": 5361,
      "philis": 5362,
      "ocomial": 5363,
      "venom": 5364,
      "efficient": 5365,
      "drinking": 5366,
      "radio": 5367,
      "lymer": 5368,
      "Euro": 5369,
      "Gene": 5370,
      "Op": 5371,
      "VI": 5372,
      "ethanol": 5373,
      "tib": 5374,
      "iration": 5375,
      "existing": 5376,
      "predominant": 5377,
      "Ther": 5378,
      "factory": 5379,
      "Chest": 5380,
      "woman": 5381,
      "throat": 5382,
      "indices": 5383,
      "mix": 5384,
      "parenchy": 5385,
      "embolization": 5386,
      "melan": 5387,
      "OL": 5388,
      "stabil": 5389,
      "net": 5390,
      "menstr": 5391,
      "aucoma": 5392,
      "linear": 5393,
      "sat": 5394,
      "mear": 5395,
      "targe": 5396,
      "categ": 5397,
      "tobac": 5398,
      "heter": 5399,
      "relax": 5400,
      "elbow": 5401,
      "presenting": 5402,
      "CDC": 5403,
      "mpan": 5404,
      "inher": 5405,
      "CO2": 5406,
      "programs": 5407,
      "angina": 5408,
      "Sel": 5409,
      "UTI": 5410,
      "dress": 5411,
      "placent": 5412,
      "Fever": 5413,
      "million": 5414,
      "leb": 5415,
      "fru": 5416,
      "assessing": 5417,
      "waste": 5418,
      "eyelid": 5419,
      "reports": 5420,
      "closely": 5421,
      "menopausal": 5422,
      "LS": 5423,
      "laryngeal": 5424,
      "ogenous": 5425,
      "aphrag": 5426,
      "trimester": 5427,
      "Candid": 5428,
      "lid": 5429,
      "och": 5430,
      "alter": 5431,
      "articular": 5432,
      "carry": 5433,
      "obese": 5434,
      "hyperplasia": 5435,
      "iciencies": 5436,
      "follows": 5437,
      "Pit": 5438,
      "Qual": 5439,
      "Scre": 5440,
      "fresh": 5441,
      "utive": 5442,
      "toward": 5443,
      "parts": 5444,
      "behavioral": 5445,
      "ankle": 5446,
      "consists": 5447,
      "WI": 5448,
      "die": 5449,
      "assist": 5450,
      "achial": 5451,
      "psycho": 5452,
      "emplo": 5453,
      "SI": 5454,
      "gal": 5455,
      "siella": 5456,
      "fatty": 5457,
      "CKD": 5458,
      "plastic": 5459,
      "substance": 5460,
      "kalemia": 5461,
      "aeruginosa": 5462,
      "ising": 5463,
      "wid": 5464,
      "modi": 5465,
      "anyl": 5466,
      "radial": 5467,
      "arent": 5468,
      "compromised": 5469,
      "lens": 5470,
      "conver": 5471,
      "acting": 5472,
      "aorta": 5473,
      "recip": 5474,
      "vascul": 5475,
      "approxim": 5476,
      "experimental": 5477,
      "consequences": 5478,
      "linked": 5479,
      "memory": 5480,
      "reliable": 5481,
      "substances": 5482,
      "tolerance": 5483,
      "onds": 5484,
      "chron": 5485,
      "mediated": 5486,
      "ceptors": 5487,
      "lab": 5488,
      "smear": 5489,
      "thing": 5490,
      "cele": 5491,
      "emph": 5492,
      "excess": 5493,
      "consistent": 5494,
      "screen": 5495,
      "atherosclerosis": 5496,
      "Ger": 5497,
      "preci": 5498,
      "ALT": 5499,
      "bronchial": 5500,
      "prepared": 5501,
      "som": 5502,
      "adhes": 5503,
      "preventive": 5504,
      "Meas": 5505,
      "got": 5506,
      "functions": 5507,
      "Occ": 5508,
      "leakage": 5509,
      "orac": 5510,
      "spectively": 5511,
      "ologist": 5512,
      "therefore": 5513,
      "beginning": 5514,
      "Hel": 5515,
      "RES": 5516,
      "stunting": 5517,
      "awareness": 5518,
      "reversible": 5519,
      "Vac": 5520,
      "somal": 5521,
      "bruary": 5522,
      "binh": 5523,
      "structural": 5524,
      "implantation": 5525,
      "Duong": 5526,
      "NO": 5527,
      "ele": 5528,
      "rich": 5529,
      "entanyl": 5530,
      "heat": 5531,
      "suggesting": 5532,
      "Second": 5533,
      "Hep": 5534,
      "Psy": 5535,
      "itant": 5536,
      "dimen": 5537,
      "dities": 5538,
      "generalized": 5539,
      "laparoscopy": 5540,
      "Hypo": 5541,
      "Endoscopic": 5542,
      "attach": 5543,
      "consciousness": 5544,
      "TG": 5545,
      "urea": 5546,
      "grap": 5547,
      "dosage": 5548,
      "branches": 5549,
      "ues": 5550,
      "reen": 5551,
      "visible": 5552,
      "acids": 5553,
      "Only": 5554,
      "ABG": 5555,
      "false": 5556,
      "avirus": 5557,
      "TC": 5558,
      "bite": 5559,
      "haem": 5560,
      "giving": 5561,
      "sampl": 5562,
      "extremities": 5563,
      "Pseud": 5564,
      "pand": 5565,
      "atri": 5566,
      "ulate": 5567,
      "symp": 5568,
      "communic": 5569,
      "carbon": 5570,
      "uvant": 5571,
      "Rarely": 5572,
      "ET": 5573,
      "rex": 5574,
      "receptors": 5575,
      "viol": 5576,
      "medial": 5577,
      "polymorph": 5578,
      "adjacent": 5579,
      "responding": 5580,
      "departments": 5581,
      "prolapse": 5582,
      "whom": 5583,
      "hyperthyroidism": 5584,
      "inhal": 5585,
      "practition": 5586,
      "Tran": 5587,
      "adjust": 5588,
      "catar": 5589,
      "pepti": 5590,
      "và": 5591,
      "erad": 5592,
      "opia": 5593,
      "lie": 5594,
      "onses": 5595,
      "interest": 5596,
      "contamination": 5597,
      "susceptibility": 5598,
      "idal": 5599,
      "outbreak": 5600,
      "variables": 5601,
      "ventricle": 5602,
      "wounds": 5603,
      "sources": 5604,
      "lac": 5605,
      "excellent": 5606,
      "cyclo": 5607,
      "country": 5608,
      "vaso": 5609,
      "ulties": 5610,
      "trigger": 5611,
      "cholecyst": 5612,
      "basic": 5613,
      "sphincter": 5614,
      "list": 5615,
      "look": 5616,
      "ococcal": 5617,
      "grav": 5618,
      "arteri": 5619,
      "Covid": 5620,
      "anatomic": 5621,
      "epider": 5622,
      "mph": 5623,
      "amination": 5624,
      "incid": 5625,
      "physicians": 5626,
      "return": 5627,
      "anastomosis": 5628,
      "Pan": 5629,
      "key": 5630,
      "proved": 5631,
      "HBs": 5632,
      "esophagus": 5633,
      "families": 5634,
      "Str": 5635,
      "prenatal": 5636,
      "rural": 5637,
      "metal": 5638,
      "oblas": 5639,
      "models": 5640,
      "CNS": 5641,
      "tun": 5642,
      "refract": 5643,
      "agia": 5644,
      "lobe": 5645,
      "nephrectomy": 5646,
      "Hypertension": 5647,
      "focus": 5648,
      "molars": 5649,
      "otensin": 5650,
      "lebsiella": 5651,
      "Good": 5652,
      "otripsy": 5653,
      "intermittent": 5654,
      "LC": 5655,
      "Labor": 5656,
      "Material": 5657,
      "Wh": 5658,
      "team": 5659,
      "deficiencies": 5660,
      "testosterone": 5661,
      "Hyp": 5662,
      "toid": 5663,
      "amen": 5664,
      "erythema": 5665,
      "constipation": 5666,
      "Dermat": 5667,
      "vocal": 5668,
      "poses": 5669,
      "125": 5670,
      "blind": 5671,
      "shorter": 5672,
      "dang": 5673,
      "reviewed": 5674,
      "probe": 5675,
      "plaque": 5676,
      "dicated": 5677,
      "processing": 5678,
      "personality": 5679,
      "peritonitis": 5680,
      "orrhoid": 5681,
      "surgeon": 5682,
      "sperm": 5683,
      "DD": 5684,
      "suicide": 5685,
      "infiltr": 5686,
      "biochemical": 5687,
      "N1": 5688,
      "ught": 5689,
      "longitudinal": 5690,
      "questions": 5691,
      "Overall": 5692,
      "February": 5693,
      "Before": 5694,
      "Del": 5695,
      "encour": 5696,
      "tery": 5697,
      "uments": 5698,
      "fib": 5699,
      "clearly": 5700,
      "seconds": 5701,
      "poorly": 5702,
      "ejection": 5703,
      "Ane": 5704,
      "HLA": 5705,
      "Usu": 5706,
      "Vas": 5707,
      "irregular": 5708,
      "prehen": 5709,
      "worm": 5710,
      "epine": 5711,
      "HCM": 5712,
      "ibility": 5713,
      "abscesses": 5714,
      "Cardiac": 5715,
      "subsequent": 5716,
      "RA": 5717,
      "ecal": 5718,
      "diaphrag": 5719,
      "States": 5720,
      "immunity": 5721,
      "solute": 5722,
      "histopathology": 5723,
      "aplas": 5724,
      "plays": 5725,
      "synthesis": 5726,
      "urban": 5727,
      "added": 5728,
      "scientific": 5729,
      "Vinh": 5730,
      "kers": 5731,
      "dip": 5732,
      "lihood": 5733,
      "Tox": 5734,
      "radiotherapy": 5735,
      "minimally": 5736,
      "amounts": 5737,
      "Lymph": 5738,
      "Neonatal": 5739,
      "CB": 5740,
      "fri": 5741,
      "pac": 5742,
      "cohort": 5743,
      "travel": 5744,
      "occurring": 5745,
      "ESBL": 5746,
      "strongly": 5747,
      "stopped": 5748,
      "sil": 5749,
      "option": 5750,
      "deriv": 5751,
      "newborn": 5752,
      "exclude": 5753,
      "And": 5754,
      "Sin": 5755,
      "hist": 5756,
      "rant": 5757,
      "valuable": 5758,
      "endocarditis": 5759,
      "keep": 5760,
      "normally": 5761,
      "cardiomyopathy": 5762,
      "glomerular": 5763,
      "epilepsy": 5764,
      "penetr": 5765,
      "Injur": 5766,
      "ify": 5767,
      "decreasing": 5768,
      "hemolytic": 5769,
      "sugar": 5770,
      "determining": 5771,
      "onephritis": 5772,
      "Flu": 5773,
      "PCI": 5774,
      "thermia": 5775,
      "intermediate": 5776,
      "selective": 5777,
      "sedation": 5778,
      "extracts": 5779,
      "hyperglycemia": 5780,
      "recur": 5781,
      "Contrain": 5782,
      "responses": 5783,
      "Classi": 5784,
      "opioid": 5785,
      "tilization": 5786,
      "elimin": 5787,
      "unk": 5788,
      "spontaneously": 5789,
      "Screening": 5790,
      "UV": 5791,
      "conversion": 5792,
      "herpes": 5793,
      "salt": 5794,
      "mechanisms": 5795,
      "aggressive": 5796,
      "Tro": 5797,
      "gkin": 5798,
      "zen": 5799,
      "streptoc": 5800,
      "odgkin": 5801,
      "destruc": 5802,
      "pregnancies": 5803,
      "neurological": 5804,
      "strateg": 5805,
      "Differen": 5806,
      "earlier": 5807,
      "cholecystectomy": 5808,
      "date": 5809,
      "ju": 5810,
      "constric": 5811,
      "posite": 5812,
      "aving": 5813,
      "strategy": 5814,
      "Nutritional": 5815,
      "NSAIDs": 5816,
      "Ery": 5817,
      "ulted": 5818,
      "elas": 5819,
      "dysplasia": 5820,
      "brile": 5821,
      "agonists": 5822,
      "aerobic": 5823,
      "EO": 5824,
      "Histo": 5825,
      "Na": 5826,
      "vular": 5827,
      "follic": 5828,
      "selection": 5829,
      "bronchi": 5830,
      "nephropathy": 5831,
      "supplementation": 5832,
      "obtain": 5833,
      "improves": 5834,
      "individuals": 5835,
      "La": 5836,
      "Rate": 5837,
      "ffic": 5838,
      "gallbladder": 5839,
      "acceptable": 5840,
      "nosocomial": 5841,
      "Scal": 5842,
      "brachial": 5843,
      "thoracoscopic": 5844,
      "ietic": 5845,
      "Systemic": 5846,
      "Pregnancy": 5847,
      "Klebsiella": 5848,
      "RF": 5849,
      "princi": 5850,
      "histological": 5851,
      "increasingly": 5852,
      "morphine": 5853,
      "capsule": 5854,
      "periodontal": 5855,
      "Emergency": 5856,
      "width": 5857,
      "DVT": 5858,
      "Eye": 5859,
      "Oste": 5860,
      "Pear": 5861,
      "bad": 5862,
      "m2": 5863,
      "rough": 5864,
      "promin": 5865,
      "oped": 5866,
      "fying": 5867,
      "glands": 5868,
      "issues": 5869,
      "contraindicated": 5870,
      "RD": 5871,
      "TA": 5872,
      "cas": 5873,
      "scler": 5874,
      "toge": 5875,
      "Congenital": 5876,
      "lactate": 5877,
      "integr": 5878,
      "conjunctivitis": 5879,
      "omonas": 5880,
      "graphic": 5881,
      "together": 5882,
      "Da": 5883,
      "ik": 5884,
      "lost": 5885,
      "eclamp": 5886,
      "overload": 5887,
      "likelihood": 5888,
      "global": 5889,
      "ruptured": 5890,
      "lithotripsy": 5891,
      "Gynecology": 5892,
      "refractory": 5893,
      "extended": 5894,
      "quickly": 5895,
      "basal": 5896,
      "ovirus": 5897,
      "ilar": 5898,
      "functioning": 5899,
      "experienced": 5900,
      "epidemiological": 5901,
      "digital": 5902,
      "EG": 5903,
      "itative": 5904,
      "glaucoma": 5905,
      "minimize": 5906,
      "Traum": 5907,
      "Multiple": 5908,
      "Europe": 5909,
      "Usually": 5910,
      "enlar": 5911,
      "cham": 5912,
      "discomfort": 5913,
      "selves": 5914,
      "Oncology": 5915,
      "document": 5916,
      "antigens": 5917,
      "Contraindications": 5918,
      "enic": 5919,
      "astric": 5920,
      "hout": 5921,
      "pedicle": 5922,
      "extracted": 5923,
      "Infections": 5924,
      "temporal": 5925,
      "withdrawal": 5926,
      "plexus": 5927,
      "controls": 5928,
      "hue": 5929,
      "tex": 5930,
      "enlarge": 5931,
      "ches": 5932,
      "nearly": 5933,
      "syring": 5934,
      "Head": 5935,
      "probability": 5936,
      "ingestion": 5937,
      "iliac": 5938,
      "atypical": 5939,
      "H2": 5940,
      "avi": 5941,
      "dan": 5942,
      "vital": 5943,
      "sial": 5944,
      "hydroxy": 5945,
      "disturbances": 5946,
      "binding": 5947,
      "jaw": 5948,
      "rexia": 5949,
      "syphilis": 5950,
      "rib": 5951,
      "shape": 5952,
      "histopathological": 5953,
      "Abdominal": 5954,
      "adjuvant": 5955,
      "definitive": 5956,
      "Diseases": 5957,
      "relapse": 5958,
      "umbilical": 5959,
      "But": 5960,
      "aste": 5961,
      "icobacter": 5962,
      "cycles": 5963,
      "secutive": 5964,
      "flexion": 5965,
      "skull": 5966,
      "Management": 5967,
      "Several": 5968,
      "sampling": 5969,
      "arding": 5970,
      "shap": 5971,
      "themselves": 5972,
      "resolution": 5973,
      "Psych": 5974,
      "Ds": 5975,
      "aut": 5976,
      "fro": 5977,
      "econ": 5978,
      "examine": 5979,
      "differentiate": 5980,
      "exacerbation": 5981,
      "bauman": 5982,
      "extremely": 5983,
      "EGFR": 5984,
      "bones": 5985,
      "oqu": 5986,
      "anth": 5987,
      "theli": 5988,
      "polymer": 5989,
      "allergy": 5990,
      "2001": 5991,
      "Neph": 5992,
      "ABP": 5993,
      "supplements": 5994,
      "menstrual": 5995,
      "tympan": 5996,
      "aphyl": 5997,
      "proteinuria": 5998,
      "staining": 5999,
      "decision": 6000,
      "manifestation": 6001,
      "CD4": 6002,
      "Further": 6003,
      "LH": 6004,
      "rule": 6005,
      "bearing": 6006,
      "prov": 6007,
      "obvious": 6008,
      "broad": 6009,
      "costs": 6010,
      "itching": 6011,
      "Hepatitis": 6012,
      "placenta": 6013,
      "Bes": 6014,
      "ky": 6015,
      "demic": 6016,
      "consecutive": 6017,
      "glut": 6018,
      "variety": 6019,
      "ING": 6020,
      "thalassemia": 6021,
      "hormones": 6022,
      "Recom": 6023,
      "circumference": 6024,
      "Quality": 6025,
      "Bone": 6026,
      "hereditary": 6027,
      "egg": 6028,
      "uterus": 6029,
      "TNF": 6030,
      "115": 6031,
      "reactive": 6032,
      "etal": 6033,
      "hemorrhoid": 6034,
      "stead": 6035,
      "Peri": 6036,
      "eclampsia": 6037,
      "measuring": 6038,
      "Imaging": 6039,
      "TSH": 6040,
      "ingers": 6041,
      "cruc": 6042,
      "ophen": 6043,
      "World": 6044,
      "strategies": 6045,
      "kine": 6046,
      "across": 6047,
      "imer": 6048,
      "ellow": 6049,
      "desi": 6050,
      "cholangi": 6051,
      "platelets": 6052,
      "Sh": 6053,
      "happ": 6054,
      "devi": 6055,
      "surround": 6056,
      "aceu": 6057,
      "difficulties": 6058,
      "identifying": 6059,
      "sinusitis": 6060,
      "pump": 6061,
      "tibial": 6062,
      "rhin": 6063,
      "otitis": 6064,
      "resolve": 6065,
      "chromosome": 6066,
      "dent": 6067,
      "pages": 6068,
      "irium": 6069,
      "dislocation": 6070,
      "contents": 6071,
      "insti": 6072,
      "polyp": 6073,
      "remaining": 6074,
      "susceptible": 6075,
      "ient": 6076,
      "tren": 6077,
      "ada": 6078,
      "autosomal": 6079,
      "Soci": 6080,
      "ico": 6081,
      "cartil": 6082,
      "brid": 6083,
      "varice": 6084,
      "waist": 6085,
      "build": 6086,
      "ritin": 6087,
      "wrist": 6088,
      "Candida": 6089,
      "HBsAg": 6090,
      "estern": 6091,
      "agree": 6092,
      "valvular": 6093,
      "accidents": 6094,
      "pay": 6095,
      "ref": 6096,
      "roots": 6097,
      "presents": 6098,
      "angu": 6099,
      "vasopress": 6100,
      "apparent": 6101,
      "recruited": 6102,
      "ern": 6103,
      "disrup": 6104,
      "hematuria": 6105,
      "sched": 6106,
      "immunohisto": 6107,
      "accident": 6108,
      "favor": 6109,
      "Classification": 6110,
      "CY": 6111,
      "rees": 6112,
      "hex": 6113,
      "palsy": 6114,
      "puberty": 6115,
      "mul": 6116,
      "metric": 6117,
      "extension": 6118,
      "spond": 6119,
      "180": 6120,
      "abnormality": 6121,
      "smaller": 6122,
      "adjusted": 6123,
      "aceutical": 6124,
      "Bur": 6125,
      "Sal": 6126,
      "big": 6127,
      "pic": 6128,
      "leaf": 6129,
      "prescription": 6130,
      "starting": 6131,
      "agonist": 6132,
      "peptic": 6133,
      "machine": 6134,
      "approximately": 6135,
      "PSA": 6136,
      "laryng": 6137,
      "era": 6138,
      "depressive": 6139,
      "ched": 6140,
      "cot": 6141,
      "carbapenem": 6142,
      "herniation": 6143,
      "Red": 6144,
      "complement": 6145,
      "idney": 6146,
      "iovenous": 6147,
      "Investigation": 6148,
      "Te": 6149,
      "dors": 6150,
      "ptic": 6151,
      "rid": 6152,
      "student": 6153,
      "gastritis": 6154,
      "MB": 6155,
      "bact": 6156,
      "referred": 6157,
      "unexplained": 6158,
      "investigation": 6159,
      "RV": 6160,
      "llular": 6161,
      "tism": 6162,
      "signal": 6163,
      "feet": 6164,
      "Chang": 6165,
      "periods": 6166,
      "Nhan": 6167,
      "Time": 6168,
      "gout": 6169,
      "rebral": 6170,
      "rology": 6171,
      "metic": 6172,
      "amic": 6173,
      "amycin": 6174,
      "dissemin": 6175,
      "ughout": 6176,
      "Thorac": 6177,
      "Child": 6178,
      "equal": 6179,
      "contraindications": 6180,
      "glomerul": 6181,
      "Aims": 6182,
      "cis": 6183,
      "inten": 6184,
      "fold": 6185,
      "changing": 6186,
      "marker": 6187,
      "ROC": 6188,
      "neutrophil": 6189,
      "surgeons": 6190,
      "orbidities": 6191,
      "AG": 6192,
      "Men": 6193,
      "fingers": 6194,
      "exchange": 6195,
      "azol": 6196,
      "suffered": 6197,
      "Hematology": 6198,
      "opoietic": 6199,
      "pandemic": 6200,
      "izumab": 6201,
      "ectasis": 6202,
      "cryst": 6203,
      "masses": 6204,
      "swallowing": 6205,
      "infertility": 6206,
      "PLC": 6207,
      "Clinic": 6208,
      "conservative": 6209,
      "LO": 6210,
      "endemic": 6211,
      "seek": 6212,
      "spir": 6213,
      "0001": 6214,
      "penicillin": 6215,
      "explo": 6216,
      "electrolyte": 6217,
      "inadequate": 6218,
      "tron": 6219,
      "lous": 6220,
      "microscopic": 6221,
      "randomly": 6222,
      "storage": 6223,
      "Sho": 6224,
      "UT": 6225,
      "host": 6226,
      "stant": 6227,
      "bectomy": 6228,
      "failed": 6229,
      "Cr": 6230,
      "ov": 6231,
      "amed": 6232,
      "antibacterial": 6233,
      "manage": 6234,
      "participate": 6235,
      "administered": 6236,
      "encephalopathy": 6237,
      "decompression": 6238,
      "prehensive": 6239,
      "Suc": 6240,
      "dl": 6241,
      "eat": 6242,
      "final": 6243,
      "worse": 6244,
      "Diagnostic": 6245,
      "otrex": 6246,
      "doctor": 6247,
      "jection": 6248,
      "providing": 6249,
      "restriction": 6250,
      "3D": 6251,
      "otrop": 6252,
      "tobacter": 6253,
      "clav": 6254,
      "carbo": 6255,
      "counter": 6256,
      "Chol": 6257,
      "relationships": 6258,
      "schiz": 6259,
      "routinely": 6260,
      "cuff": 6261,
      "conclusions": 6262,
      "Main": 6263,
      "bupivacaine": 6264,
      "anus": 6265,
      "throughout": 6266,
      "tributed": 6267,
      "profile": 6268,
      "ascites": 6269,
      "technology": 6270,
      "Cir": 6271,
      "ulas": 6272,
      "true": 6273,
      "immobil": 6274,
      "porphy": 6275,
      "Endoc": 6276,
      "Breast": 6277,
      "ECT": 6278,
      "Ol": 6279,
      "iliary": 6280,
      "oder": 6281,
      "diverticul": 6282,
      "washing": 6283,
      "EMI": 6284,
      "own": 6285,
      "tria": 6286,
      "excretion": 6287,
      "Nurs": 6288,
      "ezing": 6289,
      "surve": 6290,
      "Comple": 6291,
      "holds": 6292,
      "Position": 6293,
      "recently": 6294,
      "blastoma": 6295,
      "ready": 6296,
      "Follow": 6297,
      "Bl": 6298,
      "Bacter": 6299,
      "ix": 6300,
      "neural": 6301,
      "biom": 6302,
      "cephalospor": 6303,
      "retinopathy": 6304,
      "Anatomy": 6305,
      "UN": 6306,
      "cit": 6307,
      "fair": 6308,
      "inv": 6309,
      "esium": 6310,
      "tablets": 6311,
      "iditis": 6312,
      "inserted": 6313,
      "ranged": 6314,
      "Society": 6315,
      "Es": 6316,
      "Hodgkin": 6317,
      "Vari": 6318,
      "silic": 6319,
      "ifically": 6320,
      "outside": 6321,
      "doing": 6322,
      "choled": 6323,
      "humans": 6324,
      "AI": 6325,
      "dust": 6326,
      "foss": 6327,
      "gent": 6328,
      "injured": 6329,
      "aceae": 6330,
      "attacks": 6331,
      "walking": 6332,
      "Ultrasound": 6333,
      "digestive": 6334,
      "Laboratory": 6335,
      "otrexate": 6336,
      "Son": 6337,
      "usiness": 6338,
      "ulent": 6339,
      "stra": 6340,
      "fiber": 6341,
      "dilated": 6342,
      "Fract": 6343,
      "omatous": 6344,
      "Hung": 6345,
      "Ure": 6346,
      "mend": 6347,
      "ife": 6348,
      "inetobacter": 6349,
      "kets": 6350,
      "completed": 6351,
      "recover": 6352,
      "properties": 6353,
      "Guide": 6354,
      "channel": 6355,
      "professional": 6356,
      "Det": 6357,
      "Thy": 6358,
      "Wil": 6359,
      "yi": 6360,
      "hemost": 6361,
      "uptake": 6362,
      "coagul": 6363,
      "prac": 6364,
      "cholest": 6365,
      "prediction": 6366,
      "observ": 6367,
      "kerat": 6368,
      "physiologic": 6369,
      "movements": 6370,
      "(≥": 6371,
      "olig": 6372,
      "odon": 6373,
      "diaz": 6374,
      "kinase": 6375,
      "newly": 6376,
      "exacerbations": 6377,
      "Intensive": 6378,
      "cope": 6379,
      "contains": 6380,
      "firm": 6381,
      "sequel": 6382,
      "Infants": 6383,
      "exercises": 6384,
      "persist": 6385,
      "legs": 6386,
      "Num": 6387,
      "ometry": 6388,
      "Throm": 6389,
      "requency": 6390,
      "differential": 6391,
      "psychiatric": 6392,
      "gingi": 6393,
      "activated": 6394,
      "testicular": 6395,
      "embry": 6396,
      "deformity": 6397,
      "derivatives": 6398,
      "name": 6399,
      "apter": 6400,
      "severely": 6401,
      "stimulating": 6402,
      "Specific": 6403,
      "zyg": 6404,
      "110": 6405,
      "SGA": 6406,
      "remed": 6407,
      "ald": 6408,
      "here": 6409,
      "chor": 6410,
      "otherwise": 6411,
      "portun": 6412,
      "Additional": 6413,
      "vaccinated": 6414,
      "intrace": 6415,
      "powder": 6416,
      "CF": 6417,
      "Tech": 6418,
      "candid": 6419,
      "observation": 6420,
      "ycl": 6421,
      "relatives": 6422,
      "stein": 6423,
      "fibrin": 6424,
      "tools": 6425,
      "power": 6426,
      "floor": 6427,
      "Fam": 6428,
      "HPLC": 6429,
      "ever": 6430,
      "inpatient": 6431,
      "aret": 6432,
      "idazole": 6433,
      "opening": 6434,
      "coord": 6435,
      "estyle": 6436,
      "sple": 6437,
      "nii": 6438,
      "viscer": 6439,
      "blunt": 6440,
      "organism": 6441,
      "ventilator": 6442,
      "cerebe": 6443,
      "regularly": 6444,
      "Cardiovascular": 6445,
      "Ministry": 6446,
      "cortisol": 6447,
      "eros": 6448,
      "towards": 6449,
      "resia": 6450,
      "comorbidities": 6451,
      "sound": 6452,
      "domes": 6453,
      "emotional": 6454,
      "proliferative": 6455,
      "anaphyl": 6456,
      "esarean": 6457,
      "allows": 6458,
      "differentiation": 6459,
      "empir": 6460,
      "animal": 6461,
      "tobacco": 6462,
      "HI": 6463,
      "anted": 6464,
      "stret": 6465,
      "derived": 6466,
      "parin": 6467,
      "conduction": 6468,
      "chemistry": 6469,
      "Studying": 6470,
      "synthes": 6471,
      "Transfusion": 6472,
      "teaching": 6473,
      "ories": 6474,
      "degrees": 6475,
      "Scan": 6476,
      "cau": 6477,
      "ineff": 6478,
      "Thal": 6479,
      "traffic": 6480,
      "recovered": 6481,
      "objectives": 6482,
      "papill": 6483,
      "oclonal": 6484,
      "MENT": 6485,
      "Pal": 6486,
      "perine": 6487,
      "AFP": 6488,
      "cartilage": 6489,
      "fossa": 6490,
      "MIC": 6491,
      "Sex": 6492,
      "fentanyl": 6493,
      "lamy": 6494,
      "sense": 6495,
      "intestine": 6496,
      "hepatectomy": 6497,
      "cytokines": 6498,
      "discharged": 6499,
      "Secondary": 6500,
      "osph": 6501,
      "interactions": 6502,
      "flav": 6503,
      "logous": 6504,
      "intravascular": 6505,
      "shif": 6506,
      "occupation": 6507,
      "tolerated": 6508,
      "Kh": 6509,
      "TAL": 6510,
      "objects": 6511,
      "edge": 6512,
      "asone": 6513,
      "interfe": 6514,
      "understanding": 6515,
      "visit": 6516,
      "herbal": 6517,
      "shunt": 6518,
      "anorexia": 6519,
      "PECT": 6520,
      "parenteral": 6521,
      "enhanced": 6522,
      "vancomycin": 6523,
      "Pearls": 6524,
      "prominent": 6525,
      "baumannii": 6526,
      "correl": 6527,
      "surgically": 6528,
      "hypox": 6529,
      "angiotensin": 6530,
      "Complete": 6531,
      "spleen": 6532,
      ",\"": 6533,
      "Find": 6534,
      "uation": 6535,
      "ysis": 6536,
      "refer": 6537,
      "oscope": 6538,
      "cardiopulmonary": 6539,
      "ASI": 6540,
      "irrit": 6541,
      "intell": 6542,
      "paper": 6543,
      "challenge": 6544,
      "lacer": 6545,
      "zol": 6546,
      "mobility": 6547,
      "elvic": 6548,
      "rectum": 6549,
      "pancreas": 6550,
      "aspects": 6551,
      "Pitfalls": 6552,
      "enlarged": 6553,
      "otyp": 6554,
      "ert": 6555,
      "ford": 6556,
      "Intern": 6557,
      "vascularization": 6558,
      "incial": 6559,
      "ferritin": 6560,
      "ATION": 6561,
      "membranes": 6562,
      "Mortality": 6563,
      "myelo": 6564,
      "Female": 6565,
      "opedic": 6566,
      "tives": 6567,
      "Analysis": 6568,
      "interventional": 6569,
      "papillary": 6570,
      "blastic": 6571,
      "Recommend": 6572,
      "%:": 6573,
      "Cortic": 6574,
      "FI": 6575,
      "composition": 6576,
      "prur": 6577,
      "controver": 6578,
      "Diet": 6579,
      "glass": 6580,
      "IgA": 6581,
      "SPSS": 6582,
      "eradication": 6583,
      "Vol": 6584,
      "pts": 6585,
      "rof": 6586,
      "unstable": 6587,
      "fixed": 6588,
      "pathway": 6589,
      "idiasis": 6590,
      "Am": 6591,
      "income": 6592,
      "idosis": 6593,
      "opa": 6594,
      "malformation": 6595,
      "liative": 6596,
      "Median": 6597,
      "layer": 6598,
      "mast": 6599,
      "ria": 6600,
      "ensis": 6601,
      "sies": 6602,
      "options": 6603,
      "opportun": 6604,
      "cann": 6605,
      "minimum": 6606,
      "implemented": 6607,
      "neuromuscular": 6608,
      "precip": 6609,
      "ham": 6610,
      "tape": 6611,
      "asia": 6612,
      "106": 6613,
      "counts": 6614,
      "ystitis": 6615,
      "otor": 6616,
      "smooth": 6617,
      "nephritis": 6618,
      "aspirin": 6619,
      "filtration": 6620,
      "responsible": 6621,
      "cerebrospinal": 6622,
      "HER": 6623,
      "pin": 6624,
      "itself": 6625,
      "mented": 6626,
      "distric": 6627,
      "corresponding": 6628,
      "controlling": 6629,
      "thereby": 6630,
      "Pediatrics": 6631,
      "experts": 6632,
      "rhythm": 6633,
      "GO": 6634,
      "ivary": 6635,
      "polar": 6636,
      "zes": 6637,
      "oll": 6638,
      "ticaria": 6639,
      "indus": 6640,
      "retroperitoneal": 6641,
      "glycemic": 6642,
      "planning": 6643,
      "conjug": 6644,
      "endometri": 6645,
      "enlargement": 6646,
      "GER": 6647,
      "Qo": 6648,
      "War": 6649,
      "vial": 6650,
      "wire": 6651,
      "compati": 6652,
      "Develop": 6653,
      "Abs": 6654,
      "isolation": 6655,
      "repeat": 6656,
      "amniotic": 6657,
      "fund": 6658,
      "junction": 6659,
      "noc": 6660,
      "sl": 6661,
      "veloc": 6662,
      "belie": 6663,
      "contract": 6664,
      "hypersensitivity": 6665,
      "subtypes": 6666,
      "ource": 6667,
      "Acinetobacter": 6668,
      "epidemic": 6669,
      "Cell": 6670,
      "Tien": 6671,
      "instruc": 6672,
      "tho": 6673,
      "start": 6674,
      "resem": 6675,
      "belong": 6676,
      "cef": 6677,
      "cel": 6678,
      "igaret": 6679,
      "uge": 6680,
      "faces": 6681,
      "massive": 6682,
      "steroidal": 6683,
      "pupils": 6684,
      "frozen": 6685,
      "sn": 6686,
      "opl": 6687,
      "Combin": 6688,
      "perforator": 6689,
      "Prof": 6690,
      "chloride": 6691,
      "gamma": 6692,
      "job": 6693,
      "mos": 6694,
      "entric": 6695,
      "cyan": 6696,
      "astrectomy": 6697,
      "ART": 6698,
      "clusive": 6699,
      "Tumor": 6700,
      "tunnel": 6701,
      "Cs": 6702,
      "nes": 6703,
      "instability": 6704,
      "compens": 6705,
      "Stage": 6706,
      "sustained": 6707,
      "Centers": 6708,
      "hematopoietic": 6709,
      "endothelial": 6710,
      "habits": 6711,
      "Besides": 6712,
      "ubl": 6713,
      "androgen": 6714,
      "trunk": 6715,
      "comitant": 6716,
      "rise": 6717,
      "stiff": 6718,
      "Afric": 6719,
      "Spinal": 6720,
      "garis": 6721,
      "enhancement": 6722,
      "Comparison": 6723,
      "IF": 6724,
      "nur": 6725,
      "run": 6726,
      "rab": 6727,
      "arteriovenous": 6728,
      "muscular": 6729,
      "Description": 6730,
      "reasonable": 6731,
      "Elec": 6732,
      "PO": 6733,
      "Top": 6734,
      "yn": 6735,
      "dead": 6736,
      "insom": 6737,
      "adenoma": 6738,
      "CLC": 6739,
      "technical": 6740,
      "irrigation": 6741,
      "CAP": 6742,
      "aud": 6743,
      "ICAL": 6744,
      "VIDEO": 6745,
      "tonsi": 6746,
      "beneficial": 6747,
      "temporary": 6748,
      "discussed": 6749,
      "frontal": 6750,
      "Scale": 6751,
      "zo": 6752,
      "oradi": 6753,
      "conven": 6754,
      "febrile": 6755,
      "bound": 6756,
      "amines": 6757,
      "commerc": 6758,
      "orient": 6759,
      "stricture": 6760,
      "borns": 6761,
      "opioids": 6762,
      "LISA": 6763,
      "proliferation": 6764,
      "syringe": 6765,
      "130": 6766,
      "rotation": 6767,
      "dermal": 6768,
      "angitis": 6769,
      "pathogenic": 6770,
      "contributing": 6771,
      "implementation": 6772,
      "(-": 6773,
      "OH": 6774,
      "relevant": 6775,
      "resto": 6776,
      "tick": 6777,
      "hyd": 6778,
      "Internal": 6779,
      "rice": 6780,
      "injected": 6781,
      "140": 6782,
      "thorough": 6783,
      "abolic": 6784,
      "drop": 6785,
      "situations": 6786,
      "tubular": 6787,
      "Nghe": 6788,
      "Major": 6789,
      "insomnia": 6790,
      "GE": 6791,
      "inous": 6792,
      "Index": 6793,
      "tea": 6794,
      "interviewed": 6795,
      "lifestyle": 6796,
      "manifests": 6797,
      "injections": 6798,
      "video": 6799,
      "Effectiveness": 6800,
      "corrected": 6801,
      "polic": 6802,
      "chamber": 6803,
      "NE": 6804,
      "SPI": 6805,
      "Yen": 6806,
      "langu": 6807,
      "nutri": 6808,
      "icion": 6809,
      "allergen": 6810,
      "understand": 6811,
      "Proced": 6812,
      "septum": 6813,
      "analgesics": 6814,
      "estimate": 6815,
      "uspid": 6816,
      "saturation": 6817,
      "allo": 6818,
      "isions": 6819,
      "states": 6820,
      "morning": 6821,
      "throp": 6822,
      "experiences": 6823,
      "expect": 6824,
      "dysph": 6825,
      "steps": 6826,
      "stream": 6827,
      "Plasma": 6828,
      "International": 6829,
      "ylo": 6830,
      "olitis": 6831,
      "drink": 6832,
      "bition": 6833,
      "gow": 6834,
      "decline": 6835,
      "standardi": 6836,
      "Abnormal": 6837,
      "protect": 6838,
      "ullary": 6839,
      "appeared": 6840,
      "ineffective": 6841,
      "osphate": 6842,
      "Ano": 6843,
      "bs": 6844,
      "ients": 6845,
      "rho": 6846,
      "zone": 6847,
      "artic": 6848,
      "aches": 6849,
      "brief": 6850,
      "crani": 6851,
      "dangerous": 6852,
      "QoL": 6853,
      "PTH": 6854,
      "Rh": 6855,
      "pet": 6856,
      "ana": 6857,
      "comprehensive": 6858,
      "apical": 6859,
      "intraocular": 6860,
      "ximab": 6861,
      "expand": 6862,
      "grafts": 6863,
      "IgM": 6864,
      "questionnaires": 6865,
      "contraceptive": 6866,
      "destruction": 6867,
      "sequelae": 6868,
      "districts": 6869,
      "atresia": 6870,
      "quito": 6871,
      "Relations": 6872,
      "inherited": 6873,
      "Tric": 6874,
      "lav": 6875,
      "inergic": 6876,
      "mographic": 6877,
      "ologies": 6878,
      "psychological": 6879,
      "prostatic": 6880,
      "Ble": 6881,
      "NG": 6882,
      "Small": 6883,
      "WBC": 6884,
      "thumb": 6885,
      "makes": 6886,
      "Chapter": 6887,
      "intoler": 6888,
      "delirium": 6889,
      "toxins": 6890,
      "Examination": 6891,
      "immunocompromised": 6892,
      "Sciences": 6893,
      "consultation": 6894,
      "magnesium": 6895,
      "vasculitis": 6896,
      "Equ": 6897,
      "Local": 6898,
      "gastrectomy": 6899,
      "prefer": 6900,
      "going": 6901,
      "computer": 6902,
      "hypop": 6903,
      "Efficacy": 6904,
      "eventually": 6905,
      "p53": 6906,
      "perf": 6907,
      "conges": 6908,
      "adap": 6909,
      "compet": 6910,
      "micron": 6911,
      "suffering": 6912,
      "calcit": 6913,
      "benzo": 6914,
      "dressing": 6915,
      "Pseudomonas": 6916,
      "Corticoster": 6917,
      "BI": 6918,
      "B12": 6919,
      "Er": 6920,
      "Function": 6921,
      "ofol": 6922,
      "clim": 6923,
      "exact": 6924,
      "epig": 6925,
      "thrombin": 6926,
      "educational": 6927,
      "availability": 6928,
      "Dys": 6929,
      "hall": 6930,
      "pate": 6931,
      "altered": 6932,
      "atten": 6933,
      "icidal": 6934,
      "heparin": 6935,
      "ional": 6936,
      "ophren": 6937,
      "tigh": 6938,
      "inhibitory": 6939,
      "market": 6940,
      "neonate": 6941,
      "hydrogen": 6942,
      "Oct": 6943,
      "infiltration": 6944,
      "pericardial": 6945,
      "amethasone": 6946,
      "chromatography": 6947,
      "cotton": 6948,
      "Lar": 6949,
      "Rem": 6950,
      "olith": 6951,
      "monoclonal": 6952,
      "ureth": 6953,
      "genotypes": 6954,
      "cream": 6955,
      "Streptoc": 6956,
      "safely": 6957,
      "Percent": 6958,
      "episode": 6959,
      "regardless": 6960,
      "anticoagulation": 6961,
      "lymphocytes": 6962,
      "dimension": 6963,
      "Dy": 6964,
      "Por": 6965,
      "fit": 6966,
      "ier": 6967,
      "inappropriate": 6968,
      "redi": 6969,
      "ofacial": 6970,
      "assive": 6971,
      "sts": 6972,
      "umes": 6973,
      "seal": 6974,
      "spi": 6975,
      "actual": 6976,
      "Angi": 6977,
      "cholinergic": 6978,
      "nodule": 6979,
      "medicines": 6980,
      "deficit": 6981,
      "Helicobacter": 6982,
      "Bar": 6983,
      "SLE": 6984,
      "green": 6985,
      "ou": 6986,
      "ony": 6987,
      "ondr": 6988,
      "deterior": 6989,
      "dial": 6990,
      "ady": 6991,
      "illance": 6992,
      "margin": 6993,
      "screw": 6994,
      "duoden": 6995,
      "Relationship": 6996,
      "Ba": 6997,
      "ELISA": 6998,
      "san": 6999,
      "platin": 7000,
      "hibit": 7001,
      "Science": 7002,
      "domestic": 7003,
      "language": 7004,
      "isone": 7005,
      "astro": 7006,
      "icles": 7007,
      "dehydration": 7008,
      "persis": 7009,
      "serologic": 7010,
      "define": 7011,
      "acetate": 7012,
      "myeloma": 7013,
      "Genetic": 7014,
      "Loc": 7015,
      "Vis": 7016,
      "ners": 7017,
      "ades": 7018,
      "hype": 7019,
      "ried": 7020,
      "showing": 7021,
      "developmental": 7022,
      "black": 7023,
      "logistic": 7024,
      "ARV": 7025,
      "menopause": 7026,
      "confidence": 7027,
      "Auto": 7028,
      "Urinary": 7029,
      "Organization": 7030,
      "practical": 7031,
      "4th": 7032,
      "colitis": 7033,
      "variant": 7034,
      "vince": 7035,
      "wheezing": 7036,
      "grafting": 7037,
      "pelvis": 7038,
      "Arter": 7039,
      "specimen": 7040,
      "endometrial": 7041,
      "markedly": 7042,
      "FDG": 7043,
      "accumulation": 7044,
      "da": 7045,
      "Inc": 7046,
      "newborns": 7047,
      "smoke": 7048,
      "transp": 7049,
      "Unit": 7050,
      "palpable": 7051,
      "sympa": 7052,
      "pus": 7053,
      "vae": 7054,
      "yellow": 7055,
      "antide": 7056,
      "variants": 7057,
      "placebo": 7058,
      "generative": 7059,
      "published": 7060,
      "Older": 7061,
      "velocity": 7062,
      "A2": 7063,
      "wear": 7064,
      "dural": 7065,
      "tution": 7066,
      "ips": 7067,
      "ocytic": 7068,
      "lumen": 7069,
      "maintaining": 7070,
      "Epide": 7071,
      "NL": 7072,
      "erve": 7073,
      "ros": 7074,
      "prelim": 7075,
      "para": 7076,
      "duction": 7077,
      "Analy": 7078,
      "Prote": 7079,
      "indexes": 7080,
      "PRO": 7081,
      "thickening": 7082,
      "Intervention": 7083,
      "capsules": 7084,
      "NIH": 7085,
      "lymphadenectomy": 7086,
      "Reduc": 7087,
      "hCG": 7088,
      "kill": 7089,
      "xone": 7090,
      "ingredi": 7091,
      "mood": 7092,
      "spr": 7093,
      "gross": 7094,
      "causative": 7095,
      "Contin": 7096,
      "STEMI": 7097,
      "excluded": 7098,
      "ranging": 7099,
      "direction": 7100,
      "lidocaine": 7101,
      "favorable": 7102,
      "cand": 7103,
      "skeletal": 7104,
      "dele": 7105,
      "pull": 7106,
      "thyroidectomy": 7107,
      "Now": 7108,
      "animals": 7109,
      "promote": 7110,
      "shaped": 7111,
      "polymerase": 7112,
      "Mild": 7113,
      "NY": 7114,
      "jug": 7115,
      "lation": 7116,
      "oing": 7117,
      "iss": 7118,
      "loop": 7119,
      "hot": 7120,
      "ocortic": 7121,
      "studying": 7122,
      "cyte": 7123,
      "untary": 7124,
      "mesenteric": 7125,
      "circulating": 7126,
      "eremia": 7127,
      "oskeletal": 7128,
      "chondr": 7129,
      "extend": 7130,
      "Then": 7131,
      "prone": 7132,
      "Review": 7133,
      "muscul": 7134,
      "Province": 7135,
      "Such": 7136,
      "postoperatively": 7137,
      "distinc": 7138,
      "olemia": 7139,
      "barri": 7140,
      "autologous": 7141,
      "tropical": 7142,
      "periodontitis": 7143,
      "peptide": 7144,
      "intense": 7145,
      "Fir": 7146,
      "FEV": 7147,
      "untain": 7148,
      "endovascular": 7149,
      "ologically": 7150,
      "choose": 7151,
      "predicted": 7152,
      "suspicion": 7153,
      "growing": 7154,
      "vulgaris": 7155,
      "simultaneously": 7156,
      "practitioners": 7157,
      "Success": 7158,
      "Percentage": 7159,
      "Les": 7160,
      "Pap": 7161,
      "Pers": 7162,
      "gold": 7163,
      "mE": 7164,
      "uous": 7165,
      "tigo": 7166,
      "untreated": 7167,
      "wet": 7168,
      "colum": 7169,
      "systematic": 7170,
      "shorten": 7171,
      "HOSPI": 7172,
      "complain": 7173,
      "settings": 7174,
      "deviation": 7175,
      "Hu": 7176,
      "amol": 7177,
      "international": 7178,
      "cessation": 7179,
      "arms": 7180,
      "satisfactory": 7181,
      "IgE": 7182,
      "triglyceride": 7183,
      "HOSPITAL": 7184,
      "iae": 7185,
      "exceed": 7186,
      "ournal": 7187,
      "dependence": 7188,
      "advance": 7189,
      "chromosomal": 7190,
      "Increased": 7191,
      "targeted": 7192,
      "SM": 7193,
      "bund": 7194,
      "rub": 7195,
      "refr": 7196,
      "usive": 7197,
      "dimin": 7198,
      "seas": 7199,
      "combining": 7200,
      "statin": 7201,
      "smokers": 7202,
      "HBe": 7203,
      "Coron": 7204,
      "methotrexate": 7205,
      "ejun": 7206,
      "speech": 7207,
      "gangl": 7208,
      "NYHA": 7209,
      "Glas": 7210,
      "Mechan": 7211,
      "fed": 7212,
      "μg": 7213,
      "revascularization": 7214,
      "organic": 7215,
      "possibility": 7216,
      "electrical": 7217,
      "vegetables": 7218,
      "qualitative": 7219,
      "mEq": 7220,
      "Mod": 7221,
      "PAT": 7222,
      "ufact": 7223,
      "introduc": 7224,
      "degeneration": 7225,
      "distention": 7226,
      "istin": 7227,
      "maneu": 7228,
      "intact": 7229,
      "maturity": 7230,
      "Under": 7231,
      "cosmetic": 7232,
      "AML": 7233,
      "nasopharyngeal": 7234,
      "murmur": 7235,
      "Suppor": 7236,
      "dysphagia": 7237,
      "CABG": 7238,
      "SOF": 7239,
      "bits": 7240,
      "dark": 7241,
      "oming": 7242,
      "estations": 7243,
      "ectin": 7244,
      "periodic": 7245,
      "carriers": 7246,
      "arrhythmia": 7247,
      "CEA": 7248,
      "electrolytes": 7249,
      "Glasgow": 7250,
      "600": 7251,
      "Bu": 7252,
      "mim": 7253,
      "nm": 7254,
      "pens": 7255,
      "soc": 7256,
      "represent": 7257,
      "proven": 7258,
      "ocutaneous": 7259,
      "airs": 7260,
      "nitrogen": 7261,
      "labe": 7262,
      "yield": 7263,
      "Bleeding": 7264,
      "PH": 7265,
      "SE": 7266,
      "Sw": 7267,
      "formin": 7268,
      "sounds": 7269,
      "cleft": 7270,
      "removing": 7271,
      "salivary": 7272,
      "broncho": 7273,
      "Hemat": 7274,
      "staffs": 7275,
      "splenic": 7276,
      "erythematosus": 7277,
      "Occasionally": 7278,
      "Anemia": 7279,
      "ethyl": 7280,
      "nature": 7281,
      "ozyg": 7282,
      "arcoma": 7283,
      "relating": 7284,
      "Three": 7285,
      "strati": 7286,
      "substanti": 7287,
      "diuretics": 7288,
      "evol": 7289,
      "inner": 7290,
      "users": 7291,
      "vertical": 7292,
      "trocar": 7293,
      "Almost": 7294,
      "hypog": 7295,
      "sequence": 7296,
      "classic": 7297,
      "secretions": 7298,
      "carcinomas": 7299,
      "controversial": 7300,
      "sha": 7301,
      "zz": 7302,
      "note": 7303,
      "transferase": 7304,
      "scro": 7305,
      "Dem": 7306,
      "ding": 7307,
      "ontal": 7308,
      "thetics": 7309,
      "resulted": 7310,
      "trache": 7311,
      "torsion": 7312,
      "suction": 7313,
      "ATS": 7314,
      "alcoholic": 7315,
      "transport": 7316,
      "autonomic": 7317,
      "Changes": 7318,
      "Ech": 7319,
      "gone": 7320,
      "pt": 7321,
      "vate": 7322,
      "wing": 7323,
      "proposed": 7324,
      "concomitant": 7325,
      "ext": 7326,
      "coidosis": 7327,
      "izes": 7328,
      "screened": 7329,
      "cussion": 7330,
      "mcL": 7331,
      "Antibiotics": 7332,
      "cataract": 7333,
      "Kidney": 7334,
      "cosis": 7335,
      "object": 7336,
      "thi": 7337,
      "arsen": 7338,
      "ionic": 7339,
      "operations": 7340,
      "Comment": 7341,
      "fluores": 7342,
      "chemoradi": 7343,
      "fewer": 7344,
      "First": 7345,
      "PPV": 7346,
      "cigaret": 7347,
      "xyl": 7348,
      "stri": 7349,
      "syno": 7350,
      "Class": 7351,
      "researchers": 7352,
      "modern": 7353,
      "ESS": 7354,
      "correctly": 7355,
      "CPAP": 7356,
      "Manif": 7357,
      "scarring": 7358,
      "disseminated": 7359,
      "FEV1": 7360,
      "kle": 7361,
      "oking": 7362,
      "sut": 7363,
      "tizing": 7364,
      "remark": 7365,
      "perception": 7366,
      "brady": 7367,
      "Stu": 7368,
      "measles": 7369,
      "capillary": 7370,
      "errors": 7371,
      "PM": 7372,
      "Spr": 7373,
      "none": 7374,
      "seem": 7375,
      "Altern": 7376,
      "approaches": 7377,
      "RBCs": 7378,
      "mixture": 7379,
      "Body": 7380,
      "IR": 7381,
      "PCT": 7382,
      "indirect": 7383,
      "comb": 7384,
      "preced": 7385,
      "ogene": 7386,
      "spectro": 7387,
      "axel": 7388,
      "ipid": 7389,
      "ACS": 7390,
      "gynec": 7391,
      "segments": 7392,
      "Grade": 7393,
      "ferences": 7394,
      "ball": 7395,
      "demographic": 7396,
      "constant": 7397,
      "induce": 7398,
      "ailty": 7399,
      "inhaled": 7400,
      "North": 7401,
      "household": 7402,
      "HER2": 7403,
      "Topical": 7404,
      "EB": 7405,
      "ct": 7406,
      "osen": 7407,
      "105": 7408,
      "ongoing": 7409,
      "positions": 7410,
      "orrhage": 7411,
      "reliability": 7412,
      "psychologic": 7413,
      "planted": 7414,
      "Application": 7415,
      "ancing": 7416,
      "macular": 7417,
      "Traditional": 7418,
      "worsen": 7419,
      "tibular": 7420,
      "Ke": 7421,
      "aug": 7422,
      "incomplete": 7423,
      "itated": 7424,
      "trained": 7425,
      "compartment": 7426,
      "cysto": 7427,
      "Stand": 7428,
      "131": 7429,
      "axial": 7430,
      "feature": 7431,
      "Once": 7432,
      "abilities": 7433,
      "oxygenation": 7434,
      "gers": 7435,
      "atation": 7436,
      "stances": 7437,
      "emul": 7438,
      "tysis": 7439,
      "antifungal": 7440,
      "manufact": 7441,
      "differ": 7442,
      "calcemia": 7443,
      "Medic": 7444,
      "bull": 7445,
      "Left": 7446,
      "calcification": 7447,
      "Cyto": 7448,
      "cycline": 7449,
      "sigmoid": 7450,
      "Geriatric": 7451,
      "thelium": 7452,
      "ozygous": 7453,
      "Less": 7454,
      "oric": 7455,
      "sides": 7456,
      "optysis": 7457,
      "spray": 7458,
      "interaction": 7459,
      "lymphatic": 7460,
      "cirrho": 7461,
      "phosphamide": 7462,
      "prophylactic": 7463,
      "Gastrointestinal": 7464,
      "emphig": 7465,
      "QT": 7466,
      "SC": 7467,
      "tally": 7468,
      "semi": 7469,
      "occurrence": 7470,
      "consist": 7471,
      "distant": 7472,
      "getting": 7473,
      "catheters": 7474,
      "meningi": 7475,
      "South": 7476,
      "ranges": 7477,
      "Deficiency": 7478,
      "trend": 7479,
      "aldoster": 7480,
      "GR": 7481,
      "rejection": 7482,
      "desc": 7483,
      "opathies": 7484,
      "sexually": 7485,
      "malignancy": 7486,
      "Cervical": 7487,
      "synthesized": 7488,
      "Manifestations": 7489,
      "Tan": 7490,
      "onad": 7491,
      "iso": 7492,
      "ears": 7493,
      "ophosphate": 7494,
      "auze": 7495,
      "App": 7496,
      "Orth": 7497,
      "rinology": 7498,
      "amyloid": 7499,
      "stain": 7500,
      "subject": 7501,
      "goals": 7502,
      "approved": 7503,
      "hemolysis": 7504,
      "Infectious": 7505,
      "epinephrine": 7506,
      "Supportive": 7507,
      "Air": 7508,
      "asthen": 7509,
      "comes": 7510,
      "versal": 7511,
      "numbers": 7512,
      "shar": 7513,
      "amput": 7514,
      "consisted": 7515,
      "parathyroidism": 7516,
      "entricular": 7517,
      "cyanosis": 7518,
      "preliminary": 7519,
      "Ki": 7520,
      "essive": 7521,
      "confusion": 7522,
      "create": 7523,
      "ichia": 7524,
      "becoming": 7525,
      "nonsteroidal": 7526,
      "intervals": 7527,
      "Regarding": 7528,
      "cholecystitis": 7529,
      "Currently": 7530,
      "nurse": 7531,
      "HBeAg": 7532,
      "themia": 7533,
      "102": 7534,
      "bites": 7535,
      "ASA": 7536,
      "omye": 7537,
      "persons": 7538,
      "albuminuria": 7539,
      "adolescent": 7540,
      "filling": 7541,
      "cirrhotic": 7542,
      "Mac": 7543,
      "fasc": 7544,
      "gli": 7545,
      "already": 7546,
      "expen": 7547,
      "ologists": 7548,
      "portions": 7549,
      "raw": 7550,
      "aking": 7551,
      "Pharmac": 7552,
      "contraction": 7553,
      "myeloid": 7554,
      "gap": 7555,
      "pically": 7556,
      "inside": 7557,
      "offe": 7558,
      "nour": 7559,
      "specifically": 7560,
      "maintained": 7561,
      "otonin": 7562,
      "tonic": 7563,
      "scanning": 7564,
      "NSCLC": 7565,
      "calculi": 7566,
      "AVM": 7567,
      "distinguished": 7568,
      "orthopedic": 7569,
      "pseudo": 7570,
      "schizophren": 7571,
      "LP": 7572,
      "Mental": 7573,
      "fa": 7574,
      "zer": 7575,
      "tomas": 7576,
      "assays": 7577,
      "achno": 7578,
      "underweight": 7579,
      "aker": 7580,
      "Direct": 7581,
      "multivariate": 7582,
      "irritation": 7583,
      "adding": 7584,
      "compound": 7585,
      "performing": 7586,
      "oglobulin": 7587,
      "surveillance": 7588,
      "bey": 7589,
      "bella": 7590,
      "posing": 7591,
      "carefully": 7592,
      "airways": 7593,
      "examinations": 7594,
      "ARY": 7595,
      "importance": 7596,
      "greatly": 7597,
      "otide": 7598,
      "accurately": 7599,
      "poll": 7600,
      "attempt": 7601,
      "GH": 7602,
      "away": 7603,
      "erichia": 7604,
      "adone": 7605,
      "exist": 7606,
      "mm3": 7607,
      "ocalcemia": 7608,
      "waves": 7609,
      "fungi": 7610,
      "CAD": 7611,
      "UD": 7612,
      "cast": 7613,
      "jejun": 7614,
      "kit": 7615,
      "reed": 7616,
      "degenerative": 7617,
      "cluded": 7618,
      "surfaces": 7619,
      "109": 7620,
      "poprotein": 7621,
      "transmit": 7622,
      "thym": 7623,
      "lowering": 7624,
      "matter": 7625,
      "palate": 7626,
      "processes": 7627,
      "profloxacin": 7628,
      "tuberculous": 7629,
      "insufficient": 7630,
      "Typically": 7631,
      "households": 7632,
      "disturbance": 7633,
      "validated": 7634,
      "fruit": 7635,
      "triaxone": 7636,
      "meat": 7637,
      "oden": 7638,
      "coefficient": 7639,
      "enteritis": 7640,
      "suggestive": 7641,
      "epidemiology": 7642,
      "prednisone": 7643,
      "violence": 7644,
      "CYP": 7645,
      "Kien": 7646,
      "TAP": 7647,
      "gauze": 7648,
      "unnecessary": 7649,
      "chim": 7650,
      "lide": 7651,
      "larvae": 7652,
      "hypothermia": 7653,
      "hematoc": 7654,
      "dosing": 7655,
      "damaged": 7656,
      "places": 7657,
      "Decre": 7658,
      "synchron": 7659,
      "pharmaceutical": 7660,
      "conjunctival": 7661,
      "documented": 7662,
      "surrounding": 7663,
      "dorsal": 7664,
      "thropometric": 7665,
      "article": 7666,
      "column": 7667,
      "acety": 7668,
      "celer": 7669,
      "absolute": 7670,
      "hook": 7671,
      "moti": 7672,
      "0000": 7673,
      "Any": 7674,
      "giant": 7675,
      "limits": 7676,
      "ALL": 7677,
      "hematology": 7678,
      "morphological": 7679,
      "Level": 7680,
      "segmental": 7681,
      "properly": 7682,
      "vertebr": 7683,
      "feasibility": 7684,
      "PaO2": 7685,
      "mosquito": 7686,
      "Equipment": 7687,
      "Pred": 7688,
      "came": 7689,
      "reverse": 7690,
      "ads": 7691,
      "haz": 7692,
      "ducts": 7693,
      "cellulitis": 7694,
      "Depression": 7695,
      "ipenem": 7696,
      "statistics": 7697,
      "strophy": 7698,
      "Adv": 7699,
      "retrograde": 7700,
      "ENTS": 7701,
      "Determining": 7702,
      "babies": 7703,
      "omyelitis": 7704,
      "achnoid": 7705,
      "Sing": 7706,
      "Vag": 7707,
      "diol": 7708,
      "meals": 7709,
      "Inser": 7710,
      "ectual": 7711,
      "keto": 7712,
      "recessive": 7713,
      "variation": 7714,
      "ERCP": 7715,
      "micronutri": 7716,
      "Corticosteroids": 7717,
      "Evid": 7718,
      "Vuong": 7719,
      "aise": 7720,
      "lur": 7721,
      "items": 7722,
      "uled": 7723,
      "strom": 7724,
      "wasting": 7725,
      "dislocations": 7726,
      "timing": 7727,
      "timely": 7728,
      "cholangitis": 7729,
      "populations": 7730,
      "asked": 7731,
      "immunodeficiency": 7732,
      "Remo": 7733,
      "Sam": 7734,
      "Stom": 7735,
      "dop": 7736,
      "erec": 7737,
      "nhat": 7738,
      "tet": 7739,
      "acted": 7740,
      "urticaria": 7741,
      "Thomas": 7742,
      "select": 7743,
      "Commun": 7744,
      "tremor": 7745,
      "Obstruc": 7746,
      "effusions": 7747,
      "SOFA": 7748,
      "GT": 7749,
      "Human": 7750,
      "IA": 7751,
      "Tay": 7752,
      "Tem": 7753,
      "atum": 7754,
      "took": 7755,
      "odor": 7756,
      "perg": 7757,
      "inalysis": 7758,
      "autom": 7759,
      "caver": 7760,
      "clot": 7761,
      "ophilia": 7762,
      "supported": 7763,
      "advantage": 7764,
      "preparations": 7765,
      "detailed": 7766,
      "Mid": 7767,
      "Situ": 7768,
      "atab": 7769,
      "izations": 7770,
      "transverse": 7771,
      "Anal": 7772,
      "predictors": 7773,
      "vaginitis": 7774,
      "Brain": 7775,
      "Epidemi": 7776,
      "jugular": 7777,
      "mosis": 7778,
      "megal": 7779,
      "addic": 7780,
      "prevalent": 7781,
      "cytic": 7782,
      "enses": 7783,
      "ARDS": 7784,
      "inhibition": 7785,
      "appropriately": 7786,
      "bride": 7787,
      "preservation": 7788,
      "prosthesis": 7789,
      "oquinol": 7790,
      "hypoxemia": 7791,
      "Esch": 7792,
      "tus": 7793,
      "anter": 7794,
      "deple": 7795,
      "dizz": 7796,
      "chin": 7797,
      "sided": 7798,
      "sea": 7799,
      "exud": 7800,
      "ders": 7801,
      "mode": 7802,
      "teen": 7803,
      "crim": 7804,
      "autions": 7805,
      "histologic": 7806,
      "adily": 7807,
      "donation": 7808,
      "phenol": 7809,
      "limbs": 7810,
      "Tumors": 7811,
      "quadrant": 7812,
      "observational": 7813,
      "interfere": 7814,
      "acetyl": 7815,
      "Ir": 7816,
      "bis": 7817,
      "itating": 7818,
      "adren": 7819,
      "nous": 7820,
      "vix": 7821,
      "That": 7822,
      "atica": 7823,
      "mention": 7824,
      "Syn": 7825,
      "Phuong": 7826,
      "prompt": 7827,
      "parenchyma": 7828,
      "White": 7829,
      "provincial": 7830,
      "diazep": 7831,
      "Dietary": 7832,
      "dizziness": 7833,
      "compr": 7834,
      "disk": 7835,
      "sures": 7836,
      "sphen": 7837,
      "ograph": 7838,
      "focused": 7839,
      "FSH": 7840,
      "employ": 7841,
      "SPECT": 7842,
      "Tes": 7843,
      "hind": 7844,
      "oventricular": 7845,
      "vof": 7846,
      "wat": 7847,
      "aning": 7848,
      "agen": 7849,
      "beam": 7850,
      "Through": 7851,
      "else": 7852,
      "hile": 7853,
      "forearm": 7854,
      "positively": 7855,
      "sterectomy": 7856,
      "colonic": 7857,
      "avian": 7858,
      "chiminh": 7859,
      "Each": 7860,
      "Rheum": 7861,
      "TM": 7862,
      "aques": 7863,
      "uthern": 7864,
      "ously": 7865,
      "tel": 7866,
      "aminophen": 7867,
      "blocker": 7868,
      "requirement": 7869,
      "penile": 7870,
      "custom": 7871,
      "iva": 7872,
      "driving": 7873,
      "Antibiotic": 7874,
      "H2O": 7875,
      "eggs": 7876,
      "Sensi": 7877,
      "T0": 7878,
      "bag": 7879,
      "rac": 7880,
      "tage": 7881,
      "inate": 7882,
      "titive": 7883,
      "thong": 7884,
      "ister": 7885,
      "ura": 7886,
      "foramen": 7887,
      "hole": 7888,
      "plane": 7889,
      "pura": 7890,
      "Design": 7891,
      "triggers": 7892,
      "lasting": 7893,
      "tears": 7894,
      "vietnamese": 7895,
      "adjustment": 7896,
      "Guidelines": 7897,
      "Number": 7898,
      "anaphylaxis": 7899,
      "intolerance": 7900,
      "Coronary": 7901,
      "SL": 7902,
      "Media": 7903,
      "mucous": 7904,
      "resolves": 7905,
      "arthroplasty": 7906,
      "John": 7907,
      "Echocardi": 7908,
      "DHF": 7909,
      "HP": 7910,
      "Mus": 7911,
      "gut": 7912,
      "rif": 7913,
      "zoster": 7914,
      "inatal": 7915,
      "compress": 7916,
      "never": 7917,
      "undergone": 7918,
      "guideline": 7919,
      "limitations": 7920,
      "accompany": 7921,
      "beyond": 7922,
      "Ps": 7923,
      "replaced": 7924,
      "atopic": 7925,
      "assign": 7926,
      "antiviral": 7927,
      "pathogen": 7928,
      "retrospectively": 7929,
      "electropho": 7930,
      "chemicals": 7931,
      "oglycos": 7932,
      "bilirubinemia": 7933,
      "Measure": 7934,
      "Evidence": 7935,
      "kitch": 7936,
      "nings": 7937,
      "scap": 7938,
      "ica": 7939,
      "unte": 7940,
      "lock": 7941,
      "uding": 7942,
      "anger": 7943,
      "160": 7944,
      "moderately": 7945,
      "address": 7946,
      "lymphadenopathy": 7947,
      "5th": 7948,
      "fine": 7949,
      "iate": 7950,
      "wind": 7951,
      "inum": 7952,
      "eries": 7953,
      "atar": 7954,
      "icul": 7955,
      "itude": 7956,
      "discovered": 7957,
      "cervix": 7958,
      "interpre": 7959,
      "noninvasive": 7960,
      "soluble": 7961,
      "hypnea": 7962,
      "dynamic": 7963,
      "isolates": 7964,
      "avoiding": 7965,
      "ductus": 7966,
      "Positioning": 7967,
      "asthenia": 7968,
      "SU": 7969,
      "fecal": 7970,
      "uan": 7971,
      "instead": 7972,
      "usage": 7973,
      "wides": 7974,
      "adays": 7975,
      "ock": 7976,
      "vestibular": 7977,
      "copper": 7978,
      "mito": 7979,
      "laparotomy": 7980,
      "Adminis": 7981,
      "syncope": 7982,
      "tubation": 7983,
      "Ngoc": 7984,
      "worsening": 7985,
      "sarcoma": 7986,
      "friends": 7987,
      "atosis": 7988,
      "arrow": 7989,
      "staphyloc": 7990,
      "oli": 7991,
      "chosen": 7992,
      "prosy": 7993,
      "mountain": 7994,
      "hau": 7995,
      "caring": 7996,
      "Those": 7997,
      "biology": 7998,
      "Methodology": 7999,
      "occult": 8000,
      "Percutaneous": 8001,
      "coliosis": 8002,
      "Considerations": 8003,
      "faster": 8004,
      "halluc": 8005,
      "Escherichia": 8006,
      "FA": 8007,
      "arachnoid": 8008,
      "ulnar": 8009,
      "exer": 8010,
      "borne": 8011,
      "simplex": 8012,
      "lymphocyte": 8013,
      "instruments": 8014,
      "widespread": 8015,
      "inated": 8016,
      "touch": 8017,
      "eces": 8018,
      "oding": 8019,
      "igible": 8020,
      "palliative": 8021,
      "histology": 8022,
      "flexible": 8023,
      "Practi": 8024,
      "bacilli": 8025,
      "speed": 8026,
      "interviews": 8027,
      "Injury": 8028,
      "gingival": 8029,
      "visceral": 8030,
      "calcitonin": 8031,
      "Asia": 8032,
      "Stro": 8033,
      "thigh": 8034,
      "ecrosis": 8035,
      "exon": 8036,
      "izer": 8037,
      "hyperparathyroidism": 8038,
      "regulation": 8039,
      "insic": 8040,
      "detach": 8041,
      "Clos": 8042,
      "hypoxia": 8043,
      "terminal": 8044,
      "dilatation": 8045,
      "Cardiology": 8046,
      "tubes": 8047,
      "minority": 8048,
      "cyclophosphamide": 8049,
      "hemorrhoids": 8050,
      "Peripheral": 8051,
      "PATI": 8052,
      "Lam": 8053,
      "VATS": 8054,
      "bia": 8055,
      "crow": 8056,
      "adul": 8057,
      "pharyngeal": 8058,
      "pox": 8059,
      "tricuspid": 8060,
      "openia": 8061,
      "placing": 8062,
      "phenomen": 8063,
      "contributes": 8064,
      "Gluc": 8065,
      "Determination": 8066,
      "Trauma": 8067,
      "Esoph": 8068,
      "remedy": 8069,
      "Sc": 8070,
      "comfor": 8071,
      "expressed": 8072,
      "101": 8073,
      "pressing": 8074,
      "interfer": 8075,
      "Anes": 8076,
      "ICD": 8077,
      "film": 8078,
      "Place": 8079,
      "habit": 8080,
      "Beta": 8081,
      "bacteremia": 8082,
      "Thyroid": 8083,
      "Family": 8084,
      "Pelvic": 8085,
      "San": 8086,
      "Sol": 8087,
      "Western": 8088,
      "proj": 8089,
      "ectable": 8090,
      "gradi": 8091,
      "indamycin": 8092,
      "neuropath": 8093,
      "Assessing": 8094,
      "SpO2": 8095,
      "facilitate": 8096,
      "Clinicians": 8097,
      "Thromb": 8098,
      "Err": 8099,
      "D2": 8100,
      "Dep": 8101,
      "Dak": 8102,
      "Pen": 8103,
      "TRE": 8104,
      "cris": 8105,
      "encoun": 8106,
      "acceler": 8107,
      "seems": 8108,
      "vena": 8109,
      "critically": 8110,
      "subacute": 8111,
      "cordance": 8112,
      "held": 8113,
      "atories": 8114,
      "exploration": 8115,
      "compromise": 8116,
      "elastic": 8117,
      "Streptococcus": 8118,
      "tone": 8119,
      "conazole": 8120,
      "elds": 8121,
      "obstetric": 8122,
      "kinds": 8123,
      "immunization": 8124,
      "hypothal": 8125,
      "ibrom": 8126,
      "adequately": 8127,
      "Related": 8128,
      "socio": 8129,
      "sweating": 8130,
      "standardized": 8131,
      "Hor": 8132,
      "VC": 8133,
      "vap": 8134,
      "olec": 8135,
      "iltration": 8136,
      "concurrent": 8137,
      "hysterectomy": 8138,
      "prazole": 8139,
      "numerous": 8140,
      "sensiti": 8141,
      "tigm": 8142,
      "strictures": 8143,
      "skill": 8144,
      "maximal": 8145,
      "responsive": 8146,
      "separate": 8147,
      "Certain": 8148,
      "Identify": 8149,
      "Vascular": 8150,
      "persists": 8151,
      "BY": 8152,
      "TY": 8153,
      "While": 8154,
      "tamp": 8155,
      "atures": 8156,
      "mouse": 8157,
      "outflow": 8158,
      "interrup": 8159,
      "myopia": 8160,
      "takes": 8161,
      "vagina": 8162,
      "Moreover": 8163,
      "cephalus": 8164,
      "Even": 8165,
      "MM": 8166,
      "Tests": 8167,
      "sent": 8168,
      "itory": 8169,
      "beats": 8170,
      "ider": 8171,
      "plaques": 8172,
      "cool": 8173,
      "ysto": 8174,
      "volunte": 8175,
      "cardiogenic": 8176,
      "horiz": 8177,
      "COS": 8178,
      "phenyl": 8179,
      "filled": 8180,
      "Radiation": 8181,
      "Therapy": 8182,
      "polymorphism": 8183,
      "congestion": 8184,
      "Hand": 8185,
      "VND": 8186,
      "buc": 8187,
      "fear": 8188,
      "task": 8189,
      "warr": 8190,
      "ork": 8191,
      "attend": 8192,
      "entry": 8193,
      "chond": 8194,
      "condy": 8195,
      "intrahepatic": 8196,
      "participating": 8197,
      "concerns": 8198,
      "gauge": 8199,
      "carrying": 8200,
      "pruritus": 8201,
      "Studies": 8202,
      "Journal": 8203,
      "Spl": 8204,
      "]).": 8205,
      "aver": 8206,
      "aco": 8207,
      "Stress": 8208,
      "pulp": 8209,
      "intrauterine": 8210,
      "adenomas": 8211,
      "penis": 8212,
      "supporting": 8213,
      "reveal": 8214,
      "preserved": 8215,
      "Lower": 8216,
      "gonad": 8217,
      "walk": 8218,
      "thyroiditis": 8219,
      "CMV": 8220,
      "anticoagulant": 8221,
      "electrophoresis": 8222,
      "FABP": 8223,
      "Right": 8224,
      "ave": 8225,
      "heman": 8226,
      "noti": 8227,
      "opharynx": 8228,
      "Effect": 8229,
      "tachypnea": 8230,
      "predominantly": 8231,
      "Since": 8232,
      "GERD": 8233,
      "Moderate": 8234,
      "B1": 8235,
      "Ten": 8236,
      "tid": 8237,
      "ofrequency": 8238,
      "osum": 8239,
      "apan": 8240,
      "surgeries": 8241,
      "atively": 8242,
      "meaning": 8243,
      "bacterium": 8244,
      "scalp": 8245,
      "aspect": 8246,
      "Apply": 8247,
      "voice": 8248,
      "progresses": 8249,
      "aryngitis": 8250,
      "melanoma": 8251,
      "Lesions": 8252,
      "Bron": 8253,
      "icol": 8254,
      "proges": 8255,
      "implants": 8256,
      "cornea": 8257,
      "usions": 8258,
      "Thien": 8259,
      "factant": 8260,
      "ichen": 8261,
      "urgent": 8262,
      "collateral": 8263,
      "member": 8264,
      "purulent": 8265,
      "quantity": 8266,
      "checked": 8267,
      "tensor": 8268,
      "Biop": 8269,
      "precise": 8270,
      "propofol": 8271,
      "diuretic": 8272,
      "WITH": 8273,
      "RESUL": 8274,
      "Business": 8275,
      "Max": 8276,
      "ptions": 8277,
      "uve": 8278,
      "abrup": 8279,
      "neo": 8280,
      "wered": 8281,
      "worms": 8282,
      "bring": 8283,
      "flat": 8284,
      "visits": 8285,
      "Statis": 8286,
      "ocardial": 8287,
      "adias": 8288,
      "clinics": 8289,
      "Ultrasonography": 8290,
      "symtom": 8291,
      "Fractures": 8292,
      "Single": 8293,
      "Stroke": 8294,
      "Cry": 8295,
      "atase": 8296,
      "itaxel": 8297,
      "ambul": 8298,
      "cou": 8299,
      "redness": 8300,
      "hypercalcemia": 8301,
      "transferred": 8302,
      "deficient": 8303,
      "plantar": 8304,
      "military": 8305,
      "varices": 8306,
      "colonoscopy": 8307,
      "recognize": 8308,
      "parasite": 8309,
      "Author": 8310,
      "European": 8311,
      "ublic": 8312,
      "schizophrenia": 8313,
      "Figure": 8314,
      "PAP": 8315,
      "QRS": 8316,
      "Rob": 8317,
      "Smo": 8318,
      "Sleep": 8319,
      "distributed": 8320,
      "bjective": 8321,
      "regulations": 8322,
      "helping": 8323,
      "tablet": 8324,
      "IOP": 8325,
      "gait": 8326,
      "eosinophilic": 8327,
      "Vaccin": 8328,
      "immunohistochemistry": 8329,
      "cerebellar": 8330,
      "expensive": 8331,
      "Las": 8332,
      "Odon": 8333,
      "ort": 8334,
      "ositis": 8335,
      "osarcoma": 8336,
      "usitis": 8337,
      "serotonin": 8338,
      "volumes": 8339,
      "supine": 8340,
      "numb": 8341,
      "Pham": 8342,
      "stopping": 8343,
      "continuously": 8344,
      "familial": 8345,
      "deformities": 8346,
      "tronidazole": 8347,
      "intellectual": 8348,
      "stiffness": 8349,
      "Electro": 8350,
      "hemangi": 8351,
      "Lim": 8352,
      "Ver": 8353,
      "uncertain": 8354,
      "notic": 8355,
      "Infl": 8356,
      "feed": 8357,
      "hemoptysis": 8358,
      "humeral": 8359,
      "cava": 8360,
      "thromboembolism": 8361,
      "splenomegaly": 8362,
      "recipients": 8363,
      "arteriosus": 8364,
      "incident": 8365,
      "tympanic": 8366,
      "variceal": 8367,
      "Echocardiography": 8368,
      "comfortable": 8369,
      "2D": 8370,
      "Whe": 8371,
      "recombin": 8372,
      "cortical": 8373,
      "poreal": 8374,
      "elective": 8375,
      "Meth": 8376,
      "triple": 8377,
      "perioperative": 8378,
      "incis": 8379,
      "ditionally": 8380,
      "multiplex": 8381,
      "placental": 8382,
      "MRSA": 8383,
      "appendectomy": 8384,
      "lithiasis": 8385,
      "prosthetic": 8386,
      "feeling": 8387,
      "society": 8388,
      "Catheter": 8389,
      "connective": 8390,
      "anticoagulants": 8391,
      "vasopressin": 8392,
      "descending": 8393,
      "sphenoid": 8394,
      "Administration": 8395,
      "recombinant": 8396,
      "SV": 8397,
      "aemia": 8398,
      "aces": 8399,
      "seaf": 8400,
      "ogastric": 8401,
      "raise": 8402,
      "cytology": 8403,
      "Compared": 8404,
      "reflexes": 8405,
      "Pancre": 8406,
      "antidepressants": 8407,
      "musculoskeletal": 8408,
      "Situation": 8409,
      "Odonto": 8410,
      "Gn": 8411,
      "SF": 8412,
      "Susp": 8413,
      "VAP": 8414,
      "accept": 8415,
      "terone": 8416,
      "olin": 8417,
      "deliver": 8418,
      "unable": 8419,
      "patent": 8420,
      "Despite": 8421,
      "embryo": 8422,
      "bundle": 8423,
      "Errors": 8424,
      "Cro": 8425,
      "EM": 8426,
      "EAR": 8427,
      "VSD": 8428,
      "jun": 8429,
      "oedema": 8430,
      "uate": 8431,
      "debride": 8432,
      "Ins": 8433,
      "mini": 8434,
      "largest": 8435,
      "Aftercare": 8436,
      "ubic": 8437,
      "analog": 8438,
      "analysed": 8439,
      "aclitaxel": 8440,
      "rimal": 8441,
      "Monitor": 8442,
      "penetrating": 8443,
      "Procedure": 8444,
      "800": 8445,
      "DO": 8446,
      "tax": 8447,
      "sian": 8448,
      "mobile": 8449,
      "005": 8450,
      "hemi": 8451,
      "forming": 8452,
      "enterology": 8453,
      "asym": 8454,
      "oked": 8455,
      "electrocardi": 8456,
      "immunosuppressive": 8457,
      "Pneumonia": 8458,
      "empiric": 8459,
      "NIHSS": 8460,
      "nourished": 8461,
      "DF": 8462,
      "Paren": 8463,
      "ras": 8464,
      "tose": 8465,
      "totally": 8466,
      "unusual": 8467,
      "protr": 8468,
      "ames": 8469,
      "soil": 8470,
      "bloody": 8471,
      "nip": 8472,
      "Anterior": 8473,
      "Relevant": 8474,
      "Diagnose": 8475,
      "fertility": 8476,
      "PDA": 8477,
      "scales": 8478,
      "THO": 8479,
      "allowed": 8480,
      "acetamol": 8481,
      "onephrosis": 8482,
      "artificial": 8483,
      "oblastoma": 8484,
      "hematocrit": 8485,
      "gradient": 8486,
      "Fetal": 8487,
      "Hol": 8488,
      "Kim": 8489,
      "pp": 8490,
      "tite": 8491,
      "leth": 8492,
      "formal": 8493,
      "applications": 8494,
      "umed": 8495,
      "intercourse": 8496,
      "surethral": 8497,
      "ishing": 8498,
      "concentrated": 8499,
      "fertilization": 8500,
      "conduct": 8501,
      "Alcohol": 8502,
      "hypokalemia": 8503,
      "hypocalcemia": 8504,
      "brown": 8505,
      "Aden": 8506,
      "cytosis": 8507,
      "allele": 8508,
      "Toxic": 8509,
      "cruciate": 8510,
      "Springer": 8511,
      "Biopsy": 8512,
      "Score": 8513,
      "hcm": 8514,
      "intention": 8515,
      "thood": 8516,
      "arbon": 8517,
      "malaise": 8518,
      "fluc": 8519,
      "formulation": 8520,
      "limiting": 8521,
      "solitary": 8522,
      "gastroesophageal": 8523,
      "purpura": 8524,
      "Arthro": 8525,
      "specialized": 8526,
      "molecules": 8527,
      "Immuno": 8528,
      "front": 8529,
      "assigned": 8530,
      "TREAT": 8531,
      "Fo": 8532,
      "Short": 8533,
      "pine": 8534,
      "opposite": 8535,
      "exhibit": 8536,
      "initiation": 8537,
      "fluoride": 8538,
      "refers": 8539,
      "mimic": 8540,
      "Ge": 8541,
      "Isol": 8542,
      "Leu": 8543,
      "RR": 8544,
      "TER": 8545,
      "knew": 8546,
      "zhe": 8547,
      "áng": 8548,
      "orporeal": 8549,
      "diverse": 8550,
      "amox": 8551,
      "search": 8552,
      "coverage": 8553,
      "validity": 8554,
      "ospadias": 8555,
      "bling": 8556,
      "metformin": 8557,
      "sedi": 8558,
      "equip": 8559,
      "America": 8560,
      "strengthen": 8561,
      "Carb": 8562,
      "omatosis": 8563,
      "baby": 8564,
      "econium": 8565,
      "shift": 8566,
      "lurane": 8567,
      "elsewhere": 8568,
      "adulthood": 8569,
      "CBC": 8570,
      "Ven": 8571,
      "bath": 8572,
      "sm": 8573,
      "scor": 8574,
      "arial": 8575,
      "dioxide": 8576,
      "trich": 8577,
      "track": 8578,
      "managing": 8579,
      "bipolar": 8580,
      "diffusion": 8581,
      "18F": 8582,
      "audi": 8583,
      "IC50": 8584,
      "dexamethasone": 8585,
      "ulinum": 8586,
      "cultured": 8587,
      "Thuan": 8588,
      "epileptic": 8589,
      "FDA": 8590,
      "parenchymal": 8591,
      "straight": 8592,
      "hydrate": 8593,
      "tampon": 8594,
      "Lew": 8595,
      "Not": 8596,
      "hid": 8597,
      "nan": 8598,
      "inability": 8599,
      "uncontrolled": 8600,
      "aments": 8601,
      "oneal": 8602,
      "patch": 8603,
      "nodular": 8604,
      "tomotic": 8605,
      "thrombotic": 8606,
      "necrotic": 8607,
      "flavon": 8608,
      "ingredients": 8609,
      "chondrial": 8610,
      "encountered": 8611,
      "Go": 8612,
      "Glo": 8613,
      "OM": 8614,
      "Pi": 8615,
      "insi": 8616,
      "endi": 8617,
      "apping": 8618,
      "worker": 8619,
      "steine": 8620,
      "Impro": 8621,
      "phosphol": 8622,
      "methadone": 8623,
      "Enterobacter": 8624,
      "prednisol": 8625,
      "schedule": 8626,
      "glomerulonephritis": 8627,
      "Findings": 8628,
      "Protein": 8629,
      "hypogonad": 8630,
      "Oper": 8631,
      "passive": 8632,
      "think": 8633,
      "terase": 8634,
      "agreed": 8635,
      "sification": 8636,
      "amatic": 8637,
      "bru": 8638,
      "giang": 8639,
      "missed": 8640,
      "laboratories": 8641,
      "ulcerative": 8642,
      "Positive": 8643,
      "released": 8644,
      "atrioventricular": 8645,
      "choledoch": 8646,
      "Japan": 8647,
      "burg": 8648,
      "dinh": 8649,
      "oto": 8650,
      "ovary": 8651,
      "novel": 8652,
      "expan": 8653,
      "tradiol": 8654,
      "goiter": 8655,
      "researches": 8656,
      "predictor": 8657,
      "births": 8658,
      "personnel": 8659,
      "grades": 8660,
      "sarcoidosis": 8661,
      "aesthetic": 8662,
      "erectile": 8663,
      "arbonate": 8664,
      "HT": 8665,
      "None": 8666,
      "York": 8667,
      "ipul": 8668,
      "till": 8669,
      "oscler": 8670,
      "deposition": 8671,
      "lobectomy": 8672,
      "emis": 8673,
      "malabsorption": 8674,
      "oides": 8675,
      "kinder": 8676,
      "produces": 8677,
      "Alzhe": 8678,
      "tolerate": 8679,
      "absorbed": 8680,
      "nicot": 8681,
      "scars": 8682,
      "Upper": 8683,
      "psychotic": 8684,
      "employe": 8685,
      "elements": 8686,
      "inhalation": 8687,
      "duodenum": 8688,
      "astrocy": 8689,
      "atabase": 8690,
      "poc": 8691,
      "Adoles": 8692,
      "myocarditis": 8693,
      "ECMO": 8694,
      "mandible": 8695,
      "Warnings": 8696,
      "Sensitivity": 8697,
      "Leuk": 8698,
      "BD": 8699,
      "cada": 8700,
      "eal": 8701,
      "oint": 8702,
      "phe": 8703,
      "estradiol": 8704,
      "unlikely": 8705,
      "ceived": 8706,
      "discrim": 8707,
      "rix": 8708,
      "transcri": 8709,
      "doxy": 8710,
      "partners": 8711,
      "suppress": 8712,
      "Trung": 8713,
      "marks": 8714,
      "midline": 8715,
      "scope": 8716,
      "articles": 8717,
      "immobilization": 8718,
      "Practice": 8719,
      "Lo": 8720,
      "Ti": 8721,
      "dog": 8722,
      "ultim": 8723,
      "resource": 8724,
      "forward": 8725,
      "umbar": 8726,
      "myco": 8727,
      "works": 8728,
      "ICS": 8729,
      "processed": 8730,
      "Appro": 8731,
      "Fibro": 8732,
      "accepted": 8733,
      "diaphragmatic": 8734,
      "Detection": 8735,
      "Incidence": 8736,
      "SO": 8737,
      "Tn": 8738,
      "farm": 8739,
      "ked": 8740,
      "vast": 8741,
      "inting": 8742,
      "inib": 8743,
      "wearing": 8744,
      "motility": 8745,
      "preeclampsia": 8746,
      "dramatic": 8747,
      "frailty": 8748,
      "135": 8749,
      "ceps": 8750,
      "recommendation": 8751,
      "ididy": 8752,
      "Recurrent": 8753,
      "participated": 8754,
      "latent": 8755,
      "osporine": 8756,
      "parasitic": 8757,
      "Joint": 8758,
      "pacem": 8759,
      "laceration": 8760,
      "hallucin": 8761,
      "PATIENTS": 8762,
      "Barr": 8763,
      "Prel": 8764,
      "VIII": 8765,
      "gun": 8766,
      "sap": 8767,
      "replace": 8768,
      "upon": 8769,
      "cortex": 8770,
      "pathogenesis": 8771,
      "facility": 8772,
      "Need": 8773,
      "PPH": 8774,
      "112": 8775,
      "Cutaneous": 8776,
      "dication": 8777,
      "atio": 8778,
      "itance": 8779,
      "trated": 8780,
      "emerg": 8781,
      "cardio": 8782,
      "blue": 8783,
      "24h": 8784,
      "solvent": 8785,
      "microscopy": 8786,
      "Poor": 8787,
      "oriatic": 8788,
      "pyel": 8789,
      "Associated": 8790,
      "ACTH": 8791,
      "Pressure": 8792,
      "Another": 8793,
      "ERI": 8794,
      "Public": 8795,
      "ours": 8796,
      "town": 8797,
      "ley": 8798,
      "clavian": 8799,
      "plain": 8800,
      "phther": 8801,
      "phone": 8802,
      "subarachnoid": 8803,
      "appa": 8804,
      "femur": 8805,
      "helped": 8806,
      "variations": 8807,
      "radiographic": 8808,
      "collect": 8809,
      "Hemo": 8810,
      "stenting": 8811,
      "Special": 8812,
      "Outcome": 8813,
      "aminotransferase": 8814,
      "circulatory": 8815,
      "aplasia": 8816,
      "sympathetic": 8817,
      "kindergar": 8818,
      "Avoid": 8819,
      "C3": 8820,
      "Fal": 8821,
      "Fran": 8822,
      "Vu": 8823,
      "oside": 8824,
      "sitis": 8825,
      "seven": 8826,
      "hoe": 8827,
      "inea": 8828,
      "former": 8829,
      "tracycl": 8830,
      "burning": 8831,
      "Often": 8832,
      "error": 8833,
      "appetite": 8834,
      "spasm": 8835,
      "lamydia": 8836,
      "urethra": 8837,
      "doxycycline": 8838,
      "ARI": 8839,
      "Ster": 8840,
      "oin": 8841,
      "rat": 8842,
      "smell": 8843,
      "displaced": 8844,
      "liac": 8845,
      "angeal": 8846,
      "private": 8847,
      "evident": 8848,
      "clinician": 8849,
      "reaching": 8850,
      "stools": 8851,
      "Regional": 8852,
      "BO": 8853,
      "Four": 8854,
      "ifor": 8855,
      "anthropometric": 8856,
      "atch": 8857,
      "toe": 8858,
      "depressed": 8859,
      "sizes": 8860,
      "ights": 8861,
      "valves": 8862,
      "athle": 8863,
      "company": 8864,
      "created": 8865,
      "splint": 8866,
      "lactin": 8867,
      "Gastric": 8868,
      "inspection": 8869,
      "subcutaneously": 8870,
      "erythropo": 8871,
      "oglobin": 8872,
      "bicarbonate": 8873,
      "diaphragm": 8874,
      "diverticulum": 8875,
      "dimensional": 8876,
      "combine": 8877,
      "diazepines": 8878,
      "debridement": 8879,
      "DU": 8880,
      "SR": 8881,
      "natal": 8882,
      "nees": 8883,
      "plicated": 8884,
      "colistin": 8885,
      "akes": 8886,
      "atism": 8887,
      "axia": 8888,
      "perforated": 8889,
      "postmenopausal": 8890,
      "Period": 8891,
      "Posterior": 8892,
      "prescribing": 8893,
      "arthroscopic": 8894,
      "Tuber": 8895,
      "meeting": 8896,
      "electronic": 8897,
      "Thoracic": 8898,
      "Nursing": 8899,
      "synovial": 8900,
      "osclerotic": 8901,
      "Venti": 8902,
      "ets": 8903,
      "ora": 8904,
      "andibular": 8905,
      "suppression": 8906,
      "headaches": 8907,
      "hypoplas": 8908,
      "biopsies": 8909,
      "thoracotomy": 8910,
      "classes": 8911,
      "connection": 8912,
      "instrument": 8913,
      "erythematous": 8914,
      "bradycardia": 8915,
      "Cu": 8916,
      "H1": 8917,
      "Ta": 8918,
      "Urology": 8919,
      "tan": 8920,
      "wanted": 8921,
      "oment": 8922,
      "leprosy": 8923,
      "Their": 8924,
      "seed": 8925,
      "moving": 8926,
      "infective": 8927,
      "sore": 8928,
      "fibers": 8929,
      "hyperbilirubinemia": 8930,
      "indicating": 8931,
      "Adults": 8932,
      "cumin": 8933,
      "phenotype": 8934,
      "fistulas": 8935,
      "maxill": 8936,
      "farin": 8937,
      "reflect": 8938,
      "harmful": 8939,
      "promptly": 8940,
      "outbreaks": 8941,
      "embryos": 8942,
      "RESULTS": 8943,
      "CAR": 8944,
      "D3": 8945,
      "Year": 8946,
      "cation": 8947,
      "oC": 8948,
      "scoliosis": 8949,
      "anaerobic": 8950,
      "route": 8951,
      "ulum": 8952,
      "proportions": 8953,
      "iteal": 8954,
      "appendi": 8955,
      "Deep": 8956,
      "NAL": 8957,
      "ulceration": 8958,
      "Recently": 8959,
      "specialist": 8960,
      "exclusive": 8961,
      "original": 8962,
      "circumstances": 8963,
      "lactamase": 8964,
      "explore": 8965,
      "Functional": 8966,
      "Decreased": 8967,
      "Cef": 8968,
      "Fore": 8969,
      "GBS": 8970,
      "NPV": 8971,
      "ithromycin": 8972,
      "tium": 8973,
      "isation": 8974,
      "olus": 8975,
      "coming": 8976,
      "carpal": 8977,
      "endazole": 8978,
      "pron": 8979,
      "childrens": 8980,
      "folate": 8981,
      "gives": 8982,
      "locally": 8983,
      "Preoperative": 8984,
      "parent": 8985,
      "hormonal": 8986,
      "albic": 8987,
      "parasites": 8988,
      "influenzae": 8989,
      "pericarditis": 8990,
      "Tropical": 8991,
      "building": 8992,
      "Criter": 8993,
      "hemostasis": 8994,
      "commercial": 8995,
      "cavernous": 8996,
      "Inflamm": 8997,
      "Alzheimer": 8998,
      "Ess": 8999,
      "GC": 9000,
      "oncology": 9001,
      "onecrosis": 9002,
      "alg": 9003,
      "osper": 9004,
      "meal": 9005,
      "etin": 9006,
      "tried": 9007,
      "flag": 9008,
      "specially": 9009,
      "defec": 9010,
      "caesarean": 9011,
      "analyzing": 9012,
      "transurethral": 9013,
      "mucus": 9014,
      "turnal": 9015,
      "responsi": 9016,
      "structured": 9017,
      "rhinosin": 9018,
      "referral": 9019,
      "candidiasis": 9020,
      "aldosterone": 9021,
      "progesterone": 9022,
      "numbness": 9023,
      "Elev": 9024,
      "fel": 9025,
      "readily": 9026,
      "align": 9027,
      "itations": 9028,
      "ulatory": 9029,
      "partially": 9030,
      "ostatic": 9031,
      "undernutrition": 9032,
      "ituximab": 9033,
      "Image": 9034,
      "gave": 9035,
      "discussion": 9036,
      "Metabolic": 9037,
      "erythrocyte": 9038,
      "mentioned": 9039,
      "Prelim": 9040,
      "Amp": 9041,
      "C1": 9042,
      "Tips": 9043,
      "nife": 9044,
      "isten": 9045,
      "resc": 9046,
      "behind": 9047,
      "suicidal": 9048,
      "ificant": 9049,
      "eps": 9050,
      "003": 9051,
      "icities": 9052,
      "autism": 9053,
      "INR": 9054,
      "treament": 9055,
      "vitamins": 9056,
      "remained": 9057,
      "synthetic": 9058,
      "delivered": 9059,
      "Correlation": 9060,
      "Between": 9061,
      "oderma": 9062,
      "deterioration": 9063,
      "horizontal": 9064,
      "prednisolone": 9065,
      "Asian": 9066,
      "DSA": 9067,
      "Số": 9068,
      "oflu": 9069,
      "disci": 9070,
      "antihist": 9071,
      "manual": 9072,
      "002": 9073,
      "hemis": 9074,
      "ICP": 9075,
      "ergies": 9076,
      "ACL": 9077,
      "continues": 9078,
      "avoidance": 9079,
      "Asthma": 9080,
      "costal": 9081,
      "Quanti": 9082,
      "stimulate": 9083,
      "acetaminophen": 9084,
      "physiological": 9085,
      "macroph": 9086,
      "Vaccine": 9087,
      "atrium": 9088,
      "Furthermore": 9089,
      "Bacterial": 9090,
      "Thalassemia": 9091,
      "sharp": 9092,
      "Esophageal": 9093,
      "EEG": 9094,
      "NH": 9095,
      "Rot": 9096,
      "mam": 9097,
      "odu": 9098,
      "apid": 9099,
      "emphy": 9100,
      "surfactant": 9101,
      "obstetrics": 9102,
      "aki": 9103,
      "175": 9104,
      "hypospadias": 9105,
      "sternal": 9106,
      "openem": 9107,
      "ranul": 9108,
      "influenced": 9109,
      "phosphatase": 9110,
      "perineal": 9111,
      "Tricks": 9112,
      "lavage": 9113,
      "ophosphatemia": 9114,
      "uveitis": 9115,
      "Criteria": 9116,
      "Preliminary": 9117,
      "emphyse": 9118,
      "xin": 9119,
      "dee": 9120,
      "dimer": 9121,
      "moist": 9122,
      "suring": 9123,
      "respiration": 9124,
      "myasthenia": 9125,
      "oxazole": 9126,
      "hydrocephalus": 9127,
      "influencing": 9128,
      "leukin": 9129,
      "CHD": 9130,
      "methop": 9131,
      "turn": 9132,
      "attempts": 9133,
      "Dermatology": 9134,
      "chemoradiotherapy": 9135,
      "amputation": 9136,
      "expansion": 9137,
      "KAP": 9138,
      "Saf": 9139,
      "ochrom": 9140,
      "scr": 9141,
      "reology": 9142,
      "cement": 9143,
      "cone": 9144,
      "aint": 9145,
      "pressures": 9146,
      "eligible": 9147,
      "voluntary": 9148,
      "RIF": 9149,
      "hypov": 9150,
      "ACHE": 9151,
      "grams": 9152,
      "thrombus": 9153,
      "IOL": 9154,
      "sinuses": 9155,
      "vulner": 9156,
      "fourth": 9157,
      "esophagectomy": 9158,
      "sulfate": 9159,
      "relaxation": 9160,
      "correlate": 9161,
      "convenient": 9162,
      "vertebrae": 9163,
      "dopamine": 9164,
      "Aortic": 9165,
      "Fish": 9166,
      "dest": 9167,
      "xine": 9168,
      "argy": 9169,
      "osine": 9170,
      "termed": 9171,
      "ola": 9172,
      "canals": 9173,
      "prevents": 9174,
      "tomies": 9175,
      "copies": 9176,
      "decisions": 9177,
      "variability": 9178,
      "Weight": 9179,
      "panel": 9180,
      "APACHE": 9181,
      "hematologic": 9182,
      "ADS": 9183,
      "SSRI": 9184,
      "recognition": 9185,
      "neutral": 9186,
      "contraception": 9187,
      "penetration": 9188,
      "bony": 9189,
      "categories": 9190,
      "epidermal": 9191,
      "Crohn": 9192,
      "Its": 9193,
      "nguyen": 9194,
      "rene": 9195,
      "ulative": 9196,
      "omed": 9197,
      "corpor": 9198,
      "biologic": 9199,
      "careful": 9200,
      "ademic": 9201,
      "equally": 9202,
      "nitro": 9203,
      "Minim": 9204,
      "epithelium": 9205,
      "nails": 9206,
      "immunosuppressants": 9207,
      "auditory": 9208,
      "deletion": 9209,
      "BA": 9210,
      "G6": 9211,
      "Har": 9212,
      "IP": 9213,
      "Mc": 9214,
      "fur": 9215,
      "lamin": 9216,
      "nuclear": 9217,
      "pure": 9218,
      "uated": 9219,
      "ăm": 9220,
      "inic": 9221,
      "lean": 9222,
      "proc": 9223,
      "irreversible": 9224,
      "romy": 9225,
      "paralle": 9226,
      "lies": 9227,
      "104": 9228,
      "tropho": 9229,
      "subtype": 9230,
      "Defin": 9231,
      "ICH": 9232,
      "drops": 9233,
      "STAT": 9234,
      "angioplasty": 9235,
      "enteroc": 9236,
      "illnesses": 9237,
      "bronchoscopy": 9238,
      "empty": 9239,
      "Califor": 9240,
      "communicable": 9241,
      "gravis": 9242,
      "fibrinogen": 9243,
[...]
